{"<s>":0,"</s>":1,"<pad>":2,"<unk>":3,"<mask>":4,"!":5,"\"":6,"#":7,"$":8,"%":9,"&":10,"'":11,"(":12,")":13,"*":14,"+":15,",":16,"-":17,".":18,"/":19,"0":20,"1":21,"2":22,"3":23,"4":24,"5":25,"6":26,"7":27,"8":28,"9":29,":":30,";":31,"<":32,"=":33,">":34,"?":35,"@":36,"A":37,"B":38,"C":39,"D":40,"E":41,"F":42,"G":43,"H":44,"I":45,"J":46,"K":47,"L":48,"M":49,"N":50,"O":51,"P":52,"Q":53,"R":54,"S":55,"T":56,"U":57,"V":58,"W":59,"X":60,"Y":61,"Z":62,"[":63,"\\":64,"]":65,"^":66,"_":67,"`":68,"a":69,"b":70,"c":71,"d":72,"e":73,"f":74,"g":75,"h":76,"i":77,"j":78,"k":79,"l":80,"m":81,"n":82,"o":83,"p":84,"q":85,"r":86,"s":87,"t":88,"u":89,"v":90,"w":91,"x":92,"y":93,"z":94,"{":95,"|":96,"}":97,"~":98,"¡":99,"¢":100,"£":101,"¤":102,"¥":103,"¦":104,"§":105,"¨":106,"©":107,"ª":108,"«":109,"¬":110,"®":111,"¯":112,"°":113,"±":114,"²":115,"³":116,"´":117,"µ":118,"¶":119,"·":120,"¸":121,"¹":122,"º":123,"»":124,"¼":125,"½":126,"¾":127,"¿":128,"À":129,"Á":130,"Â":131,"Ã":132,"Ä":133,"Å":134,"Æ":135,"Ç":136,"È":137,"É":138,"Ê":139,"Ë":140,"Ì":141,"Í":142,"Î":143,"Ï":144,"Ð":145,"Ñ":146,"Ò":147,"Ó":148,"Ô":149,"Õ":150,"Ö":151,"×":152,"Ø":153,"Ù":154,"Ú":155,"Û":156,"Ü":157,"Ý":158,"Þ":159,"ß":160,"à":161,"á":162,"â":163,"ã":164,"ä":165,"å":166,"æ":167,"ç":168,"è":169,"é":170,"ê":171,"ë":172,"ì":173,"í":174,"î":175,"ï":176,"ð":177,"ñ":178,"ò":179,"ó":180,"ô":181,"õ":182,"ö":183,"÷":184,"ø":185,"ù":186,"ú":187,"û":188,"ü":189,"ý":190,"þ":191,"ÿ":192,"Ā":193,"ā":194,"Ă":195,"ă":196,"Ą":197,"ą":198,"Ć":199,"ć":200,"Ĉ":201,"ĉ":202,"Ċ":203,"ċ":204,"Č":205,"č":206,"Ď":207,"ď":208,"Đ":209,"đ":210,"Ē":211,"ē":212,"Ĕ":213,"ĕ":214,"Ė":215,"ė":216,"Ę":217,"ę":218,"Ě":219,"ě":220,"Ĝ":221,"ĝ":222,"Ğ":223,"ğ":224,"Ġ":225,"ġ":226,"Ģ":227,"ģ":228,"Ĥ":229,"ĥ":230,"Ħ":231,"ħ":232,"Ĩ":233,"ĩ":234,"Ī":235,"ī":236,"Ĭ":237,"ĭ":238,"Į":239,"į":240,"İ":241,"ı":242,"Ĳ":243,"ĳ":244,"Ĵ":245,"ĵ":246,"Ķ":247,"ķ":248,"ĸ":249,"Ĺ":250,"ĺ":251,"Ļ":252,"ļ":253,"Ľ":254,"ľ":255,"Ŀ":256,"ŀ":257,"Ł":258,"ł":259,"Ń":260,"in":261,"er":262,"ĉĉ":263,"Ġt":264,"on":265,"Ġa":266,"ti":267,"or":268,"en":269,"ar":270,"he":271,"al":272,"ed":273,"es":274,"ĠĠ":275,"an":276,"is":277,"Ġthe":278,"ing":279,"&#":280,"ut":281,"re":282,"Ġs":283,"Ġo":284,"at":285,"tion":286,"20":287,"le":288,"Ġp":289,"it":290,"ch":291,"ro":292,"Ġc":293,"nd":294,"Ġin":295,"Ġof":296,"ic":297,"Ġ(":298,"el":299,"ĠA":300,"Ġf":301,"Ġd":302,"ĉĊ":303,"Ġm":304,"ent":305,"Ġb":306,"Ġand":307,"ation":308,"Ġw":309,"ig":310,"om":311,"Ġn":312,"et":313,"as":314,"em":315,"ĉĉĊ":316,"Ġ1":317,"Ġto":318,"ur":319,"us":320,"ol":321,"put":322,"ĠS":323,"ce":324,"ĉĉĉĊ":325,"ew":326,"93":327,"Ġ20":328,"91":329,"am":330,"ĠM":331,"ec":332,"\\\"":333,"id":334,"Ġ.":335,"out":336,".&#":337,"ĠT":338,"ĠĠĠĠ":339,"ĠR":340,"ars":341,"ĠC":342,"ĠI":343,"Ġ\"":344,"16":345,"il":346,"Ġl":347,"ĠN":348,"st":349,"ev":350,"mw":351,"Ġre":352,"im":353,"ul":354,"pars":355,"output":356,"parser":357,"ist":358,"ews":359,"Ġh":360,"ad":361,"Ġth":362,"tic":363,"iv":364,"ex":365,"ĠP":366,"ers":367,"ac":368,"ess":369,"Ġon":370,"ge":371,"ri":372,"un":373,",\"":374,"od":375,").":376,"160":377,"ot":378,"19":379,"ter":380,"ine":381,"ly":382,"ell":383,"av":384,"ence":385,"rom":386,"ow":387,"arn":388,"âĢ":389,"),":390,"ith":391,"Ġ202":392,"Ġor":393,"th":394,"og":395,"Ġpro":396,"ĠĠĠ":397,"ab":398,"ay":399,"Ġ[":400,"Ġfrom":401,"ach":402,"ĠB":403,"Ġg":404,"Ġis":405,"Ġr":406,"Ġle":407,"ĠJ":408,"arning":409,"10":410,"Ġ=":411,"fic":412,"\":":413,"âĢĵ":414,"Ġfor":415,"ion":416,"ir":417,"ci":418,",\\":419,"\\\"]":420,"Ġ[\\\"":421,"pl":422,"ap":423,"op":424,"ber":425,"ia":426,"ĠD":427,"ain":428,"ĉĉĉĉĊ":429,"um":430,"Ġnews":431,"ĠIn":432,"os":433,"\",\"":434,"ĠW":435,"CI":436,"for":437,"age":438,"Ġas":439,"Ġcon":440,"Ġcom":441,"ve":442,"ĠH":443,"ĠThe":444,"Ġthat":445,"ĠG":446,"ĠAI":447,"ĠL":448,"ĠAr":449,"bo":450,"ial":451,"ĠF":452,"Ġbe":453,"ĠE":454,"ate":455,"\".":456,"iz":457,"Ġal":458,"}.":459,"TE":460,"RE":461,"Ġlearning":462,"TERE":463,"TEREF":464,"ct":465,"CITEREF":466,"ang":467,"Ġan":468,"Ġv":469,"ort":470,"ht":471,"Ġst":472,"amp":473,"ext":474,"ep":475,"ity":476,"ub":477,"edia":478,"our":479,"ĉĉĉĉ":480,"Ġwh":481,"202":482,"tell":483,"ik":484,"and":485,"ork":486,"ide":487,"achine":488,"tellig":489,"ov":490,"list":491,"Ġwith":492,"Ġ2":493,"ations":494,"ĠĠĠĠĠĠĠĠ":495,"und":496,"Ġby":497,"Ġex":498,"box":499,"ived":500,"ear":501,"riev":502,"ect":503,"Ġus":504,"tific":505,"up":506,"rieved":507,"telligence":508,"igin":509,"qu":510,"Ġit":511,"form":512,"ĠO":513,"ment":514,"201":515,"chived":516,"se":517,"Ġar":518,"Ġorigin":519,"bar":520,"ure":521,"etrieved":522,"lo":523,"ud":524,"ant":525,"ak":526,"ĠRetrieved":527,"port":528,"Ġtr":529,"Ġoriginal":530,"ight":531,"Ġpp":532,"ord":533,"Ġ&":534,"ĠArchived":535,"ont":536,"tificial":537,"cl":538,"tive":539,"ary":540,"ack":541,"ory":542,"Ġare":543,"ug":544,"200":545,"est":546,"if":547,"etw":548,"ĠU":549,"ress":550,"angu":551,"ag":552,"ata":553,",.":554,"uc":555,"ical":556,"00":557,"ural":558,"Ġ2024":559,"ech":560,"ational":561,"ated":562,"ĠNews":563,"ans":564,"odel":565,"nal":566,"Ġ19":567,"Ġ201":568,"nav":569,"col":570,"ĠSt":571,"ies":572,"ble":573,"gin":574,"ere":575,"anguage":576,"ef":577,"sk":578,"cess":579,"yst":580,"Ġdo":581,"ill":582,"tics":583,"earch":584,"pe":585,"ents":586,"\":\"":587,"ember":588,"etwork":589,"ms":590,"Ġ2023":591,"olog":592,"side":593,"ich":594,"all":595,"199":596,"ft":597,"mar":598,"ystem":599,"ĠK":600,"end":601,"hlist":602,"erv":603,"11":604,"so":605,"Ġ3":606,"able":607,"'s":608,"Ġpr":609,"ast":610,"ĠCh":611,"per":612,"Ġim":613,"ave":614,"ener":615,"gor":616,"ref":617,"ous":618,"pro":619,"tern":620,"Ġmodel":621,"Ġch":622,"Ġcan":623,"uss":624,"wg":625,"ism":626,"ass":627,"tical":628,"Ġev":629,"gr":630,"ip":631,"ern":632,"Ġdata":633,"Ġintelligence":634,"ĠIS":635,"12":636,"to":637,"Ġmachine":638,"ign":639,"Ġne":640,"pr":641,"ens":642,"Ġres":643,";&#":644,"tit":645,"ĠCom":646,"enc":647,"ele":648,"ts":649,"ther":650,"tions":651,"ue":652,"ision":653,"Ġnetwork":654,"ournal":655,"Ġhave":656,"ost":657,"Ġac":658,"uch":659,"formation":660,"navbox":661,"gorith":662,"fer":663,"tr":664,"ard":665,"ld":666,"97":667,"hem":668,"Ġsystem":669,"ual":670,"her":671,"15":672,"ding":673,"Ġ0":674,"oc":675,"ore":676,"ite":677,"led":678,"Ġag":679,"Ġap":680,"Ġcomput":681,"iel":682,"sidebar":683,"are":684,"The":685,"ks":686,"Ġk":687,"enti":688,"echn":689,"ubl":690,"margin":691,"Ġun":692,"ome":693,"gro":694,"Ġcl":695,"Ġcont":696,"Ġwhich":697,"Ar":698,"In":699,"ition":700,"not":701,"now":702,"eth":703,"ussell":704,"ober":705,"Ġ5":706,"orld":707,"ance":708,"ame":709,"ult":710,"ient":711,"oci":712,"2021":713,"18":714,"back":715,"Ġhas":716,"ĠY":717,"Ġat":718,"ĠNor":719,"les":720,"ong":721,"ati":722,"ĠAl":723,"Ġnot":724,"vig":725,"art":726,"line":727,"edit":728,"color":729,"Ġdoi":730,"BN":731,"tim":732,"Ġwas":733,"ys":734,"Ġtheir":735,"ĠTh":736,"ization":737,"ĠNorvig":738,"13":739,"14":740,"ind":741,"ĠRussell":742,"ĠUn":743,"one":744,"Ġalgorith":745,"ĠISBN":746,"::":747,"Ġcomp":748,"font":749,"ĉĉĉ":750,"uman":751,".;":752,"Ġdis":753,"eb":754,"ust":755,"ology":756,"Ġsp":757,"Ġprocess":758,"ize":759,"23":760,"ĠV":761,"evel":762,"ĠLe":763,"17":764,"ons":765,"ctober":766,"ics":767,"pt":768,"Ġab":769,"Ġsuch":770,"25":771,"ian":772,"evelop":773,"):":774,"ace":775,"cri":776,"pap":777,"af":778,"px":779,"Ġlanguage":780,"Ġgener":781,"io":782,"ific":783,"oun":784,"pad":785,"Ġj":786,"ĠOctober":787,"padding":788,"\",":789,"ction":790,"mun":791,"uary":792,"ver":793,"ield":794,"ely":795,"Ġartificial":796,"24":797,"ative":798,"any":799,"Ġused":800,"26":801,"AI":802,"Ġad":803,"Ġalso":804,"eep":805,"ok":806,"ild":807,"gram":808,"bot":809,"ications":810,"te":811,"lob":812,"skin":813,"oul":814,"ss":815,"Ġe":816,"ree":817,"ates":818,"ased":819,"imit":820,"ower":821,"Ġ4":822,"Ġen":823,"Ġrel":824,"clud":825,"eat":826,"sty":827,"Com":828,"com":829,"ark":830,"ogn":831,"portant":832,"ors":833,"Ġits":834,"pref":835,"istory":836,"irst":837,"978":838,"be":839,"Ġother":840,"Ġproble":841,"cience":842,"act":843,"lobal":844,"ould":845,"cre":846,"dis":847,"Ġper":848,"ive":849,"ĠPress":850,"Ġcons":851,"ire":852,"atural":853,"Ġdes":854,"ĠMachine":855,"Ġknow":856,"read":857,"ĠIntelligence":858,"88":859,"ff":860,"{\"":861,"Ġsol":862,"Ġpl":863,"Ġdec":864,"ra":865,"ution":866,"Ġdevelop":867,"ety":868,"wik":869,"ines":870,"ĠNew":871,"order":872,".\"":873,"cent":874,"ib":875,"left":876,"title":877,"ware":878,"int":879,"ĉĉĉĉĉĊ":880,"esent":881,"ann":882,"ish":883,"play":884,"Ġnetworks":885,"gan":886,"Ġro":887,"ari":888,"ake":889,"ages":890,"ground":891,"27":892,"Ġsh":893,"ugh":894,"ublic":895,"ethod":896,"Ġinter":897,"Ġmore":898,"Ġli":899,"ĠPro":900,"Ġtrain":901,"Ġmodels":902,"ck":903,"iew":904,"ten":905,"Ġwere":906,"client":907,"heme":908,"border":909,"ha":910,"child":911,"ase":912,"ĠArtificial":913,"Ġanal":914,"2023":915,"Ġneural":916,"80":917,"oh":918,"edic":919,"Ġout":920,"lex":921,"Ġinclud":922,"Ġthis":923,"..":924,"Ġinformation":925,"ection":926,"Ġprogram":927,"Ġtrans":928,"ternational":929,"Ġresearch":930,"ĠLearning":931,"ee":932,"mer":933,"ound":934,"Ġtechn":935,"atis":936,"2004":937,"background":938,"duc":939,"media":940,"erm":941,"ector":942,"90":943,"ile":944,"Ġund":945,"Ġbec":946,"ledge":947,"Ġclass":948,"Ġaut":949,"hes":950,"Ġsub":951,"ĠRe":952,"86":953,"text":954,"ert":955,"ised":956,"Ġthey":957,"Ġop":958,"Ġrepr":959,"Ġnewspap":960,"33":961,"hat":962,"none":963,"right":964,"Ġ6":965,"Ġmethod":966,"Ġrec":967,"Ġsystems":968,"Ġsome":969,"Ġnew":970,"Ġhuman":971,"size":972,"ement":973,"Ġ2020":974,"une":975,"ĠJournal":976,"\":{\"":977,"Ġbeen":978,".,":979,"22":980,"Ġem":981,"onom":982,"orm":983,"30":984,"aw":985,"oft":986,"}}":987,"overn":988,"iti":989,"ption":990,"Ġdif":991,"old":992,"aph":993,"ĠGo":994,"Ex":995,"ail":996,"ink":997,"uring":998,"Ġ200":999,"ĠDec":1000,"ose":1001,"uperv":1002,"Ġabout":1003,"display":1004,"clientpref":1005,"Ġunder":1006,"\\/":1007,"ier":1008,"uct":1009,"wid":1010,"ings":1011,"ility":1012,"ever":1013,"Ġreport":1014,"important":1015,"ivers":1016,"ysis":1017,"width":1018,"36":1019,"50":1020,"DF":1021,"ĠMar":1022,"ĠMay":1023,"Ġuse":1024,"Ġalgorithms":1025,"40":1026,"News":1027,"cont":1028,"ty":1029,"ua":1030,"Ġtext":1031,"ticle":1032,"oss":1033,"Al":1034,"tember":1035,"yn":1036,"ery":1037,"ĉĉĉĉĉĉĊ":1038,"anuary":1039,"Ġind":1040,"Ġinto":1041,"CID":1042,"eptember":1043,"ovember":1044,"Ġ2018":1045,"ences":1046,"ready":1047,");":1048,"En":1049,"low":1050,"Ġqu":1051,"Ġpar":1052,"100":1053,"fore":1054,"Ġappro":1055,"upervised":1056,"Wik":1057,"limit":1058,"arg":1059,"eman":1060,"ames":1061,"ĠMedia":1062,"ency":1063,"PDF":1064,"ible":1065,"ob":1066,"oy":1067,"rit":1068,"ric":1069,"Ġol":1070,"ime":1071,"ĠJune":1072,"ects":1073,"ression":1074,"ces":1075,"yp":1076,"align":1077,"ĠAn":1078,"Ġbut":1079,"olic":1080,"str":1081,"1998":1082,"ne":1083,"pec":1084,"Ġhe":1085,"Ġob":1086,"Ġbi":1087,"Ġacc":1088,"Artificial":1089,"ĠThis":1090,"Ġprocessing":1091,"style":1092,"Ġdecision":1093,"ple":1094,"ond":1095,"Ġmay":1096,"Ġno":1097,"ĠĠĠĠĠĠĠĠĠĠĠĠ":1098,"eop":1099,"Ġword":1100,"ĠSeptember":1101,"ular":1102,"unction":1103,"ĠComput":1104,"Ġjournal":1105,"top":1106,"Ġ'":1107,"hed":1108,"Ġset":1109,"ĠSoci":1110,"ĠNovember":1111,"ĠJanuary":1112,"ike":1113,"navbar":1114,"Comput":1115,"oftware":1116,"overnment":1117,"85":1118,"Re":1119,"vol":1120,"Ġ7":1121,"tiv":1122,"ally":1123,"Ġcent":1124,"ication":1125,"Ġmedia":1126,"uly":1127,"âĢĶ":1128,"ĠWorld":1129,"lock":1130,"eature":1131,"Ed":1132,"een":1133,"ie":1134,"Ġsim":1135,"2019":1136,"ĠIt":1137,"cies":1138,"eople":1139,"St":1140,"ym":1141,"Ġul":1142,"eng":1143,"rev":1144,"road":1145,"Ġmat":1146,"Ġmost":1147,"ĠEn":1148,"38":1149,"hil":1150,"Ð°":1151,"Ġsoci":1152,"ited":1153,"ason":1154,"urr":1155,"29":1156,"ax":1157,"iqu":1158,"ns":1159,"Ġtas":1160,"arge":1161,"Ġfield":1162,"Ġmany":1163,"Ġworld":1164,"ĠPM":1165,"Ġone":1166,"Ġanalysis":1167,"Ġrepresent":1168,"content":1169,"(.":1170,"az":1171,"aus":1172,"ied":1173,"ĠZ":1174,"ating":1175,"Ġpublic":1176,"Ġdd":1177,"oli":1178,"Ġreg":1179,"ode":1180,"ample":1181,"after":1182,"Ġtraining":1183,"\\\\":1184,"hy":1185,"encies":1186,"Ġthese":1187,"elf":1188,"empl":1189,"ĠMc":1190,"ody":1191,"Ġform":1192,"plications":1193,"ĠHistory":1194,"Ġpredic":1195,"Ġevents":1196,"ipedia":1197,"iversity":1198,"60":1199,"LP":1200,"Pro":1201,"tt":1202,"},\"":1203,"Ġtheory":1204,"Ġdt":1205,"Ġwill":1206,"Ġ2021":1207,"ĉĉĉĉĉĉĉĊ":1208,"Ġexper":1209,"ference":1210,"Ġalgorithm":1211,"\"]":1212,"){":1213,"Main":1214,"à¤":1215,"Ġserv":1216,"2020":1217,"rol":1218,"ized":1219,"Ġstr":1220,"ĠĠĠĠĠĠĠĠĠĠĠĠĠĠĠĠ":1221,"ĠDecember":1222,"Machine":1223,"ness":1224,"uro":1225,"Ġpower":1226,"Ġ17":1227,"Ġ2019":1228,"ading":1229,"rib":1230,"Ġ2022":1231,"Ġlearn":1232,"2015":1233,"21":1234,"87":1235,"SN":1236,"[\"":1237,"hip":1238,"ood":1239,"Ġef":1240,"orp":1241,"alse":1242,"ures":1243,"ĠCon":1244,"ĠInternational":1245,"Ġexp":1246,"Ġspec":1247,"atistical":1248,"Ġrecogn":1249,"ove":1250,"ases":1251,"Ġ10":1252,"2011":1253,"etween":1254,"Ġcomputer":1255,"ount":1256,"Ġmethods":1257,"%;":1258,",&#":1259,"gl":1260,"pre":1261,"ram":1262,"ting":1263,"Ġy":1264,"Ġover":1265,"Ġpeople":1266,"iven":1267,"ĠFor":1268,"ĠYork":1269,"crib":1270,"Ġknowledge":1271,"59":1272,"cs":1273,"ml":1274,"oo":1275,"alue":1276,"Ġsc":1277,"Ġcall":1278,"ĠAs":1279,"Ġbetween":1280,"ets":1281,"Ġlog":1282,"ticles":1283,"ĠPr":1284,"acy":1285,"Ġris":1286,"ĠGlobal":1287,"2014":1288,"colum":1289,"ĠCommun":1290,"hema":1291,"Ġproblems":1292,"Edit":1293,"ll":1294,"lan":1295,"min":1296,"ues":1297,"ven":1298,"Ġ8":1299,"Ġ9":1300,"ering":1301,"Ġreal":1302,"Ġgovernment":1303,"ĠJuly":1304,"Ġvector":1305,"aking":1306,"ĠISSN":1307,"ension":1308,"elev":1309,"ification":1310,"Ġrelations":1311,"before":1312,"Ġnewspapers":1313,"air":1314,"the":1315,"theme":1316,"Ġtime":1317,"org":1318,"als":1319,"Ġdet":1320,"ists":1321,"erson":1322,"abled":1323,"ĠWik":1324,"ugust":1325,"ĠMarch":1326,"--":1327,"28":1328,"45":1329,"ral":1330,"ran":1331,"sub":1332,"we":1333,"Ġup":1334,"Ġam":1335,"lear":1336,"rough":1337,"Ġincre":1338,"Ġdef":1339,"Ġme":1340,"Ġthan":1341,"Ġprov":1342,"osop":1343,"Ġvari":1344,"ulture":1345,"ĠUniversity":1346,"Ġdisc":1347,"Ġproblem":1348,"ormal":1349,"hilosop":1350,"67":1351,"Lua":1352,"body":1353,"ou":1354,"sp":1355,"vers":1356,"ining":1357,"iness":1358,"esearch":1359,"ick":1360,"Ġfirst":1361,"2022":1362,"ically":1363,"pril":1364,"ential":1365,"fl":1366,"ming":1367,"son":1368,"ted":1369,"height":1370,"ale":1371,"Ġhad":1372,"Ġall":1373,"html":1374,"peech":1375,"group":1376,"roadc":1377,"emplate":1378,"01":1379,"39":1380,"first":1381,"last":1382,"mon":1383,"man":1384,"orth":1385,"istic":1386,"ished":1387,"Ġsour":1388,"ice":1389,"igh":1390,"Ġ14":1391,"Ġ15":1392,"Ġ16":1393,"ols":1394,"Ġgro":1395,"2024":1396,"Ġexpl":1397,"Ġusing":1398,"reflist":1399,"ertain":1400,"br":1401,"ry":1402,"Ðº":1403,"ories":1404,"ingu":1405,"uture":1406,"Ġinput":1407,"ices":1408,"Ġ18":1409,"idd":1410,"ulti":1411,"ade":1412,"adio":1413,"Ġgo":1414,"ument":1415,"Ġstud":1416,"Ġ26":1417,"Ġexample":1418,"Ġ2015":1419,"ological":1420,"soci":1421,"elect":1422,"ferent":1423,"Ġgeneral":1424,"meric":1425,":#":1426,"Sand":1427,"aj":1428,"false":1429,"ĠAg":1430,"Ġwork":1431,"Ġchpt":1432,"roadcast":1433,"37":1434,"55":1435,"Cont":1436,"ID":1437,"ah":1438,"field":1439,"off":1440,"par":1441,"with":1442,"Ġid":1443,"Ġso":1444,"Ġcre":1445,"Ġcol":1446,"Ġnatural":1447,"Ġlarge":1448,"Ġreason":1449,"Ġhow":1450,"Ġorgan":1451,"Ġcommun":1452,"Ġcomputing":1453,"ebr":1454,"ohn":1455,"cc":1456,"itive":1457,"log":1458,"ward":1459,"worth":1460,"Ñģ":1461,"ĠApril":1462,"ĠAmeric":1463,"Ġfound":1464,"Ġwould":1465,"ĠTr":1466,"ability":1467,"achines":1468,"Ġwhat":1469,"Ġdevelopment":1470,"Ġcalled":1471,"LuaSand":1472,"ebruary":1473,"LuaSandbox":1474,"34":1475,"language":1476,"ook":1477,"raph":1478,"uation":1479,"Ġext":1480,"Ġscience":1481,"ĠAugust":1482,"Ġwe":1483,"imedia":1484,"ogle":1485,"CITEREFM":1486,"Ġwho":1487,"over":1488,"Ġarticle":1489,"ski":1490,"Ġeach":1491,"Ġperform":1492,"05":1493,"99":1494,"fter":1495,"sh":1496,"ves":1497,"Ġcap":1498,"Ġmark":1499,"usiness":1500,"Ġthrough":1501,"oth":1502,"Ġass":1503,"ities":1504,"Ġdifferent":1505,"ymb":1506,"urrent":1507,"+.":1508,"46":1509,"Cite":1510,"aa":1511,"ful":1512,"li":1513,"main":1514,"pen":1515,"res":1516,"ris":1517,"}@":1518,"Ġsearch":1519,"Ġcould":1520,"Ġdist":1521,"Ġman":1522,"ĠInd":1523,"ĠInformation":1524,"Ġwhen":1525,"portal":1526,"Ġagencies":1527,"sson":1528,"Ġtechniqu":1529,"arget":1530,"82":1531,"An":1532,"EE":1533,"hen":1534,"mit":1535,"wn":1536,"Ġif":1537,"err":1538,"Ġtyp":1539,"istics":1540,"Ġpre":1541,"Ġoften":1542,"ĠScience":1543,"Ġ2016":1544,"ĠTechn":1545,"stand":1546,"ĠEx":1547,"epend":1548,"Ġimp":1549,"ually":1550,"Ġinclude":1551,"type":1552,"ĠPMID":1553,"ause":1554,"olitical":1555,"elevision":1556,"weight":1557,"35":1558,"based":1559,"fd":1560,"Ġtw":1561,"ital":1562,"Ġwell":1563,"ĠRev":1564,"ĠResearch":1565,"ilsson":1566,"Ġlike":1567,"ĠNe":1568,"ĠNLP":1569,"aches":1570,"Ġonly":1571,"botics":1572,"ĠFebruary":1573,"ĠĠĠĠĠĠĠĠĠ":1574,"herit":1575,"ĠUnited":1576,"cription":1577,"duction":1578,"Ġtasks":1579,"urope":1580,"06":1581,"Tr":1582,"ron":1583,"inherit":1584,"iss":1585,"iction":1586,"ĠAp":1587,"ĠAnd":1588,"Ġdl":1589,"ider":1590,"Ġred":1591,"cial":1592,"Ġ22":1593,"2018":1594,"Ġneed":1595,"true":1596,"styles":1597,"Ġsubs":1598,"Ġreasoning":1599,"08":1600,"09":1601,"Qu":1602,"ey":1603,"feature":1604,"ject":1605,"ule":1606,"vel":1607,"Ġthem":1608,"Ġoper":1609,"2016":1610,"Ġph":1611,"ĠHow":1612,"Ġwhere":1613,"ugg":1614,"sky":1615,"Ġwords":1616,"Ġrecognition":1617,"44":1618,"89":1619,"Ap":1620,"Page":1621,"Th":1622,"gine":1623,"han":1624,"pos":1625,"van":1626,"value":1627,"Ġse":1628,"Ġseman":1629,"attern":1630,"learning":1631,"Ġde":1632,"Ġdeep":1633,"Ġ11":1634,"Ġ13":1635,"Ġtop":1636,"ĠSch":1637,"Ġlab":1638,"action":1639,"197":1640,"anguages":1641,"ternet":1642,"Ġeven":1643,"Ġcontrol":1644,"center":1645,"Ġinterest":1646,"pecial":1647,"\".&#":1648,"Natural":1649,"ced":1650,"ious":1651,"oad":1652,"ough":1653,"sc":1654,"var":1655,"entific":1656,"ange":1657,"ise":1658,"rey":1659,"Ġscre":1660,"atch":1661,"Ġmake":1662,"ĠSh":1663,"ivid":1664,"ote":1665,"Ġright":1666,"ples":1667,"Ġstatistical":1668,"telligent":1669,"2006":1670,"Ġsolid":1671,"ĠJournalism":1672,"Ð°Ñ":1673,"Ġeff":1674,"Ġscreen":1675,"\")":1676,"Con":1677,"ience":1678,"mons":1679,"ww":1680,"Ġear":1681,"Ġafter":1682,"ality":1683,"Ġsup":1684,"lect":1685,"Ġcor":1686,"Ġdom":1687,"Ġnum":1688,"ĠSystem":1689,"ilar":1690,"Ġloc":1691,"Ġlanguages":1692,"Ġret":1693,"ulation":1694,"Ġthere":1695,"ions":1696,"ĠDan":1697,"ained":1698,"ateg":1699,"CITEREFS":1700,"Ġarg":1701,"uction":1702,"cessing":1703,"Ġprint":1704,"entif":1705,"ossible":1706,"Computational":1707,"volution":1708,"Ġspecific":1709,"hilosophy":1710,"inguistics":1711,"Ġidentif":1712,"110":1713,"Cl":1714,"code":1715,"hor":1716,"page":1717,"áĥ":1718,"ĠĊ":1719,"Ġes":1720,"ina":1721,"inn":1722,"infor":1723,"inline":1724,"Ġav":1725,"arr":1726,"Ġsee":1727,"ements":1728,"ĠCulture":1729,"ays":1730,"ĠEurope":1731,"Ġ2017":1732,"Ġ30":1733,"ĠAllan":1734,"ĠSociety":1735,"Ġlogic":1736,"Aut":1737,"Ch":1738,"Language":1739,"Name":1740,"atic":1741,"ears":1742,"flo":1743,"pha":1744,"tro":1745,"tom":1746,"ĠâĢĵ":1747,"ince":1748,"Ġact":1749,"reg":1750,"ley":1751,"ĠMe":1752,"ĠTemplate":1753,"ĠRep":1754,"ules":1755,"istor":1756,"odern":1757,"avi":1758,"ogg":1759,"Ġglobal":1760,"Ġradio":1761,"ĠThese":1762,"Ġbeh":1763,"Ġstat":1764,"ĠStates":1765,"bots":1766,"Ġdeveloped":1767,"Ġoutput":1768,"ĠEngl":1769,"ĠMcC":1770,"flu":1771,"float":1772,"(--":1773,"02":1774,"49":1775,"65":1776,"75":1777,"PT":1778,"What":1779,"ael":1780,"cement":1781,"flex":1782,"jec":1783,"lap":1784,"supervised":1785,"vis":1786,"vir":1787,"Ġ#":1788,"inks":1789,"erg":1790,"ather":1791,"Ġpubl":1792,"Ġrequ":1793,"acts":1794,"ĠJohn":1795,"ford":1796,"Ġany":1797,"ideo":1798,"Ġ21":1799,"2017":1800,"Ġapplications":1801,"irect":1802,"Ġincluding":1803,"ĠĠĠĠĠĠĠĠĠĠĠĠĠ":1804,"ajor":1805,"Ġtwo":1806,"Sh":1807,"Software":1808,"dition":1809,"jects":1810,"oid":1811,"ving":1812,"Ġet":1813,"ties":1814,"ene":1815,"enn":1816,"eds":1817,"reak":1818,"att":1819,"ature":1820,"Ġpress":1821,"elow":1822,"Ġbased":1823,"Ġboth":1824,"ury":1825,"ĠModel":1826,"Ġlong":1827,"Ġhand":1828,"1993":1829,"irc":1830,"ĠLanguage":1831,"Ġbeing":1832,"1997":1833,"Ġnewspaper":1834,"Ġpartic":1835,"Ġstudy":1836,"gineering":1837,"inforcement":1838,"\";":1839,"07":1840,"32":1841,"77":1842,"83":1843,"Us":1844,"bab":1845,"fus":1846,"hu":1847,"ph":1848,"pts":1849,"utions":1850,"Ġtest":1851,"alth":1852,"reat":1853,"Ġsoftware":1854,"Ġpart":1855,"Ġmain":1856,"ems":1857,"ĠTuring":1858,"ĠĠĠĠĠ":1859,"ĠNilsson":1860,"imes":1861,"ader":1862,"berg":1863,"Ġstories":1864,"2013":1865,"ichael":1866,"Ġimportant":1867,"ock":1868,"ognitive":1869,"begin":1870,"Ġdesign":1871,".\"&#":1872,"Ġapproach":1873,"Ġmathema":1874,"Ġsociety":1875,"ymbolic":1876,"42":1877,"96":1878,":\"":1879,"BC":1880,"RL":1881,"Text":1882,"Togg":1883,"cern":1884,"der":1885,"ix":1886,"wh":1887,"à¦":1888,"ĠX":1889,"Ġec":1890,"ĠĠĊ":1891,"Ġsec":1892,"Ġsuc":1893,"its":1894,"Ġmajor":1895,"Ġnon":1896,"asing":1897,"urther":1898,"unto":1899,"Ġcommon":1900,"Ġ23":1901,"ups":1902,"akes":1903,"Ġchang":1904,"Ġknown":1905,"anning":1906,"...":1907,"Ġtechnology":1908,"ĠGoogle":1909,"pretitle":1910,"cribunto":1911,"oole":1912,"ÑģÐº":1913,"Ġmarket":1914,"standing":1915,"Toggle":1916,"Deep":1917,"IT":1918,"Le":1919,"Ref":1920,"night":1921,"ox":1922,"ps":1923,"serv":1924,"stit":1925,"Ġeth":1926,"ined":1927,"onment":1928,"Ġsur":1929,"Ġpolitical":1930,"ross":1931,"Ġinflu":1932,"ĠAd":1933,"Ġfunction":1934,"Ġfuture":1935,"Ġmem":1936,"Ġmachines":1937,"Ġ12":1938,"olution":1939,"\":[\"":1940,"ired":1941,"ĠDeep":1942,"izing":1943,"Ġval":1944,"Ġwithout":1945,"2012":1946,"ackworth":1947,"Articles":1948,"bottom":1949,"Ġprogramming":1950,"Ġclassif":1951,"Ġclassification":1952,"olicy":1953,"Ġrelationship":1954,"vironment":1955,".).":1956,":-":1957,"Gener":1958,"Id":1959,"Is":1960,"Xiv":1961,"land":1962,"yber":1963,"áĢ":1964,"Ġed":1965,"tice":1966,"arm":1967,"arre":1968,"Ġperson":1969,"Ġcirc":1970,"els":1971,"Ġduring":1972,"Ġlimit":1973,"Ġlaw":1974,"image":1975,"ĠPet":1976,"1988":1977,"ayes":1978,"Ġgiven":1979,"Ġiss":1980,"ficient":1981,"cientific":1982,"izations":1983,"CITEREFB":1984,"ants":1985,"Ġimage":1986,"refbegin":1987,"graph":1988,"elegraph":1989,"Ġconsider":1990,"Ġautom":1991,"Ġoptim":1992,"}}@":1993,"Ġbias":1994,"ĠGlobalization":1995,"ĠCommunication":1996,"roadcasting":1997,"ĠAmerican":1998,"Ġtechniques":1999,"error":2000,"Ġearly":2001,").&#":2002,"04":2003,"66":2004,"81":2005,"NN":2006,"below":2007,"ner":2008,"of":2009,"ton":2010,"Ġest":2011,"Ġelect":2012,"ute":2013,"Ġco":2014,"Ġcover":2015,"Ġinternational":2016,"Ġinvol":2017,"Ġfin":2018,"Ġdat":2019,"Ġmulti":2020,"Ġway":2021,"ash":2022,"Ġtools":2023,"url":2024,"urs":2025,"user":2026,"amples":2027,"ĠMIT":2028,"ĠRo":2029,"ĠIs":2030,"Ġlinks":2031,"Ġhistory":2032,"avid":2033,"own":2034,"abl":2035,"above":2036,"ĠBib":2037,"ĠJames":2038,"cious":2039,"Ġconcern":2040,"ected":2041,"ĠNewspap":2042,"try":2043,"Ġcontent":2044,"wikipedia":2045,"wikimedia":2046,"Ġresearchers":2047,"atistics":2048,"ailable":2049,"Ġapproaches":2050,"Ġsimilar":2051,"Ġstruct":2052,"column":2053,"columns":2054,"ĠReview":2055,"ividual":2056,"ĠBibcode":2057,"Ne":2058,"ai":2059,"che":2060,"hang":2061,"lation":2062,"link":2063,"mall":2064,"red":2065,"rap":2066,"sing":2067,"à¥":2068,"inter":2069,"Ġterm":2070,"ense":2071,"Ġsit":2072,"Ġsent":2073,"Ġpossible":2074,"icro":2075,"Ġbu":2076,"Ġnational":2077,"ĠMichael":2078,"idata":2079,"ĠCl":2080,"Ġrules":2081,"ĠEm":2082,"Ġview":2083,"Ġ24":2084,"Ġ25":2085,"2008":2086,"Ġ2012":2087,"ĠStud":2088,"allback":2089,"1999":2090,"ended":2091,"ĠChris":2092,"125":2093,"Ġappl":2094,"Article":2095,"nowledge":2096,"Ġtrained":2097,"Ġprograms":2098,"Ext":2099,"Ġindividual":2100,"Wiki":2101,"tivity":2102,"Ġservices":2103,"Ġrisk":2104,"vention":2105,"ĠWikipedia":2106,"subgroup":2107,"Ġamong":2108,"Ġsources":2109,"fdfd":2110,"pecially":2111,"Ġeconom":2112,"Ġsuccess":2113,"?\".":2114,"Ro":2115,"au":2116,"day":2117,"iev":2118,"ler":2119,"lower":2120,"vector":2121,"Ġtelevision":2122,"til":2123,"edical":2124,"anies":2125,"Ġpot":2126,"Ġpattern":2127,"row":2128,"ĠAut":2129,"Ġfact":2130,"Ġbr":2131,"ignal":2132,"uster":2133,"ambox":2134,"ĠMackworth":2135,"outh":2136,"ĠCent":2137,"ily":2138,"ĠNetwork":2139,"Ġhigh":2140,"Ġthose":2141,"ries":2142,"apan":2143,"ĠData":2144,"aining":2145,"ĠGe":2146,"quote":2147,"Ġarticles":2148,"ĠarXiv":2149,"uck":2150,"Ġ2014":2151,"ĠStep":2152,"gines":2153,"ologies":2154,"Ġpriv":2155,"gorithm":2156,"Ġconsum":2157,"duced":2158,"Ġbecome":2159,"Ġaccur":2160,"Ġjournalists":2161,"Ġsocial":2162,"\"],\"":2163,"ĠAssoci":2164,"ĠSystems":2165,"Ġidentify":2166,"avior":2167,"arrett":2168,"56":2169,"Barrett":2170,"Im":2171,"bed":2172,"max":2173,"ued":2174,"uce":2175,"ze":2176,"Ã¼":2177,"Ø±":2178,"Ġ{":2179,"Ġter":2180,"orn":2181,"Ġsign":2182,"Ġown":2183,"ath":2184,"itation":2185,"Ġfoc":2186,"Ġmuch":2187,"Ġmind":2188,"Ġmining":2189,"Ġbl":2190,"Ġback":2191,"Ġwrit":2192,"ĠSim":2193,"amb":2194,"Ġlay":2195,"ĠPar":2196,"ograph":2197,"ĠBer":2198,"ficult":2199,"ploy":2200,"pload":2201,"ĠGu":2202,"book":2203,"ource":2204,"ments":2205,"Ġ31":2206,"Ġimpro":2207,"Ġresp":2208,"tity":2209,"Ġcomplex":2210,"ebel":2211,"Ġengineering":2212,"Ġperce":2213,"Ġdescription":2214,"inese":2215,"Ġbecame":2216,"Ġdifficult":2217,"Ġjournalism":2218,"ĠSocial":2219,"Ġrepresentation":2220,"orpor":2221,"ĠCommunications":2222,"Ġdetection":2223,"idden":2224,"ictionary":2225,"Ġparticular":2226,"ayesian":2227,"//":2228,"57":2229,"69":2230,"As":2231,"ES":2232,"See":2233,"Un":2234,"aut":2235,"by":2236,"clear":2237,"function":2238,"iet":2239,"pag":2240,"incent":2241,"arch":2242,"Ġsect":2243,"Ġsame":2244,"Ġspeech":2245,"Ġsince":2246,"level":2247,"Ġcertain":2248,"ental":2249,"Ġbusiness":2250,"ĠMark":2251,"idge":2252,"Ġline":2253,"Ġread":2254,"Ġthen":2255,"ĠPl":2256,"ĠPoole":2257,"ession":2258,"thics":2259,"ĠBri":2260,"Ġgr":2261,"ĠWay":2262,"vey":2263,"ategor":2264,"CITEREFH":2265,"CITEREFR":2266,"htt":2267,"class":2268,"uger":2269,"ught":2270,"0000":2271,"soft":2272,"Ġneur":2273,"Ġagent":2274,"Ġagents":2275,"ultural":2276,"Ġspace":2277,"afety":2278,"Ġgenerative":2279,"ĠProcessing":2280,"Ġbecause":2281,"Ġopen":2282,"everal":2283,"Ġques":2284,"ĠComputer":2285,"ribution":2286,"ĠTrans":2287,"Ġavailable":2288,"ĠEnglish":2289,"Ġfocus":2290,"58":2291,"Callback":2292,"Go":2293,"GPT":2294,"Media":2295,"Pr":2296,"Search":2297,"Scribunto":2298,"aid":2299,"cer":2300,"con":2301,"ctions":2302,"conom":2303,"lp":2304,"ply":2305,"});":2306,"erences":2307,"Ġtd":2308,"tian":2309,"arth":2310,"Ġspe":2311,"ator":2312,"round":2313,"ĠAm":2314,"Ġfair":2315,"oming":2316,"emin":2317,"cept":2318,"Ġlinguistics":2319,"imension":2320,"ister":2321,"Ġhum":2322,"acter":2323,"Ġprod":2324,"Ġprof":2325,"ables":2326,"ĠBy":2327,"ĠWe":2328,"Ġconn":2329,"ĠThey":2330,"ĠGerm":2331,"ĠFr":2332,"CITEREFG":2333,"ubble":2334,"ĉĉĉĉĉĉĉĉĊ":2335,"Ġuses":2336,"ĠOr":2337,"uclear":2338,"Ġdoes":2339,"erva":2340,"wgR":2341,"Ġevent":2342,"ocument":2343,"note":2344,"notheme":2345,"Ġaddition":2346,"Ġenvironment":2347,"Ġrelated":2348,"wiki":2349,"hatnote":2350,"onomous":2351,"ĠGoebel":2352,"ynt":2353,"Engines":2354,"oyd":2355,"Computer":2356,"revier":2357,"Ġtask":2358,"ribut":2359,"minerva":2360,"Ġprovid":2361,"Ġsource":2362,"Ġorganizations":2363,"LuaSandboxCallback":2364,"Ġsubsection":2365,"uggest":2366,"Ġnumber":2367,"Ġlocal":2368,"ĠDaniel":2369,"Ġespecially":2370,"Ġestabl":2371,"Extension":2372,"ubblefield":2373,".),":2374,"116":2375,"47":2376,"92":2377,"View":2378,"bold":2379,"break":2380,"gress":2381,"normal":2382,"uf":2383,"ved":2384,"word":2385,"ype":2386,"Ð¸":2387,"Ġ/":2388,"Ġtake":2389,"aning":2390,"uters":2391,"Ġpo":2392,"Ġpars":2393,"Ġpost":2394,"Ġprev":2395,"itz":2396,"Ġcri":2397,"icit":2398,"ĠAlex":2399,"Ġms":2400,"ĠMor":2401,"Ġrele":2402,"aces":2403,"ĠBoyd":2404,"Ġrule":2405,"osh":2406,"ĠGener":2407,"ĠLuger":2408,"Ġbegan":2409,"ĠEd":2410,"andom":2411,"Ġ28":2412,"Ġexist":2413,"2001":2414,"2009":2415,"Ġ197":2416,"Ġ1990":2417,"collap":2418,"ĠStubblefield":2419,"ĠChinese":2420,"ardware":2421,"Ġcontin":2422,"Ġatt":2423,"Ġcompanies":2424,"Ġjob":2425,"Ġadv":2426,"tegr":2427,"Ġplay":2428,"Ġshow":2429,"Ġshort":2430,"ĠReg":2431,"1007":2432,"ĠComputational":2433,"ĠPMC":2434,"Ġexperience":2435,"Ġincreasing":2436,"Ġvarious":2437,"Ġmathematical":2438,"yberne":2439,"Ġcoverage":2440,"ĠWayback":2441,"03":2442,"43":2443,"On":2444,"Techn":2445,"fit":2446,"sv":2447,"sw":2448,"ĠQu":2449,"intelligence":2450,"Ġtable":2451,"Ġaud":2452,"arv":2453,"isc":2454,"inger":2455,"Ġser":2456,"ators":2457,"eless":2458,"Ġfeat":2459,"Ġmon":2460,"Ġwid":2461,"aster":2462,"urity":2463,"ollow":2464,"ework":2465,"ĠĠĠĠĠĠĠ":2466,"ĠRec":2467,"ĠCre":2468,"ĠIm":2469,"Ġless":2470,"ficial":2471,"Ġallow":2472,"Ġwhile":2473,"Ġ27":2474,"2005":2475,"2007":2476,"agaz":2477,"Ġresult":2478,"ĠComp":2479,"Ġcomputational":2480,"Ġcontext":2481,"Ġtranslation":2482,"Ġunderstanding":2483,"Ġdecisions":2484,"ramework":2485,"iddle":2486,"Ġgoal":2487,"EEE":2488,"Ġtypically":2489,"Ġpublished":2490,"User":2491,"babil":2492,"Ġhumans":2493,"collapse":2494,"svg":2495,"48":2496,":\\/":2497,"BM":2498,"certain":2499,"ging":2500,"gree":2501,"iod":2502,"ken":2503,"kow":2504,"like":2505,"pear":2506,"table":2507,"ÑĢ":2508,"Ġent":2509,"ination":2510,"ints":2511,"report":2512,"Ġsing":2513,"Ġsupervised":2514,"Ġseveral":2515,"Ġprom":2516,"chor":2517,"Ġcount":2518,"Ġinc":2519,"Ġinv":2520,"Ġinternet":2521,"Ġintelligent":2522,"ĠAf":2523,"Ġfind":2524,"Ġfeature":2525,"Ġdev":2526,"Ġdepend":2527,"Ġmis":2528,"ilit":2529,"Ġrefer":2530,"iver":2531,"Ġonline":2532,"Ġ2025":2533,"though":2534,"ĠBe":2535,"ĠBr":2536,"ĠBayesian":2537,"Ġrather":2538,"Ġlead":2539,"plain":2540,"ĠWh":2541,"Ġconstr":2542,"ĠHe":2543,"CITEREFL":2544,"Ġstate":2545,"antan":2546,"Ġ2011":2547,"Ġ2013":2548,"1995":2549,"ĠChina":2550,"toc":2551,"times":2552,"Ġprocesses":2553,"ounter":2554,"Ġsolve":2555,"ishing":2556,"Ġanaly":2557,"ĠReuters":2558,"Ġobserv":2559,"Ġcenter":2560,"Ġservice":2561,"orph":2562,"Ġyears":2563,"wards":2564,"Ġperformance":2565,"ĠTechnology":2566,"Trans":2567,"ronic":2568,"Ġrights":2569,"Ġbehavior":2570,"abovebelow":2571,"ĠChristian":2572,"Ġsignific":2573,":\\/\\/":2574,",[\"":2575,"76":2576,"95":2577,"CM":2578,"GE":2579,"Given":2580,"How":2581,"Soci":2582,"citation":2583,"go":2584,"iam":2585,"king":2586,"ling":2587,"ma":2588,"pinn":2589,"rist":2590,"uz":2591,"uart":2592,"vte":2593,"à¬":2594,"Ġedit":2595,"information":2596,"Ġtree":2597,"ones":2598,"Ġsens":2599,"Ġsignal":2600,"ater":2601,"atform":2602,"2010":2603,"Ġinst":2604,"eled":2605,"Ġfe":2606,"Ġfollow":2607,"Ġdictionary":2608,"Ġmaking":2609,"enth":2610,"ently":2611,"igital":2612,"empt":2613,"ceed":2614,"ĠCam":2615,"ĠCrevier":2616,"ĠIEEE":2617,"ulate":2618,"Ġthus":2619,"ives":2620,"exp":2621,"actions":2622,"ĠJapan":2623,"ĠDavid":2624,"ĠWar":2625,"ĠWill":2626,"ĠArab":2627,"CITEREFC":2628,"CITEREFK":2629,"Ġvol":2630,"Ġexamples":2631,"ording":2632,"illion":2633,"alleng":2634,"1994":2635,"114":2636,"wgC":2637,"wgPage":2638,"Information":2639,"timeless":2640,"Ġcompression":2641,"Ġability":2642,"Ġperiod":2643,"Ġconscious":2644,"central":2645,"Ġtransform":2646,"mercial":2647,"Ġauto":2648,"Ġreporting":2649,"Enabled":2650,"limited":2651,"Ġhealth":2652,"Ġobjec":2653,"engio":2654,"Ġregression":2655,"\"],[\"":2656,"rammar":2657,"ooks":2658,"Ġrisks":2659,"Editor":2660,"Ġgoals":2661,"Ġcreated":2662,"ookie":2663,"ĠNeural":2664,"Ġsemantic":2665,"Ġsemantics":2666,"Ġvalues":2667,"Ġoptimization":2668,"icrosoft":2669,"quotebox":2670,"arthy":2671,"ybernetics":2672,"'t":2673,",#":2674,"54":2675,"84":2676,";âĢĵ":2677,"Ad":2678,"CL":2679,"Data":2680,"History":2681,"It":2682,"Mc":2683,"Net":2684,"Rel":2685,"ctive":2686,"hens":2687,"mid":2688,"miss":2689,"oks":2690,"Ð¾":2691,"Ø§":2692,"ĠQ":2693,"inition":2694,"insky":2695,"era":2696,"till":2697,"ench":2698,"enabled":2699,"arl":2700,"hether":2701,"ancial":2702,"rel":2703,"let":2704,"ites":2705,"itect":2706,"ĠAnal":2707,"Ġmen":2708,"Ġbo":2709,"urg":2710,"ustry":2711,"amed":2712,"ĠTimes":2713,"ĠNatural":2714,"Ġrece":2715,"ulated":2716,"istr":2717,"ĠPh":2718,"other":2719,"thers":2720,"Ġassoci":2721,"ĠFin":2722,"ĠEconom":2723,"Ġalong":2724,"CITEREFD":2725,"CITEREFW":2726,"Ġvideo":2727,"overy":2728,"ĠOn":2729,"Ġarchived":2730,"ified":2731,"uctive":2732,"ĠStr":2733,"Ġchar":2734,"127":2735,"election":2736,"Ġagency":2737,"time":2738,"Ġrole":2739,"Ġrobotics":2740,"Ġlearned":2741,"ĠConference":2742,"Ġmeas":2743,"Ġcommunication":2744,"resp":2745,"Ġphys":2746,"1109":2747,"Autom":2748,"ÑģÐºÐ¸":2749,"ĠNewspaper":2750,"Ġpotential":2751,"Ġterms":2752,"ategories":2753,"Ġneurons":2754,"Ġquestion":2755,"babilistic":2756,".)":2757,"53":2758,"72":2759,"94":2760,"Formal":2761,"He":2762,"Human":2763,"Model":2764,"No":2765,"New":2766,"Par":2767,"Se":2768,"To":2769,"cap":2770,"ded":2771,"dark":2772,"kin":2773,"med":2774,"move":2775,"nos":2776,"otion":2777,"ptions":2778,"pace":2779,"upload":2780,"}\\":2781,"Ã©":2782,"Ð»":2783,"Ġ&#":2784,"inside":2785,"Ġtend":2786,"Ġtype":2787,"tish":2788,"aries":2789,"alk":2790,"alism":2791,"eder":2792,"esp":2793,"rew":2794,"Ġside":2795,"atory":2796,"Ġpos":2797,"Ġcognitive":2798,"Ġint":2799,"Ġdr":2800,"Ġdirect":2801,"Ġnuclear":2802,"urn":2803,"usion":2804,"ĠSam":2805,"ĠSpr":2806,"ĠSome":2807,"ĠModern":2808,"ecess":2809,"ĠRober":2810,"ĠRantan":2811,"ĠCont":2812,"Ġlink":2813,"Ġhis":2814,"ung":2815,"oted":2816,"avoid":2817,"roman":2818,"Ġprojects":2819,"ĠBBC":2820,"ĠBroadcasting":2821,"ĠInc":2822,"ĠWood":2823,"Ġcomb":2824,"ĠLond":2825,"ĠEl":2826,"Ġvia":2827,"Ġvision":2828,"Ġvalue":2829,"Ġwithin":2830,"Ġ29":2831,"Ġexch":2832,"ĠOpen":2833,"orduck":2834,"ife":2835,"ĠUS":2836,"agement":2837,"Ġ1980":2838,"Ġprac":2839,"152":2840,"Ġgeneration":2841,"oken":2842,"both":2843,"ognition":2844,"prefers":2845,"Ġdescrib":2846,"ibase":2847,"limitreport":2848,"emantic":2849,"Ġcentury":2850,"Ġgovernments":2851,"Ġdeterm":2852,"Ġcolle":2853,"Ġextr":2854,"Ġimpact":2855,"ĠAppro":2856,"scheme":2857,"ategory":2858,"ĠEuropean":2859,"troduction":2860,"Ġinfluence":2861,"Ġconsidered":2862,"ĠNetworks":2863,"Ġconsumption":2864,"Ġ{\\":2865,"ributed":2866,"Ġfeatures":2867,"ĠRantanen":2868,"ĠLondon":2869,"52":2870,"64":2871,"CS":2872,"Fran":2873,"Journal":2874,"LS":2875,"Rec":2876,"Top":2877,"bers":2878,"div":2879,"lor":2880,"mend":2881,"por":2882,"target":2883,"world":2884,"ying":2885,"ony":2886,"ared":2887,"Ġself":2888,"Ġsmall":2889,"Ġocc":2890,"athema":2891,"Ġcar":2892,"Ġche":2893,"Ġcop":2894,"Ġcurrent":2895,"Ġofficial":2896,"eli":2897,"Ġdem":2898,"Ġdyn":2899,"Ġmade":2900,"Ġbig":2901,"Ġbook":2902,"omberg":2903,"Ġnow":2904,"Ġnecess":2905,"eta":2906,"ured":2907,"ective":2908,"ĠCol":2909,"Ġ\"'":2910,"Ġlate":2911,"Ġhistor":2912,"ersion":2913,"erspec":2914,"odes":2915,"Ġproper":2916,"1016":2917,"irt":2918,"uments":2919,"ĠGr":2920,"ĠEv":2921,"Ġann":2922,"loud":2923,"loomberg":2924,"ordan":2925,"Ġ1960":2926,"peat":2927,"1992":2928,"ĠKnowledge":2929,"Ġpresent":2930,"ouse":2931,"Ġeval":2932,"trans":2933,"oretical":2934,"Ġcomputation":2935,"Ġuncertain":2936,"Inter":2937,"ĠAlgorithm":2938,"verti":2939,"commons":2940,"inton":2941,"inted":2942,"hesis":2943,"Ġsometimes":2944,"Ġreported":2945,"obile":2946,"Ġbiases":2947,"plement":2948,"bridge":2949,"Ġinputs":2950,"Ġcommunications":2951,"Ġassum":2952,"aaa":2953,"Ġtypes":2954,"ĠHowever":2955,"Ġcorre":2956,"Ġdomin":2957,"Ġretrieved":2958,"ĠReport":2959,"enetic":2960,"stitute":2961,"Ġrelationships":2962,"ĠPeter":2963,"Ġstructure":2964,"Ġbrain":2965,"ĠStephens":2966,"Ø±Ø":2967,"https":2968,"omingos":2969,"Ġestablished":2970,"Ġparsing":2971,"Ġprevious":2972,"ĠAfric":2973,"pinned":2974,"istration":2975,"ĠSpringer":2976,"\"//":2977,"%}.":2978,"(){":2979,"(\"//":2980,")!":2981,">.":2982,"AM":2983,"And":2984,"Col":2985,"Dec":2986,"Def":2987,"For":2988,"Network":2989,"Other":2990,"Open":2991,"Word":2992,"aul":2993,"block":2994,"counter":2995,"eenth":2996,"free":2997,"gener":2998,"hide":2999,"itions":3000,"ker":3001,"lis":3002,"less":3003,"ning":3004,"name":3005,"tle":3006,"vin":3007,"web":3008,"Å¡":3009,"Ðµ":3010,"à®":3011,"à²":3012,"Ġi":3013,"Ġel":3014,"Ġide":3015,"Ġend":3016,"inci":3017,"Ġtarget":3018,"enge":3019,"entity":3020,"header":3021,"alpha":3022,"estern":3023,"repeat":3024,"Ġsafety":3025,"Ġsuggest":3026,"Ġothers":3027,"Ġpop":3028,"Ġpolicy":3029,"chiev":3030,"Ġins":3031,"eler":3032,"eline":3033,"ĠAb":3034,"Ġday":3035,"Ġmodern":3036,"Ġmedical":3037,"Ġwhether":3038,"Ġ\"}.":3039,"Ġlarg":3040,"Ġreinforcement":3041,"Ġhap":3042,"Ġthings":3043,"acing":3044,"âĢĲ":3045,"ither":3046,"Ġorder":3047,"achten":3048,"ĠBro":3049,"ĠBusiness":3050,"ĠBloomberg":3051,"Ġgu":3052,"Ġget":3053,"Ġgame":3054,"ird":3055,"ope":3056,"bert":3057,"ĠHuman":3058,"ĠFound":3059,"Ġanother":3060,"Ġstart":3061,"epar":3062,"ands":3063,"earle":3064,"upper":3065,"sequ":3066,"Ġtrav":3067,"estric":3068,"1996":3069,"titem":3070,"ostrom":3071,"Ġaction":3072,"ualEditor":3073,"Ġclos":3074,"artin":3075,"140":3076,"Ġdiss":3077,"evelopment":3078,"skins":3079,"Ġeas":3080,"edicine":3081,"Ġtransmit":3082,"mediawiki":3083,"Ġautonomous":3084,"All":3085,"ĠComputing":3086,"olitics":3087,"Ġpredictions":3088,"Ġyou":3089,"Ġmeans":3090,"Ġprovide":3091,"Ġgrow":3092,"ĠAgency":3093,"Ġcapital":3094,"ĠMcCorduck":3095,"Short":3096,"huber":3097,"RLQ":3098,"Ġeconomic":3099,"Ġpatterns":3100,"Ġaccuracy":3101,"Ġimprove":3102,"ĠBritish":3103,"className":3104,"Ġfairness":3105,"agazine":3106,"Ġcountries":3107,"Ġinvest":3108,"Ġsignificant":3109,"uzz":3110,"ĠCambridge":3111,"midhuber":3112,"Ġcharacter":3113,"Ġsidebar":3114,"listitem":3115,",_":3116,"73":3117,"98":3118,"Bi":3119,"CA":3120,"DA":3121,"Ph":3122,"Speech":3123,"].":3124,"aud":3125,"ault":3126,"ches":3127,"fe":3128,"get":3129,"human":3130,"lin":3131,"me":3132,"sy":3133,"science":3134,"ta":3135,"{.":3136,"erence":3137,"Ġtelegraph":3138,"Ġaff":3139,"Ġaround":3140,"Ġachiev":3141,"oration":3142,"ald":3143,"ances":3144,"Ġtheoretical":3145,"reed":3146,"rees":3147,"Ġsynt":3148,"Ġpage":3149,"chitect":3150,"Ġcorpor":3151,"Ġintegr":3152,"ĠAt":3153,"Ġfac":3154,"Ġfund":3155,"Ġfree":3156,"Ġdid":3157,"Ġbas":3158,"igher":3159,"omal":3160,"Ġnov":3161,"Ġ2010":3162,"idence":3163,"Ġlist":3164,"ĠNo":3165,"ĠNature":3166,"ste":3167,"Ġreading":3168,"ull":3169,"ultim":3170,"adig":3171,"adem":3172,"ivil":3173,"ĠPhilosophy":3174,"1986":3175,"term":3176,"achin":3177,"Ġgreat":3178,"Ġgrammar":3179,"ires":3180,"iag":3181,"ains":3182,"ainst":3183,"ĠInter":3184,"Ġcommercial":3185,"ĠHu":3186,"ĠHav":3187,"ĠHachten":3188,"Ġansw":3189,"Ġver":3190,"ourse":3191,"udson":3192,"aker":3193,"Ġareas":3194,"ĠStuart":3195,"Ġcannot":3196,"Ġunsupervised":3197,"Ġcluster":3198,"indents":3199,"ĠUnion":3200,"Ġadverti":3201,"Ġitself":3202,"Ġplace":3203,"Ġplanning":3204,"Ġshould":3205,"Ġauthor":3206,"Ġemerg":3207,"Ġreports":3208,"ypot":3209,"tively":3210,"Ġfields":3211,"Ġformal":3212,"Ġpredict":3213,"Ġspecial":3214,"ĠPrism":3215,"Ġdiscuss":3216,"Ġgroups":3217,"offrey":3218,"logo":3219,"Ġtechnique":3220,"Ġtopics":3221,"reyfus":3222,"Ð°ÑĢ":3223,"Ġstatements":3224,"Ġrequire":3225,"fusion":3226,"Ġmaint":3227,"white":3228,"Ġchanges":3229,"Ġethics":3230,"Ġmemory":3231,"General":3232,"Ġinvolves":3233,"Ġdatas":3234,"Ġmultiple":3235,"hanging":3236,"Ġsentence":3237,"ĠStudies":3238,"ĠAssociation":3239,"bedded":3240,"ĠSimon":3241,"Ġcomplexity":3242,"ĠGermany":3243,"Ġjobs":3244,"ilitary":3245,"Social":3246,"ristop":3247,"ceedings":3248,"Ġdetermine":3249,"sych":3250,"\"},\"":3251,");&#":3252,"31":3253,"CO":3254,"Don":3255,"Em":3256,"Ev":3257,"Evolution":3258,"Further":3259,"John":3260,"Mind":3261,"Or":3262,"Pars":3263,"ST":3264,"Sch":3265,"Sim":3266,"Token":3267,"bability":3268,"ged":3269,"iar":3270,"iers":3271,"ky":3272,"mod":3273,"set":3274,"sol":3275,"scription":3276,"uk":3277,"uit":3278,"uel":3279,"uations":3280,"}}.":3281,"Ðĳ":3282,"Ñĥ":3283,"Ġ)":3284,"Ġenti":3285,"includ":3286,"Ġtrees":3287,"alc":3288,"alian":3289,"esign":3290,"anings":3291,"anford":3292,"Ġsum":3293,"Ġsymbolic":3294,"ately":3295,"Ġpass":3296,"Ġcr":3297,"Ġcases":3298,"Ġintro":3299,"ict":3300,"Ġ(\"":3301,"ĠAcc":3302,"Ġfr":3303,"Ġframework":3304,"Ġmass":3305,"Ġmust":3306,"Ġwar":3307,"Ġwro":3308,"Ġwww":3309,"omen":3310,"ask":3311,"Ġtoo":3312,"ĠSur":3313,"ĠSov":3314,"cepts":3315,"ĠMass":3316,"ĠMachines":3317,"ĠMiddle":3318,"ĠMicrosoft":3319,"ĠTech":3320,"ĠCan":3321,"ilt":3322,"Ġlow":3323,"stri":3324,"Ġref":3325,"Ġrecom":3326,"Ġhidden":3327,"ĠPower":3328,"ĠPublic":3329,"aced":3330,"1989":3331,"Ġpropos":3332,"ably":3333,"ĠBut":3334,"ĠBooks":3335,"Ġleading":3336,"aper":3337,"opedia":3338,"ĠDo":3339,"ĠIntroduction":3340,"ĠInstitute":3341,"ĠWork":3342,"ĠWhen":3343,"Ġasp":3344,"ĠHinton":3345,"ĠTheory":3346,"CITEREFV":3347,"Ġstatistics":3348,"anda":3349,"Ġusers":3350,"clopedia":3351,"Ġarea":3352,"2000":3353,"000":3354,"ginning":3355,"illions":3356,"allenge":3357,"Ġpres":3358,"ussian":3359,"Ġactions":3360,"Ġacross":3361,"ocal":3362,"Ġcomputers":3363,"ativ":3364,"Comp":3365,"Ġemploy":3366,"Ġ2006":3367,"ĠĠĠĠĠĠĠĠĠĠĠĠĠĠĊ":3368,"Reg":3369,"Ġexperim":3370,"Ġstrong":3371,"ĠĠĠĠĠĠĠĠĠĠĠĠĠĠĠĠĠĠĠĠĠĠĠĠĠĠĠĠĠĠĠĠ":3372,"Ġefficient":3373,"Ġincreased":3374,"Ġmeaning":3375,"Ġvariables":3376,"Ġgroup":3377,"Ġexplicit":3378,"ĠAgencies":3379,"parent":3380,"Ġorganization":3381,"Ġtopic":3382,"Ġinterests":3383,"Ġeffects":3384,"ĠMeanings":3385,"Ġoutputs":3386,"Generative":3387,"Ġlimited":3388,"Ġissues":3389,"Ġdatab":3390,"Ġapplication":3391,"fdfdfd":3392,"Ġsuccessful":3393,"ĠAutom":3394,"Ġlayers":3395,"Google":3396,"Ġadditional":3397,"Ġprovided":3398,"ÑĢÐ":3399,"Ġsingle":3400,"mission":3401,"related":3402,"ĠRobert":3403,"Ġexchange":3404,"Ġdissemin":3405,"Ġadvertising":3406,"ĠSoviet":3407,"strip":3408,"415":3409,"524":3410,"70":3411,"78":3412,"79":3413,"Cent":3414,"Ethics":3415,"Fl":3416,"ML":3417,"Philosophy":3418,"Rose":3419,"Why":3420,"[]":3421,"ba":3422,"cements":3423,"dec":3424,"date":3425,"document":3426,"gment":3427,"iews":3428,"ka":3429,"loss":3430,"mann":3431,"oz":3432,"och":3433,"ool":3434,"qi":3435,"rary":3436,"source":3437,"xim":3438,"xford":3439,"ªŀ":3440,"Ã¢":3441,"Ð½":3442,"èªŀ":3443,"ĠÂ":3444,"init":3445,"ero":3446,"Ġtech":3447,"Ġable":3448,"orge":3449,"arial":3450,"reen":3451,"ream":3452,"Ġsci":3453,"Ġsenti":3454,"Ġsize":3455,"Ġselect":3456,"Ġsaid":3457,"Ġsuf":3458,"Ġstill":3459,"athan":3460,"items":3461,"rop":3462,"Ġcost":3463,"nder":3464,"icon":3465,"ĠACM":3466,"Ġfail":3467,"Ġfurther":3468,"Ġdel":3469,"Ġdue":3470,"Ġmight":3471,"Ġbest":3472,"Ġbroadcast":3473,"Ġweb":3474,"oms":3475,"omes":3476,"oman":3477,"emi":3478,"ush":3479,"ĠMany":3480,"ĠMartin":3481,"ĠCultural":3482,"ilities":3483,"Ġlife":3484,"event":3485,"uls":3486,"ults":3487,"Ġthree":3488,"Ġthink":3489,"iving":3490,"ĠPolitical":3491,"Ġproduced":3492,"ĠBengio":3493,"place":3494,"ĠDem":3495,"ĠWall":3496,"Ġcond":3497,"ĠHar":3498,"ĠHill":3499,"ĠLa":3500,"ĠFace":3501,"ĠFacts":3502,"Ġstory":3503,"epth":3504,"anded":3505,"Ġusually":3506,"Ġitems":3507,"Ġtrue":3508,"115":3509,"Ġprinci":3510,"ĠChat":3511,"Ġimages":3512,"processing":3513,"Ġchat":3514,"Ġevolution":3515,"ensive":3516,"Ġresults":3517,"ardian":3518,"Ġagainst":3519,"notated":3520,"145":3521,"Ġspread":3522,"Ġadvan":3523,"gramming":3524,"Ġeither":3525,"Ġsolutions":3526,"raw":3527,"ganization":3528,"ĠProceedings":3529,"tention":3530,"hao":3531,"Ġreprinted":3532,"itiz":3533,"ĠDecision":3534,"Ġindepend":3535,"ney":3536,"Ġhelp":3537,"ĠĠĠĠĠĠĠĠĠĠĠĠĠĠĠ":3538,"ularity":3539,"Ġsimple":3540,"Ġexperts":3541,"){.":3542,"Ġstrateg":3543,"ĠWikidata":3544,"Ġdefinition":3545,"hilosoph":3546,"versarial":3547,"adeh":3548,"Ġdistribution":3549,"Ġeffect":3550,"Ġsuper":3551,"Learning":3552,"Ġethical":3553,"Ġlaws":3554,"Ġissue":3555,"ĠRobotics":3556,"à¥Ģ":3557,"Ġprivacy":3558,"ĠGuardian":3559,"Ġlinear":3560,"Ġproduce":3561,"Ġprofession":3562,"fitting":3563,"Ġwidely":3564,"kowitz":3565,"pearance":3566,"Transform":3567,"allenges":3568,"Ġconsciousness":3569,"Ġextraction":3570,"Ġannoun":3571,"iagnos":3572,"Ġwrote":3573,"\"\"":3574,")}.":3575,"+\\":3576,"62":3577,"AS":3578,"Ab":3579,"Alex":3580,"Dis":3581,"Dif":3582,"Ge":3583,"Js":3584,"LL":3585,"Lat":3586,"Lock":3587,"Multi":3588,"Mathema":3589,"Names":3590,"Public":3591,"Sp":3592,"ULS":3593,"bl":3594,"base":3595,"care":3596,"curs":3597,"cookie":3598,"dimension":3599,"gy":3600,"gative":3601,"here":3602,"iro":3603,"journal":3604,"know":3605,"men":3606,"mith":3607,"making":3608,"news":3609,"ought":3610,"site":3611,"sister":3612,"uan":3613,"uous":3614,"||":3615,"Ã§":3616,"Õ¥":3617,"ÙĪ":3618,"ÛĮ":3619,"à¨":3620,"à°":3621,"à±":3622,"à´":3623,"à½":3624,"Ġ$":3625,"inion":3626,"erge":3627,"Ġtele":3628,"onstr":3629,"ored":3630,"oring":3631,"hel":3632,"ank":3633,"ises":3634,"2097":3635,"Ġpur":3636,"Ġpri":3637,"Ġperspec":3638,"itche":3639,"Ġcalc":3640,"Ġinstit":3641,"Ġfun":3642,"Ġfir":3643,"Ġfile":3644,"Ġfacts":3645,"Ġmin":3646,"Ġmakes":3647,"Ġbet":3648,"Ġbound":3649,"Ġbroadcasting":3650,"omin":3651,"ett":3652,"emory":3653,"oll":3654,"ĠSil":3655,"amet":3656,"ĠMat":3657,"ĠMoh":3658,"ecurity":3659,"ĠCNN":3660,"ĠIBM":3661,"ĠNational":3662,"parse":3663,"Ġhigher":3664,"exual":3665,"ĠPolicy":3666,"acuation":3667,"elling":3668,"avec":3669,"ĠBen":3670,"Ġgames":3671,"107":3672,"1038":3673,"ĠDomingos":3674,"ĠInference":3675,"ĠLaw":3676,"ĠFuture":3677,"ĠEthics":3678,"CITEREFP":3679,"Ġvast":3680,"Ġvery":3681,"ources":3682,"ĠĠĠĠĠĠĠĠĊ":3683,"rieval":3684,"ĠOxford":3685,"see":3686,"Ġarr":3687,"akker":3688,"clus":3689,"2003":3690,"003":3691,"Ġ1950":3692,"ĠStra":3693,"\":\"+\\":3694,"ender":3695,"117":3696,"Ġimplement":3697,"ternative":3698,"wgIs":3699,"wgULS":3700,"tically":3701,"Ġevery":3702,"enced":3703,"Ġaccess":3704,"gorithms":3705,"nother":3706,"ĠAlan":3707,"ĠAlpha":3708,"ĠThere":3709,"133":3710,"ĠVincent":3711,"Ġabbr":3712,"Ġequ":3713,"commun":3714,"disabled":3715,"ibility":3716,"ibrary":3717,"Ġrobots":3718,"Ġinterpre":3719,"Ġinteraction":3720,"Ġtechnologies":3721,"\":{\"@":3722,"Exp":3723,"Ġindustry":3724,"Ġquick":3725,"ĠMediaWiki":3726,"Ġobjects":3727,"Ġaccount":3728,"Ġacceler":3729,"ĠĠĠĠĠĠĠĠĠĠĠĠĊ":3730,"tives":3731,"Step":3732,"Statistical":3733,"axim":3734,"Ġprediction":3735,"elevant":3736,"subscription":3737,"Ġincrease":3738,"Ġdiscovery":3739,"spacing":3740,"Ġhowever":3741,"ĠAmerica":3742,"maint":3743,"Ġmanip":3744,"Trading":3745,"vanchor":3746,"ĠSchudson":3747,"www":3748,"Ġsupport":3749,"Ġnumer":3750,"Ġargument":3751,"registration":3752,"Ġstatement":3753,"visualEditor":3754,"Ġsecond":3755,"Ġmembers":3756,"\":[\"\",\"":3757,"Ġpersonal":3758,"Ġelectric":3759,"Ġconcerns":3760,"Neural":3761,"Ġsituation":3762,"ArticleT":3763,"Ã¼r":3764,"Ġblack":3765,"ĠBerkowitz":3766,"Ġrespons":3767,"pagation":3768,"paganda":3769,"MediaWiki":3770,"Ġconnection":3771,"wgRelevant":3772,"Ġpoints":3773,"oshua":3774,"Ġincreasingly":3775,"ĠCreation":3776,"plainlist":3777,"centralaut":3778,"McC":3779,"ĠAnalysis":3780,"Notice":3781,"Ġcopy":3782,"irtual":3783,"transparent":3784,"Ġcorrect":3785,"Evolutionary":3786,"Ġintroduced":3787,"Ġrecommend":3788,"Ġaspects":3789,"atively":3790,"dimensional":3791,"2097152":3792,"itchell":3793,"\":\"+\\\\\"":3794,"._":3795,"51":3796,"500":3797,"63":3798,"68":3799,"8202":3800,"?\"":3801,"Be":3802,"Elect":3803,"July":3804,"Nor":3805,"Publ":3806,"Pages":3807,"RC":3808,"Rev":3809,"Random":3810,"Some":3811,"Self":3812,"Semantic":3813,"Vis":3814,"We":3815,"aM":3816,"ao":3817,"aÃ":3818,"ais":3819,"aim":3820,"co":3821,"cite":3822,"eg":3823,"ei":3824,"flow":3825,"hib":3826,"lar":3827,"lab":3828,"most":3829,"nov":3830,"oint":3831,"pat":3832,"resent":3833,"such":3834,"small":3835,"view":3836,"win":3837,"way":3838,"writ":3839,"âµ":3840,"Ġ-":3841,"Ġu":3842,"Ġ|":3843,"Ġera":3844,"ini":3845,"inform":3846,"erial":3847,"Ġte":3848,"Ġtimes":3849,"arter":3850,"arian":3851,"head":3852,"esents":3853,"Ġsymb":3854,"Ġselection":3855,"Ġsepar":3856,"Ġour":3857,"iter":3858,"Ġcour":3859,"Ġculture":3860,"Ġcategories":3861,"Ġiniti":3862,"ĠAct":3863,"Ġfar":3864,"Ġfit":3865,"Ġfam":3866,"Ġder":3867,"Ġmess":3868,"Ġmap":3869,"Ġbro":3870,"Ġband":3871,"Ġbroad":3872,"Ġwr":3873,"Ġwatch":3874,"igation":3875,"omas":3876,"Ġnodes":3877,"Ġtool":3878,"urd":3879,"urk":3880,"ĠSc":3881,"ĠSp":3882,"ĠServ":3883,"ĠSearle":3884,"ĠMac":3885,"ĠMethod":3886,"ĠMinsky":3887,"ĠMagazine":3888,"econd":3889,"ĠTelevision":3890,"ĠTelegraph":3891,"ĠRis":3892,"ĠRadio":3893,"ĠCognitive":3894,"Ġled":3895,"Ġlik":3896,"Ġlack":3897,"Ġhardware":3898,"Ġhypot":3899,"adient":3900,"ivacy":3901,"acist":3902,"oday":3903,"otes":3904,"1950":3905,"ternal":3906,"lying":3907,"Ġproduc":3908,"Ġproduction":3909,"Ġprobabilistic":3910,"Ġprobability":3911,"ĠBas":3912,"ĠBrit":3913,"ĠBakker":3914,"Ġgraph":3915,"Ġlevel":3916,"ape":3917,"ĠDesign":3918,"ĠInternet":3919,"osen":3920,"ĠWhat":3921,"ĠWestern":3922,"Ġcontr":3923,"Ġconference":3924,"ĠHistor":3925,"ĠLog":3926,"books":3927,"ĠFran":3928,"Ġbefore":3929,"Ġbeginning":3930,"ĠEast":3931,"Ġalready":3932,"CITEREFF":3933,"eport":3934,"ubha":3935,"Ġusage":3936,"Ġarchitect":3937,"load":3938,"2002":3939,"ĠUs":3940,"ĠUse":3941,"blem":3942,"eful":3943,"peti":3944,"1990":3945,"mark":3946,"enda":3947,"Ġ33":3948,"ĠCha":3949,"ĠChristop":3950,"references":3951,"Ġcho":3952,"Ġevidence":3953,"ipp":3954,"ensor":3955,"ĠCommons":3956,"Ġapply":3957,"Ġkey":3958,"146":3959,"Ġcompany":3960,"cript":3961,"Ġgenerate":3962,"Ġsolving":3963,"Ġplaces":3964,"rael":3965,"Ġincludes":3966,"eek":3967,"Ġrepresents":3968,"Ġrecord":3969,"Ġ2001":3970,"Ġ2007":3971,"plete":3972,"Reinforcement":3973,"Ġcentral":3974,"Ġrepresented":3975,"azon":3976,"Ġpowerful":3977,"lantic":3978,"Ġupon":3979,"Ġamount":3980,"Ġdefined":3981,"Ġexplain":3982,"CITEREFMc":3983,"vesti":3984,"Ġcapable":3985,"Ġmanagement":3986,"ĠIndia":3987,"Ġreduction":3988,"Ġneeded":3989,"Applications":3990,"Ġsegment":3991,"ĠSchmidhuber":3992,"Ġlabeled":3993,"Ġcorresp":3994,"Ġretrieval":3995,"Ġestim":3996,"arren":3997,"Ġactually":3998,"ĠEngland":3999,"ergy":4000,"Ġconcerned":4001,"Ġsituations":4002,"ĠEmp":4003,"ĠStudy":4004,"Ġapplied":4005,"Robot":4006,"ĠGeorge":4007,"ambig":4008,"Ġparticularly":4009,"cerpt":4010,"Ġspeed":4011,"Ġproduct":4012,"Ġaudience":4013,"Ġallows":4014,"Ġmisinformation":4015,"Related":4016,"ĠSamuel":4017,"ĠApproach":4018,"elief":4019,"ĠAfrica":4020,"omaly":4021,"stein":4022,"adigm":4023,"ĠHavas":4024,"Ġclustering":4025,"Ġdatasets":4026,"ĠLaRose":4027,"Ġprior":4028,"Ġbetter":4029,"Ġquickly":4030,"ĠBritain":4031,"ubhaar":4032,"/&#":4033,"215":4034,"214":4035,"41":4036,";/&#":4037,"=\"":4038,"Dist":4039,"Digital":4040,"Ga":4041,"Gloss":4042,"Hardware":4043,"Ind":4044,"Log":4045,"Nilsson":4046,"SA":4047,"Sup":4048,"Supervised":4049,"Scientific":4050,"Up":4051,"Vari":4052,"Will":4053,"Watt":4054,"atics":4055,"eqi":4056,"fr":4057,"gal":4058,"ges":4059,"hi":4060,"iol":4061,"iri":4062,"my":4063,"machine":4064,"new":4065,"oore":4066,"rical":4067,"sour":4068,"uv":4069,"ux":4070,"vari":4071,"yal":4072,"yle":4073,"×Ļ":4074,"Ġess":4075,"Ġerror":4076,"ins":4077,"iny":4078,"erX":4079,"Ġtreat":4080,"onse":4081,"Ġaid":4082,"tif":4083,"eni":4084,"ara":4085,"arly":4086,"alter":4087,"edu":4088,"ese":4089,"anon":4090,"ret":4091,"reet":4092,"requ":4093,"regl":4094,"Ġsom":4095,"Ġsense":4096,"ato":4097,"atz":4098,"atell":4099,"Ġpages":4100,"chive":4101,"Ġcoun":4102,"Ġcase":4103,"Ġcross":4104,"Ġinference":4105,"ica":4106,"Ġfew":4107,"Ġflow":4108,"Ġdire":4109,"Ġmorph":4110,"enture":4111,"Ġwide":4112,"Ġwire":4113,"Ġnamed":4114,"Ġtook":4115,"Ġtoday":4116,"ĠSe":4117,"ĠSol":4118,"ĠSum":4119,"ĠScientific":4120,"ĠSouth":4121,"ĠMan":4122,"ĠMet":4123,"ĠMind":4124,"ĠMemory":4125,"ecause":4126,"ĠTo":4127,"ĠTw":4128,"ĠTer":4129,"ĠĠĠĠĠĠ":4130,"ĠCO":4131,"ĠCite":4132,"163":4133,"ille":4134,"Ġland":4135,"Ġlast":4136,"ĠNet":4137,"ster":4138,"even":4139,"Ġrepl":4140,"Ġremain":4141,"ulus":4142,"ulating":4143,"isters":4144,"Ġhere":4145,"ades":4146,"Ġthous":4147,"Ġthought":4148,"ĠPer":4149,"ĠPat":4150,"ĠPost":4151,"erse":4152,"rix":4153,"unstrip":4154,"1991":4155,"ellow":4156,"aving":4157,"owler":4158,"âĢ¦":4159,"thing":4160,"thur":4161,"ĠBostrom":4162,"Ġgood":4163,"Ġgained":4164,"Ġleast":4165,"ĠJordan":4166,"105":4167,"fici":4168,"cipl":4169,"apiro":4170,"ĠDif":4171,"ĠDisc":4172,"ĠDevelopment":4173,"ĠDreyfus":4174,"ume":4175,"ump":4176,"ĠInvention":4177,"ĠWat":4178,"ĠHol":4179,"ĠHall":4180,"ĠLi":4181,"ĠLinguistics":4182,"CITEREFJ":4183,"Ġvs":4184,"Ġvis":4185,"Ġstep":4186,"ander":4187,"ovregl":4188,"ĠOb":4189,"ĠOp":4190,"ĠOut":4191,"ĠOther":4192,"iff":4193,"ĠUsing":4194,"ags":4195,"ĠStatistical":4196,"ĠStarr":4197,"ĠStreet":4198,"illan":4199,"ĠKar":4200,"ends":4201,"ĠChallenge":4202,"Ġimg":4203,"Ġchange":4204,"124":4205,"ignment":4206,"ards":4207,"Ġkind":4208,"entially":4209,"Ġuntil":4210,"Ġcontents":4211,"Ġcontaining":4212,"itional":4213,"atives":4214,"linear":4215,"yson":4216,"255":4217,"ounts":4218,"Ġadop":4219,"Ġrobot":4220,"Ġhumanity":4221,"Ġemotion":4222,"Expl":4223,"Ġ2009":4224,"Newspap":4225,"emantics":4226,"Ġaccording":4227,"Ġcenters":4228,"Statistics":4229,"Ġmaterial":4230,"urred":4231,"tters":4232,"ĠĠĠĠĠĠĠĠĠĠĠĠĠĠĠĠĊ":4233,"orpus":4234,"Ġexpress":4235,"Ġexpected":4236,"ller":4237,"Ġreality":4238,"Ġvariety":4239,"Ġdiscourse":4240,"space":4241,"Ġstudies":4242,"Content":4243,"ahn":4244,"Ġcreation":4245,"logs":4246,"Ġfounded":4247,"Ġassist":4248,"ĠExper":4249,"ĠApplications":4250,"Ġreduc":4251,"eyer":4252,"Ġoperations":4253,"This":4254,"Ġseem":4255,"Ġsequ":4256,"Ġlabels":4257,"Ġargued":4258,"jectivity":4259,"laps":4260,"bably":4261,"Ġdesigned":4262,"à¦¾":4263,"ĠXin":4264,"Ġsecurity":4265,"Ġsurvey":4266,"ĠDeepMind":4267,"ĠNewspapers":4268,"Ġsentences":4269,"ĠGeoffrey":4270,"Ġprivate":4271,"Ġwritten":4272,"ography":4273,"Ġperception":4274,"ĠMarkov":4275,"Ġreaders":4276,"imensionality":4277,"ĠFrance":4278,"Ġeventually":4279,"gressive":4280,"ĠMoravec":4281,"ĠGeneral":4282,"Technological":4283,"Ġmonth":4284,"Ġobjectivity":4285,"Ġboom":4286,"SeerX":4287,"Ġnecessary":4288,"ĠColle":4289,"Ġhappen":4290,"Ġtravel":4291,"achinery":4292,"including":4293,"Ġdatabases":4294,"ĠChatGPT":4295,"About":4296,"known":4297,"Ġinstitutions":4298,"Ġfunctions":4299,"ĠStraubhaar":4300,"communications":4301,"Ġcopyright":4302,"ĠBasic":4303,"Ġarchitecture":4304,"ĠChaos":4305,"Ġsegmentation":4306,"eqiad":4307,"Ġcountry":4308,"Ġmorphology":4309,"ĠCiteSeerX":4310,"ovreglio":4311,"':":4312,"'re":4313,")\"":4314,"120":4315,"193":4316,"216":4317,"219":4318,"211":4319,"300":4320,"318":4321,"400":4322,"585":4323,"61":4324,"74":4325,"August":4326,"BS":4327,"Chat":4328,"Current":4329,"David":4330,"From":4331,"Global":4332,"March":4333,"Nair":4334,"NES":4335,"PS":4336,"Pl":4337,"Red":4338,"Russell":4339,"RAM":4340,"Sub":4341,"Str":4342,"US":4343,"aur":4344,"bor":4345,"cy":4346,"dd":4347,"dl":4348,"des":4349,"eed":4350,"file":4351,"global":4352,"greg":4353,"hic":4354,"hold":4355,"ium":4356,"ians":4357,"ki":4358,"ko":4359,"kern":4360,"keep":4361,"lov":4362,"lier":4363,"liver":4364,"mouth":4365,"ng":4366,"ners":4367,"ptr":4368,"rb":4369,"spec":4370,"sizing":4371,"sisters":4372,"vant":4373,"ws":4374,"Ġign":4375,"Ġenc":4376,"inet":4377,"inct":4378,"inary":4379,"eration":4380,"onding":4381,"Ġaim":4382,"enko":4383,"artificial":4384,"arily":4385,"alt":4386,"almon":4387,"ane":4388,"ingh":4389,"uth":4390,"Ġsw":4391,"Ġsch":4392,"tionary":4393,"Ġpast":4394,"Ġpolic":4395,"Ġphilosophy":4396,"Ġpsych":4397,"Ġpaper":4398,"itch":4399,"itness":4400,"Ġcare":4401,"Ġcategory":4402,"Ġcitiz":4403,"Ġintr":4404,"Ġoff":4405,"Ġfil":4406,"Ġfour":4407,"Ġfiction":4408,"Ġdeb":4409,"Ġdivid":4410,"Ġdiagnos":4411,"Ġmov":4412,"Ġmillion":4413,"Ġmilitary":4414,"Ġmaxim":4415,"Ġbel":4416,"Ġbad":4417,"omer":4418,"Ġnor":4419,"Ġnext":4420,"Ġnames":4421,"Ġnormal":4422,"asa":4423,"Ġtoken":4424,"Ġtowards":4425,"ustr":4426,"ĠSup":4427,"ĠSha":4428,"ĠSafety":4429,"ĠMil":4430,"ecast":4431,"ĠTim":4432,"165":4433,"167":4434,"ilding":4435,"Ġlines":4436,"Ġloss":4437,"Ġlater":4438,"ĠNg":4439,"evin":4440,"Ġreach":4441,"istential":4442,"Ġhard":4443,"Ġharm":4444,"Ġhaving":4445,"Ġhdl":4446,"adi":4447,"ticip":4448,"ĠPubl":4449,"ĠPark":4450,"ĠPattern":4451,"ĠPears":4452,"Ġonce":4453,"ried":4454,"rich":4455,"odal":4456,"oto":4457,"ella":4458,"Ġ[âĢ¦":4459,"Ġrace":4460,"Ġrange":4461,"Ġrandom":4462,"Ġracist":4463,"109":4464,"1080":4465,"platform":4466,"umb":4467,"ĠWol":4468,"ĠWith":4469,"Ġconcept":4470,"Ġconcepts":4471,"Ġcome":4472,"Ġcomment":4473,"ĠHarv":4474,"ĠGold":4475,"ĠGreg":4476,"ĠGPT":4477,"ĠFrom":4478,"ĠForm":4479,"ĠFowler":4480,"ĠEff":4481,"ĠElect":4482,"atekeep":4483,"ortal":4484,"Ġstand":4485,"Ġstates":4486,"ube":4487,"Ġwhy":4488,"overing":4489,"Ġexact":4490,"Ġexclus":4491,"Ġuseful":4492,"que":4493,"quist":4494,"ĠOf":4495,"ĠOne":4496,"portun":4497,"echan":4498,"Ġ1997":4499,"Ġdoc":4500,"illa":4501,"1145":4502,"propagation":4503,"Ġmodeling":4504,"Ġchann":4505,"Ġneuro":4506,"Ġacadem":4507,"ferences":4508,"itebox":4509,"Ġagree":4510,"Ġunempl":4511,"Arg":4512,"ĠYou":4513,"ĠAll":4514,"artmouth":4515,"ysical":4516,"ĠThink":4517,"135":4518,"139":4519,"143":4520,"indow":4521,"Ġcompon":4522,"ĠVol":4523,"ĠLee":4524,"onscious":4525,"Ġjust":4526,"tegree":4527,"owered":4528,"orship":4529,"Ġconsist":4530,"Ġplant":4531,"rah":4532,"ratic":4533,"ohr":4534,"iley":4535,"Ġbecomes":4536,"229":4537,"ĠGood":4538,"Ġunderlying":4539,"ierarch":4540,"Ġapproxim":4541,"Wikimedia":4542,"oyment":4543,"ĠAnth":4544,"Read":4545,"Ġrepresentations":4546,"Ġregul":4547,"Ġregard":4548,"Ġexperi":4549,"à¤¾":4550,"ĠĠĠĠĠĠĠĠĠĠĠĠĠĠĠĠĠ":4551,"Ġscale":4552,"ĠWikimedia":4553,"spired":4554,"Ġworks":4555,"parency":4556,"logging":4557,"Ġdevelopments":4558,"shop":4559,"ĠInductive":4560,"ĠRevolution":4561,"ronti":4562,"ĠAndrew":4563,"There":4564,"Ġdeploy":4565,"Ġcontrolled":4566,"scale":4567,"entification":4568,"hority":4569,"ĠRepublic":4570,"ĠRepresent":4571,"Ġstatus":4572,"ĠMcCarthy":4573,"Ġmathematics":4574,"Ġchanged":4575,"Ġclassify":4576,"áĢ¬":4577,"Ġautomation":4578,"Ġfinding":4579,"ĠRobots":4580,"Ġstructures":4581,"Ġbuild":4582,"ĠClass":4583,"Ġaccurate":4584,"ĠAssociated":4585,"bedding":4586,"Ġwriting":4587,"Ġlayer":4588,"ĠBrian":4589,"ĠTransactions":4590,"ĠGerman":4591,"ĠGenerative":4592,"Technology":4593,"ĠRecognition":4594,"Ġfollowing":4595,"ĠJapanese":4596,"Ġhealthcare":4597,"Ø§Ø±Ø":4598,"Ġassociated":4599,"Ġmeasures":4600,"Ġphysical":4601,"Ġposition":4602,"Ġdirectly":4603,"ĠOpenAI":4604,"Ġpractice":4605,"Ġcollection":4606,"Topics":4607,"Ġdynam":4608,"Decision":4609,"generated":4610,"Ġpopular":4611,"ĠFoundation":4612,"Ġgrowth":4613,"Ġcorpora":4614,"Ġbasis":4615,"ĠAutomation":4616,"ĠÂ§":4617,"Ġperspective":4618,"novation":4619,"Ġutil":4620,"ĠService":4621,"ĠEmpire":4622,"sourced":4623,"ficiency":4624,"ĠWatson":4625,"NESCO":4626,"sistersitebox":4627,"ineteenth":4628,"ĠPearson":4629,"Ġ[âĢ¦]":4630,"ĠEffects":4631,"Ġunemployment":4632,"\"}":4633,"\"),":4634,"\"}.":4635,"'$":4636,"'+":4637,"'\".":4638,"('":4639,"(/":4640,"({\"":4641,",'":4642,"288":4643,"433":4644,"://":4645,"={\"":4646,">:":4647,"AN":4648,"AT":4649,"Anal":4650,"By":4651,"But":4652,"Based":4653,"Cun":4654,"Css":4655,"Code":4656,"Down":4657,"Ele":4658,"Function":4659,"GP":4660,"Hints":4661,"IS":4662,"IBM":4663,"June":4664,"January":4665,"Knowledge":4666,"List":4667,"ME":4668,"Ms":4669,"Nav":4670,"Num":4671,"November":4672,"NLP":4673,"Ob":4674,"Op":4675,"Sci":4676,"Special":4677,"Symbolic":4678,"Suggest":4679,"Table":4680,"Upload":4681,"Version":4682,"Zero":4683,"[^":4684,"]+":4685,"^|":4686,"_{":4687,"atically":4688,"cx":4689,"call":4690,"count":4691,"depth":4692,"fig":4693,"from":4694,"fold":4695,"fellow":4696,"gen":4697,"gad":4698,"hors":4699,"hua":4700,"iÅ":4701,"iá":4702,"js":4703,"jqu":4704,"ktop":4705,"mo":4706,"mers":4707,"make":4708,"match":4709,"near":4710,"pri":4711,"pass":4712,"pose":4713,"push":4714,"rc":4715,"rp":4716,"ru":4717,"rase":4718,"search":4719,"symbolic":4720,"scribunto":4721,"tz":4722,"tes":4723,"uing":4724,"uate":4725,"uated":4726,"ville":4727,"wan":4728,"well":4729,"watch":4730,"ways":4731,"window":4732,"zel":4733,"¡Õ":4734,"»Î":4735,"ÄĮ":4736,"Ð³":4737,"Õ¡Õ":4738,"ÖĢ":4739,"ÙĬ":4740,"Ú©":4741,"à¸":4742,"Ġ\\":4743,"Ġge":4744,"Ġve":4745,"Ġener":4746,"Ġens":4747,"Ġele":4748,"Ġerr":4749,"inch":4750,"erb":4751,"Ġtemplate":4752,"Ġaver":4753,"tis":4754,"orial":4755,"enef":4756,"enry":4757,"arles":4758,"arrow":4759,"aling":4760,"edd":4761,"edEdit":4762,"utsk":4763,"repr":4764,"replace":4765,"Ġsmar":4766,"Ġsays":4767,"Ġsatell":4768,"atal":4769,"207":4770,"lein":4771,"lete":4772,"Ġposs":4773,"itter":4774,"cha":4775,"Ġcame":4776,"Ġcause":4777,"Ġcybernetics":4778,"Ġcivil":4779,"Ġcorpus":4780,"Ġinvesti":4781,"Ġoffer":4782,"icate":4783,"eland":4784,"ĠAss":4785,"ĠAnother":4786,"Ġfl":4787,"Ġful":4788,"Ġfalse":4789,"Ġded":4790,"Ġdest":4791,"Ġmer":4792,"Ġmet":4793,"Ġmid":4794,"Ġmedicine":4795,"Ġmillions":4796,"Ġbody":4797,"Ġbillion":4798,"iger":4799,"Ġnature":4800,"etting":4801,"Ġ100":4802,"Ġ180":4803,"ura":4804,"urch":4805,"usk":4806,"usic":4807,"usage":4808,"olti":4809,"ĠSar":4810,"ĠSan":4811,"ĠSci":4812,"ĠSelf":4813,"ĠSmith":4814,"ĠSalmon":4815,"911":4816,"amm":4817,"ams":4818,"ament":4819,"ĠMining":4820,"ĠMulti":4821,"ĠMachinery":4822,"\\\"\"\"":4823,"ĠTom":4824,"ĠToday":4825,"ĠRay":4826,"ĠRich":4827,"ĠRoman":4828,"ĠCri":4829,"ĠCloud":4830,"164":4831,"ĠNic":4832,"sts":4833,"start":4834,"imin":4835,"Ġhouse":4836,"add":4837,"ĠPal":4838,"ĠPart":4839,"ĠPolitics":4840,"ĠPerse":4841,"rian":4842,"otted":4843,"190":4844,"198":4845,"1980":4846,"1983":4847,"elled":4848,"aves":4849,"owski":4850,"Ġpropaganda":4851,"abilities":4852,"ayan":4853,"aylor":4854,"ĠBig":4855,"Ġgovern":4856,"Ġgenetic":4857,"ĠJack":4858,"106":4859,"108":4860,"Ġfore":4861,"Ġforms":4862,"plicit":4863,"apid":4864,"open":4865,"options":4866,"opups":4867,"ĠDi":4868,"ĠDon":4869,"ĠDuring":4870,"ĠDartmouth":4871,"ĠIntelligent":4872,"ĠWeb":4873,"ĠWrit":4874,"Ġconvers":4875,"Ġconsequ":4876,"Ġcomes":4877,"Ġcompeti":4878,"veill":4879,"ĠGaz":4880,"ĠLL":4881,"ĠArthur":4882,"botic":4883,"ĠFox":4884,"Ġalthough":4885,"Ġalmost":4886,"CITEREFAl":4887,"Ġvon":4888,"Ġvers":4889,"Ġstations":4890,"Ġstyle":4891,"ĉĉĉĉĉ":4892,"ĉĉĉĉĉĉĉĉĉĊ":4893,"Ġwhite":4894,"2025":4895,"ĠĠĠĠĠĠĠĠĠĠĊ":4896,"Ġbytes":4897,"Ġexhib":4898,"Ġitem":4899,"formed":4900,"sey":4901,"Ġart":4902,"barchive":4903,"loc":4904,"akis":4905,"portance":4906,"Ġtruth":4907,"ackets":4908,"ansion":4909,"Ġ1981":4910,"ĠState":4911,"ska":4912,"illed":4913,"ĠKing":4914,"ĠKenn":4915,"112":4916,"113":4917,"118":4918,"asty":4919,"Ġimportance":4920,"profit":4921,"progressive":4922,"Ġchun":4923,"Ġchallenges":4924,"Ġchosen":4925,"wgB":4926,"wgM":4927,"wgW":4928,"wgMedia":4929,"wgUser":4930,"wgGE":4931,"129":4932,"prise":4933,"isionId":4934,"Ġaccept":4935,"153":4936,"154":4937,"158":4938,"Ġappear":4939,"Ġunsourced":4940,"Internet":4941,"nowrap":4942,"183":4943,"185":4944,"18911":4945,"ĠAlgorithms":4946,"timate":4947,"timization":4948,"132":4949,"136":4950,"144":4951,"Ġdisput":4952,"ĠVal":4953,"ĠVerge":4954,"onsive":4955,"criptions":4956,"aff":4957,"261":4958,"262":4959,"comes":4960,"complete":4961,"Ġconstit":4962,"Ġdescent":4963,"Ġsolution":4964,"Ġdeveloping":4965,"wikidata":4966,"wikibase":4967,"playing":4968,"Ġrout":4969,"Ġinternal":4970,"ĠProblem":4971,"ckUser":4972,"bordered":4973,"Ġincluded":4974,"erman":4975,"Ġsubject":4976,"ĠReading":4977,"8687":4978,"Ġoppos":4979,"Ġopinion":4980,"Ġ60":4981,"ĠJournalists":4982,"Ġembedding":4983,"External":4984,"ails":4985,"Ġ2004":4986,"Ġ2008":4987,"Ġunderstand":4988,"iversal":4989,"362":4990,"402":4991,"Algorithm":4992,"Enter":4993,"Ġparadigm":4994,"Wikipedia":4995,"Wikibase":4996,"Ġbiology":4997,"Ġbiased":4998,"Ġjournalist":4999,"Computing":5000,"Ġ70":5001,"ength":5002,"Ġmatch":5003,"Ġmostly":5004,"ĠEncy":5005,"298":5006,"ĠZhang":5007,"ĠMcNair":5008,"Probably":5009,"à¤°":5010,"Ġserved":5011,"ĠConstr":5012,"Ġexpanded":5013,"Ġrecognize":5014,"59585":5015,"Ġlogical":5016,"Editable":5017,"mini":5018,"airs":5019,"Ġamounts":5020,"Ġdefine":5021,"Ġexplan":5022,"brackets":5023,"Contents":5024,"Contact":5025,"Control":5026,"Contrib":5027,"Ġcreate":5028,"Ġcollect":5029,"Ġweap":5030,"Ġassess":5031,"465":5032,"full":5033,"Ġprem":5034,"ĠTechnologies":5035,"Appearance":5036,"PageName":5037,"Ġeffective":5038,"pageLanguage":5039,"Ġactors":5040,"Ġrequired":5041,"ĠModels":5042,"Ġlonger":5043,"Ġparticip":5044,"Ġchanging":5045,"Ġmarketing":5046,"References":5047,"Reference":5048,"Ġclassifier":5049,"lands":5050,"Ġcirculation":5051,"ĠPettegree":5052,"Ġautomated":5053,"Ġfinancial":5054,"ashion":5055,"interlanguage":5056,"Ġbuilt":5057,"ArticleId":5058,"ĠCentral":5059,"Image":5060,"Ġdifficulty":5061,"http":5062,"00000":5063,"Ġfocuses":5064,"Print":5065,"});});":5066,"ĠAmazon":5067,"ĠFrench":5068,"wgRestric":5069,"Viewer":5070,"Ġpostal":5071,"Ġexistential":5072,"Ġcontinued":5073,"Ġattempt":5074,"Ġadvant":5075,"Ġplaying":5076,"Online":5077,"Ġserve":5078,"Ġseries":5079,"Ġwidesp":5080,"ĠCompression":5081,"greek":5082,"Ġdevices":5083,"ĠWhite":5084,"Ġconstruction":5085,"Ġanalyze":5086,"Ġfeel":5087,"empty":5088,"expand":5089,"ĠWilliam":5090,"wgCanon":5091,"wgPageContent":5092,"centralNotice":5093,"Ġmenu":5094,"Ġreceived":5095,"ĠFinancial":5096,"ĠEconomist":5097,"responsive":5098,"Automated":5099,"Tools":5100,"caption":5101,"ĠControl":5102,"Ġdescribed":5103,"Ġdynasty":5104,"ĠEvents":5105,"Ġpresented":5106,"Collaps":5107,"Default":5108,"OpenAI":5109,"à²¨":5110,"Ġsuggested":5111,"Ġlarger":5112,"Ġclosely":5113,"Ġtransmitted":5114,"aude":5115,"Ġachieve":5116,"Ġsynthesis":5117,"ĠAtlantic":5118,"Ġfunding":5119,"ĠHuang":5120,"ĠchangesUpload":5121,"Donate":5122,"Organization":5123,"Ġentities":5124,"Ġsummar":5125,"Ġproposed":5126,"ÑĢÐ¿":5127,"Ġdisseminate":5128,"[]).":5129,"decoration":5130,"Ã¢n":5131,"Ġsufficient":5132,"Ġdeliver":5133,"ĠFacebook":5134,"Ġstrategy":5135,"hilosophical":5136,"TransformTable":5137,"Differ":5138,"Namespace":5139,"blatt":5140,"cursor":5141,"||[]).":5142,"à±ģ":5143,"Ġtelecommunications":5144,"Ġfirms":5145,"wgULSis":5146,"\":[\"\",\"\"],\"":5147,"ArticleTarget":5148,"centralauth":5149,"\":\"+\\\\\",\"":5150,"written":5151,"informatics":5152,"Ġseparate":5153,"ĠMethods":5154,"Ġlikely":5155,"Ġcontrast":5156,"ĠHistorian":5157,"ambiguation":5158,"Glossary":5159,"Ġthousands":5160,"Ġadopted":5161,")\"\\":5162,"desktop":5163,"globalCss":5164,"specific":5165,"Ġnorms":5166,"ĠHarvard":5167,"Ġexclusive":5168,"rontier":5169,"Download":5170,"SuggestedEdit":5171,"gadget":5172,"jquery":5173,"makeCollaps":5174,"Ġvehic":5175,"Ġenergy":5176,"utskever":5177,"veillance":5178,"wgMediaViewer":5179,"868759585":5180,"ĠEncyclopedia":5181,"ProbablyEditable":5182,"wgRestriction":5183,"Ġwidespread":5184,"wgCanonical":5185,"desktopArticleTarget":5186,"globalCssJs":5187,"makeCollapsible":5188,"\"&#":5189,"191":5190,"320":5191,"640":5192,"71":5193,"720":5194,"AC":5195,"Am":5196,"At":5197,"Az":5198,"Acc":5199,"Beat":5200,"Bah":5201,"Do":5202,"Dan":5203,"EC":5204,"El":5205,"Fr":5206,"Fin":5207,"Future":5208,"Fei":5209,"Government":5210,"Graph":5211,"Hall":5212,"Harv":5213,"Japan":5214,"Level":5215,"Local":5216,"Mod":5217,"May":5218,"Mental":5219,"OC":5220,"October":5221,"Per":5222,"Press":5223,"Part":5224,"RT":5225,"Research":5226,"Report":5227,"System":5228,"September":5229,"Security":5230,"TC":5231,"Take":5232,"Tube":5233,"Uns":5234,"Under":5235,"Vincent":5236,"Wh":5237,"aun":5238,"bs":5239,"bon":5240,"bas":5241,"ca":5242,"can":5243,"ched":5244,"cise":5245,"def":5246,"fa":5247,"fn":5248,"face":5249,"fession":5250,"gate":5251,"hn":5252,"iable":5253,"kit":5254,"kens":5255,"mma":5256,"millan":5257,"oem":5258,"oice":5259,"pir":5260,"publ":5261,"powered":5262,"ror":5263,"racy":5264,"sl":5265,"ser":5266,"sch":5267,"self":5268,"speech":5269,"tation":5270,"template":5271,"tman":5272,"uÃ":5273,"val":5274,"vat":5275,"video":5276,"xi":5277,"ya":5278,"yan":5279,"zation":5280,"Ãł":5281,"Ð·":5282,"Ðľ":5283,"Ñĭ":5284,"Øª":5285,"Ù¾":5286,"á±":5287,"áŀ":5288,"ãĥ":5289,"Ġtaking":5290,"onoff":5291,"ora":5292,"orage":5293,"arely":5294,"help":5295,"estic":5296,"ington":5297,"utral":5298,"rem":5299,"reement":5300,"Ġsk":5301,"Ġsear":5302,"Ġold":5303,"atter":5304,"atab":5305,"204":5306,"Ġpati":5307,"Ġpreferences":5308,"Ġcur":5309,"Ġcity":5310,"Ġcultural":5311,"Ġinher":5312,"Ġinduction":5313,"Ġinspired":5314,"icz":5315,"elson":5316,"ĠAge":5317,"ĠAtt":5318,"ĠAround":5319,"Ġfav":5320,"Ġdone":5321,"Ġdates":5322,"Ġdays":5323,"Ġdown":5324,"Ġmor":5325,"Ġmove":5326,"Ġmiss":5327,"Ġmechan":5328,"Ġban":5329,"Ġbase":5330,"Ġbelief":5331,"Ġbenef":5332,"Ġwrap":5333,"omet":5334,"omsky":5335,"omonoff":5336,"ette":5337,"asion":5338,"asons":5339,"Ġ193":5340,"uristic":5341,"urder":5342,"oles":5343,"ĠSub":5344,"ĠSearch":5345,"ĠSection":5346,"ĠSexual":5347,"ĠSutskever":5348,"ception":5349,"ami":5350,"ĠMel":5351,"ĠMitchell":5352,"ĠMoore":5353,"iders":5354,"ĠText":5355,"ĠRob":5356,"ĠRoad":5357,"ĠCo":5358,"ĠCar":5359,"ĠCour":5360,"ĠCarl":5361,"ĠIf":5362,"Ġ\"\"":5363,"ils":5364,"Ġlives":5365,"Ġliter":5366,"ĠNineteenth":5367,"ston":5368,"stant":5369,"Ġreve":5370,"Ġrecent":5371,"Ġreally":5372,"Ġrevolution":5373,"Ġreview":5374,"imization":5375,"istry":5376,"Ġhour":5377,"ada":5378,"aders":5379,"ticism":5380,"ival":5381,"ively":5382,"ĠPit":5383,"ĠPhil":5384,"ĠPaul":5385,"active":5386,"ria":5387,"riend":5388,"oder":5389,"ott":5390,"otstr":5391,"otograph":5392,"1923":5393,"1965":5394,"aven":5395,"owicz":5396,"ĠBi":5397,"ĠBern":5398,"ĠBecause":5399,"Ġgather":5400,"Ġrun":5401,"Ġrest":5402,"Ġrare":5403,"Ġrestric":5404,"ĠJon":5405,"ĠJan":5406,"ĠJosh":5407,"101":5408,"103":5409,"1017":5410,"fice":5411,"Ġforecast":5412,"ione":5413,"iry":5414,"plied":5415,"aps":5416,"apter":5417,"ĠDep":5418,"aints":5419,"umar":5420,"Ġnewsworth":5421,"ĠInt":5422,"osed":5423,"osion":5424,"osep":5425,"ĠGro":5426,"ĠGeni":5427,"ĠLat":5428,"ĠFree":5429,"ĠFlor":5430,"ĠEr":5431,"ĠEach":5432,"Ġalignment":5433,"CITEREFCh":5434,"angers":5435,"Ġvide":5436,"Ġversion":5437,"Ġvirtual":5438,"Ġviol":5439,"Ġstorage":5440,"Ġwhose":5441,"ationship":5442,"Ġuser":5443,"upta":5444,"ĠOCL":5445,"ureau":5446,"Ġtrad":5447,"climit":5448,"ifer":5449,"ĠUK":5450,"ago":5451,"aged":5452,"ĠStanford":5453,"eff":5454,"eference":5455,"ĠKevin":5456,"ending":5457,"1126":5458,"1177":5459,"Ġ35":5460,"Ġprim":5461,"ĠChomsky":5462,"perial":5463,"profile":5464,"Ġever":5465,"Ġevacuation":5466,"gric":5467,"token":5468,"Ġnegative":5469,"Ġresolution":5470,"Ġresources":5471,"Ġacqu":5472,"Ġaccom":5473,"150":5474,"156":5475,"159":5476,"ocracy":5477,"Ġagenda":5478,"Ġaggreg":5479,"grow":5480,"International":5481,"ething":5482,"Ġ54":5483,"184":5484,"ĠYoshua":5485,"Ġattention":5486,"ĠNorth":5487,"artment":5488,"ysics":5489,"130":5490,"134":5491,"ĠUnsupervised":5492,"Ġcompress":5493,"Ġdise":5494,"Ġdiscre":5495,"ĠVenture":5496,"174":5497,"178":5498,"254":5499,"256":5500,"259":5501,"Ġgenerally":5502,"ioinformatics":5503,"Ġ45":5504,"Ġenough":5505,"Commun":5506,"ĠNewquist":5507,"anno":5508,"Ġroom":5509,"Ġshif":5510,"Ġshared":5511,"Ġoutcomes":5512,"Ġtransparency":5513,"ilei":5514,"ĠReinforcement":5515,"335":5516,"337":5517,"Ġ66":5518,"onomy":5519,"306":5520,"Existential":5521,"Ġ2003":5522,"ucture":5523,"uctured":5524,"Ġreporters":5525,"363":5526,"context":5527,"Ġtextbooks":5528,"Alpha":5529,"Although":5530,"Ġquan":5531,"Ġquality":5532,"Ġparties":5533,"oyal":5534,"Ġhead":5535,"Ġobt":5536,"Ġbiological":5537,"ularly":5538,"Ġsets":5539,"Reason":5540,"Ġsimpl":5541,"ĠItalian":5542,"ĠEnergy":5543,"381":5544,"387":5545,"iques":5546,"iquote":5547,"ĠZh":5548,"ĠZhao":5549,"Ġpredictive":5550,"Project":5551,"Programming":5552,"à¤¨":5553,"Ġefficiency":5554,"ĠConvers":5555,"Ġoverfitting":5556,"Ġscene":5557,"ĠAsh":5558,"Ġdetect":5559,"subtle":5560,"Ġproving":5561,"flix":5562,"395":5563,"Ġexplosion":5564,"Ġidentification":5565,"Ġweight":5566,"Ġcapt":5567,"Ġthroughout":5568,"risis":5569,"Annotated":5570,"henomen":5571,"Ġimpossible":5572,"Ġimpacts":5573,"356":5574,"Ġreduce":5575,"Ġneeds":5576,"Ġneeding":5577,"Ġoperational":5578,"Ġoperating":5579,"Appro":5580,"Ġlabelling":5581,"1979":5582,"ĠShapiro":5583,"Ð°ÑĪ":5584,"Ð°Ñı":5585,"Ġdomain":5586,"Ġargues":5587,"Ġprinting":5588,"volutional":5589,"Ġidentified":5590,"Ġavoid":5591,"Ġseek":5592,"Authority":5593,"visible":5594,"ennett":5595,"ĠModeling":5596,"Ġcommonly":5597,"ÑģÐºÐ°Ñı":5598,"Reflist":5599,"Ġsurveillance":5600,"Ġeduc":5601,"ashington":5602,"Ġsimilarity":5603,"ĠStephen":5604,"Ã¼ller":5605,"Ġterrit":5606,"Ġblurred":5607,"ĠSimilar":5608,"ographic":5609,"author":5610,"Ġgradient":5611,"Ġcriers":5612,"Ġrelevant":5613,"ĠEdward":5614,"Ġ1970":5615,"ĠRegulation":5616,"ĠQuarter":5617,"ĠCompany":5618,"Ġincorpor":5619,"Ġleaders":5620,"Ġobserved":5621,"Ġobservations":5622,"orphic":5623,"Ġobjective":5624,"Ð¾Ð½":5625,"Ġmeasure":5626,"Ġphysics":5627,"caps":5628,"medi":5629,"Ð»Ð°ÑĢ":5630,"Ġintended":5631,"Ġdescribes":5632,"Frank":5633,"Journalism":5634,"Ġchess":5635,"Ġcheck":5636,"Ġdemonstr":5637,"Ġnecessarily":5638,"Ġhistorical":5639,"Ġhistorically":5640,"Ġproperties":5641,"Ġevaluation":5642,"Ġdominated":5643,"ĠReporting":5644,"Ġpreviously":5645,"ÐµÐ»Ð°ÑĢ":5646,"Ġidea":5647,"Ġlargest":5648,"Ġeasy":5649,"uzzy":5650,"Ġintegration":5651,"Ġlisten":5652,"ultimedia":5653,"ultimodal":5654,"ÐĳÐµÐ»Ð°ÑĢ":5655,"ÑĥÑģÐºÐ°Ñı":5656,"ĠAccording":5657,"Ġframeworks":5658,"ĠSurvey":5659,"Ġthinking":5660,"Ġevolutionary":5661,"Ġadvanced":5662,"Ġindependence":5663,"Ġcalculus":5664,"ĠSilver":5665,"ameter":5666,"Stephen":5667,"Ġseconds":5668,"McCarthy":5669,"Electronic":5670,"Ġderived":5671,"Ġwatching":5672,"ĠMacmillan":5673,"ĠRisk":5674,"ĠChristopher":5675,"Ġchoose":5676,"Ġsomething":5677,"ĠSummit":5678,"ĠTwo":5679,"ĠXinhua":5680,"Ġmonths":5681,"ĠPublishing":5682,"ĠGregory":5683,"Ġacademic":5684,"onsciousness":5685,"ruff":5686,"Ġerrors":5687,"Ġaverage":5688,"Ġforeign":5689,"Ġexplanation":5690,"Bahasa":5691,"Unsupervised":5692,"oemaker":5693,"vatski":5694,"Ġsearches":5695,"Ġhours":5696,"otstrap":5697,"ĠDepartment":5698,"oseph":5699,"ĠOCLC":5700,"ĠVentureBeat":5701,"ĠQuarterly":5702,"ÐĳÐµÐ»Ð°ÑĢÑĥÑģÐºÐ°Ñı":5703,"!--":5704,"')":5705,")&#":5706,")\".":5707,"*=\"":5708,"085":5709,"119":5710,"210":5711,"212":5712,"393":5713,"319":5714,"323":5715,"50000":5716,"997":5717,":&#":5718,"<!--":5719,"==":5720,"Action":5721,"Ass":5722,"Att":5723,"April":5724,"Active":5725,"Br":5726,"Bad":5727,"Bengio":5728,"CC":5729,"Cre":5730,"Cybernetics":5731,"DD":5732,"Document":5733,"Europe":5734,"FR":5735,"Feature":5736,"Fanno":5737,"Gro":5738,"Genetic":5739,"High":5740,"Hidden":5741,"LI":5742,"Lab":5743,"MO":5744,"Man":5745,"Many":5746,"Microsoft":5747,"Mobile":5748,"Music":5749,"Nat":5750,"Out":5751,"Over":5752,"One":5753,"Prev":5754,"Paul":5755,"RA":5756,"Sc":5757,"Sol":5758,"Synt":5759,"Tim":5760,"Turing":5761,"VM":5762,"Video":5763,"World":5764,"aq":5765,"aug":5766,"bing":5767,"burg":5768,"come":5769,"de":5770,"dr":5771,"dress":5772,"ead":5773,"fam":5774,"fare":5775,"gation":5776,"hood":5777,"havior":5778,"hidden":5779,"iu":5780,"ipl":5781,"iant":5782,"jus":5783,"lam":5784,"lay":5785,"ltr":5786,"mm":5787,"mol":5788,"mov":5789,"mbox":5790,"no":5791,"oon":5792,"ole":5793,"pp":5794,"pan":5795,"pay":5796,"rg":5797,"ren":5798,"rav":5799,"ridge":5800,"sha":5801,"src":5802,"tected":5803,"uy":5804,"urom":5805,"vent":5806,"vement":5807,"wide":5808,"wami":5809,"zech":5810,"zwe":5811,"~.":5812,"µÕ¥":5813,"Ã¨":5814,"Ð¹":5815,"Ðł":5816,"ÑĤ":5817,"Ñĩ":5818,"ÑĮ":5819,"Õ¶":5820,"Ø©":5821,"Ø¬":5822,"ÙĦ":5823,"ÙĨ":5824,"à©":5825,"à·":5826,"àº":5827,"ãĤ":5828,"Ġill":5829,"Ġency":5830,"Ĳáĥ":5831,"łáĥ":5832,"inical":5833,"inction":5834,"intelligent":5835,"ered":5836,"erintelligence":5837,"Ġtarg":5838,"Ġturn":5839,"orate":5840,"enz":5841,"eness":5842,"aris":5843,"arry":5844,"ani":5845,"ano":5846,"anchor":5847,"Ġtheor":5848,"Ġtheories":5849,"Ġsu":5850,"Ġsound":5851,"Ġseen":5852,"Ġsym":5853,"Ġsix":5854,"Ġscientific":5855,"Ġskin":5856,"leer":5857,"Ġpurs":5858,"Ġpict":5859,"Ġpione":5860,"ittle":5861,"itarian":5862,"Ġcut":5863,"Ġchem":5864,"Ġcust":5865,"Ġcaus":5866,"Ġcode":5867,"Ġcategor":5868,"Ġcloud":5869,"Ġcrisis":5870,"icens":5871,"icago":5872,"ela":5873,"elp":5874,"eling":5875,"ĠAP":5876,"ĠAc":5877,"ĠAfter":5878,"Ġfall":5879,"Ġfast":5880,"Ġfake":5881,"Ġfashion":5882,"Ġdiv":5883,"Ġdigital":5884,"Ġmobile":5885,"Ġbul":5886,"Ġbreak":5887,"Ġbench":5888,"Ġwarn":5889,"Ġways":5890,"Ġwinter":5891,"Ġwomen":5892,"igit":5893,"igowski":5894,"Ġnation":5895,"Ġnear":5896,"astic":5897,"empor":5898,"Ġ113":5899,"Ġ186":5900,"uries":5901,"urzwe":5902,"use":5903,"olyn":5904,"ĠSupervised":5905,"ĠSince":5906,"ĠSecond":5907,"amella":5908,"ĠML":5909,"ĠMax":5910,"ĠManning":5911,"idel":5912,"ident":5913,"idation":5914,"outledge":5915,"ĠTV":5916,"ĠRel":5917,"ĠRussian":5918,"ĠCong":5919,"ĠCoh":5920,"ĠCategory":5921,"ĠCBS":5922,"ĠIan":5923,"ĠIts":5924,"ĠIra":5925,"Ġ\";":5926,"162":5927,"iles":5928,"iliar":5929,"Ġlive":5930,"Ġlook":5931,"ĠNations":5932,"ĠNick":5933,"ĠNBC":5934,"ĠNRC":5935,"stan":5936,"stat":5937,"stood":5938,"Ġrely":5939,"Ġreven":5940,"Ġreward":5941,"Ġreader":5942,"imal":5943,"ullo":5944,"ulner":5945,"uligowski":5946,"Ġhold":5947,"Ġhope":5948,"Ġhierarch":5949,"Ġthreat":5950,"ĠPap":5951,"ĠPeople":5952,"actic":5953,"Ġones":5954,"rik":5955,"rial":5956,"ots":5957,"1955":5958,"1982":5959,"lya":5960,"),&#":5961,"oger":5962,"Ġprote":5963,"Ġproject":5964,"acher":5965,"ĠBl":5966,"ĠBureau":5967,"Ġrapid":5968,"Ġrarely":5969,"ĠJul":5970,"ĠJob":5971,"102":5972,"1000000":5973,"ira":5974,"cient":5975,"ĠDiss":5976,"ĠDictionary":5977,"osu":5978,"ĠWashington":5979,"Ġconvey":5980,"Ġconstant":5981,"ĠHor":5982,"ĠHand":5983,"ĠHaw":5984,"ĠHenry":5985,"ĠTheir":5986,"ĠGame":5987,"ĠFund":5988,"ĠFirst":5989,"ĠEle":5990,"ĠEric":5991,"ĠEvolution":5992,"izes":5993,"Ġalone":5994,"Ġalways":5995,"CITEREFN":5996,"CITEREFT":5997,"CITEREFZ":5998,"Ġvulner":5999,"ortug":6000,"Ġstation":6001,"Ġstock":6002,"ampa":6003,"uble":6004,"ourth":6005,"ikol":6006,"ikakis":6007,"Ġexcer":6008,"ĠOliver":6009,"udio":6010,"antum":6011,"akrav":6012,"Ġtra":6013,"Ġtrust":6014,"acking":6015,"ugment":6016,"ify":6017,"ifies":6018,"ĠUnder":6019,"ĠUNESCO":6020,"ager":6021,"agal":6022,"agged":6023,"ationalism":6024,"Ġ1993":6025,"ĠStev":6026,"ĠKe":6027,"ĠKl":6028,"ĠKen":6029,"ĠKarl":6030,"Ġ38":6031,"Ġ39":6032,"Ġpred":6033,"ĠChapter":6034,"Ġimplications":6035,"Ġimplicit":6036,"Ġchamp":6037,"gray":6038,"grave":6039,"ernel":6040,"121":6041,"123":6042,"toclimit":6043,"igns":6044,"ensity":6045,"Ġrespec":6046,"ĠComing":6047,"Ġactiv":6048,"trained":6049,"ualism":6050,"oreign":6051,"entice":6052,"Ġunits":6053,"Ġunknown":6054,"Ġclaim":6055,"Ġcontained":6056,"Intelligence":6057,"ultures":6058,"180":6059,"181":6060,"187":6061,"ĠAli":6062,"Ġnotably":6063,"artty":6064,"ĠThat":6065,"ĠThird":6066,"142":6067,"148":6068,"indent":6069,"oney":6070,"Ġcompet":6071,"Ġcomplet":6072,"Ġcompared":6073,"usters":6074,"ustrial":6075,"234":6076,"236":6077,"238":6078,"ĠLeCun":6079,"173":6080,"very":6081,"248":6082,"260":6083,"Ġadap":6084,"Ġadversarial":6085,"ildren":6086,"Ġeng":6087,"Ġengine":6088,"Ġenables":6089,"Ġrelatively":6090,"Commons":6091,"9780":6092,"actor":6093,"ffective":6094,"Ġsolved":6095,"Ġplatform":6096,"Ġdeclar":6097,"Ġdecades":6098,"Ġdevelopers":6099,"anny":6100,"ishers":6101,"ishop":6102,"272":6103,"ĠProfession":6104,"Ġprogrammed":6105,"Ġtransmission":6106,"ermin":6107,"Ġbecoming":6108,"Ġsubfield":6109,"ertation":6110,"Ġoptical":6111,"Ġopportun":6112,"228":6113,"Ġemo":6114,"304":6115,"awa":6116,"Exper":6117,"aily":6118,"Ġ2002":6119,"Ġunderstood":6120,"ĠMarc":6121,"Alternative":6122,"Ġparti":6123,"Wiktionary":6124,"Wikiquote":6125,"ĠAnn":6126,"Ġobject":6127,"hedul":6128,"ĠSociology":6129,"Requ":6130,"Ġ75":6131,"Ġcenturies":6132,"engers":6133,"Ġmatter":6134,"Ġmatrix":6135,"ĠEngineering":6136,"Ġworldwide":6137,"Ġformed":6138,"Ġformat":6139,"Ġalgorithmic":6140,"\"]{":6141,"à¤ª":6142,"Ġlearns":6143,"Ġlearner":6144,"Ġexpect":6145,"Ġexpression":6146,"Ġyield":6147,"cribers":6148,"Ġschedul":6149,"ĠPrac":6150,"ĠPrentice":6151,"Ġrise":6152,"EditView":6153,"Ġ82":6154,"ersonal":6155,"-->":6156,"Ġdefining":6157,"Ġdiscover":6158,"ighth":6159,"ÐºÐµ":6160,"Ġworking":6161,"Ġcreating":6162,"Ġcolon":6163,"ĠAmericans":6164,"Ġextended":6165,"Ġperforming":6166,"Ġdistingu":6167,"Ġdistributed":6168,"Ġdistinct":6169,"Ġmanif":6170,"8211":6171,"ĠExamples":6172,"ependent":6173,"ronics":6174,"ĠAndre":6175,"Ġredirect":6176,"Ġsubsid":6177,"Query":6178,"Ġphrase":6179,"hancements":6180,"iously":6181,"ĠShoemaker":6182,"Ġdomains":6183,"Ġdomestic":6184,"Ġlocation":6185,"Ġargue":6186,"áĥĲáĥ":6187,"Auto":6188,"aviour":6189,"Ġbehaviour":6190,"ĠMcCullo":6191,"494":6192,"visited":6193,"Ġrequires":6194,"Ġanything":6195,"ditional":6196,"Ġetc":6197,"attle":6198,"Ġhandle":6199,"Ġhandwritten":6200,"phas":6201,"ixed":6202,"ĠXilei":6203,"Ġmajority":6204,"Learn":6205,"Ġsurpass":6206,"ĠAdvan":6207,"Ġclassifiers":6208,"áĢĻ":6209,"Ġedition":6210,"Ġlimitations":6211,"Ġelectronic":6212,"Ġelectrical":6213,"Ġinvolving":6214,"Ġwayback":6215,"ĠIsrael":6216,"Neuro":6217,"Ġeconomics":6218,"Ġpotentially":6219,"ĠAutonomous":6220,"ĠCentury":6221,"ornell":6222,"Ġbackpropagation":6223,"ĠParis":6224,"ĠParticip":6225,"Ġresponse":6226,"ĠMarket":6227,"Ġneuron":6228,"Ġquestions":6229,"Privacy":6230,"conn":6231,"Ġspeaking":6232,"emini":6233,"Ġconnec":6234,"Ġconnected":6235,"Ġprovides":6236,"Ġpoint":6237,"Ġrelease":6238,"Ġadvance":6239,"Ġshowed":6240,"ĠQuest":6241,"Ġaudio":6242,"Ġmonit":6243,"ĠImage":6244,"agazines":6245,"plainable":6246,"ĠHealth":6247,"toclevel":6248,"However":6249,"matical":6250,"Ġsignals":6251,"Ġfeed":6252,"Ġfollowed":6253,"ĠArabic":6254,"Ġtransformer":6255,"Relationship":6256,"Ø§ÙĦ":6257,"ĠEconomic":6258,"ĠStrateg":6259,"127494":6260,"ederated":6261,"Ġdrug":6262,"Ġoccur":6263,"Ġofficials":6264,"Ġuncertainty":6265,"Ġassumption":6266,"Anderson":6267,"Ġguess":6268,"ĠFoundations":6269,"Ġcharacteristic":6270,"Bias":6271,"humanism":6272,"ĠNoam":6273,"Ġanswers":6274,"Ġverb":6275,"Ġverification":6276,"Ġemerged":6277,"Ġspecialized":6278,"Ġmaintained":6279,"Embedded":6280,"Simple":6281,"iaramella":6282,"modity":6283,"ÑĥÑģ":6284,"Ġentire":6285,"Ġpassed":6286,"Ġrefers":6287,"CITEREFVincent":6288,"Regression":6289,"Ġexperiment":6290,"Ġexperimental":6291,"Ġexplicitly":6292,"524288":6293,"ozin":6294,"Ġsciences":6295,"Ġsentiment":6296,"Ġbroadcasters":6297,"ĠDemocracy":6298,"Ġconduct":6299,"Ġprinciples":6300,"Mathematical":6301,"Ġpurpose":6302,"Ġboundaries":6303,"Ġarrang":6304,"Ġrecommendation":6305,"Norsk":6306,"Published":6307,"aÃ±":6308,"Ġcourt":6309,"Ġbrought":6310,"Ġbandire":6311,"Ġwrite":6312,"Ġhypothesis":6313,"eekly":6314,"Ġcorrespond":6315,"variant":6316,"yalon":6317,"×Ļ×":6318,"Ġessential":6319,"tify":6320,"ĠTerms":6321,"ĠNetflix":6322,"ĠDiffusion":6323,"ĠOutline":6324,"Newspapers":6325,"ahneman":6326,"Ġreducing":6327,"ĠCollege":6328,"ChatGPT":6329,"Redirect":6330,"Ġcitizens":6331,"Ġmaximize":6332,"Ġbeliev":6333,"ĠMilner":6334,"Ġexactly":6335,"Ġchannels":6336,"Ġneuroscience":6337,"ĠYouTube":6338,"ĠAnthony":6339,"ReadEditView":6340,"Ġexperienced":6341,"Ġdynamic":6342,"Number":6343,"Õ¡ÕµÕ¥":6344,"ÖĢÕ¥":6345,"represent":6346,"Ġsatellite":6347,"ĠSarikakis":6348,"ĠRichard":6349,"ĠGazette":6350,"Ġchunk":6351,"Ġaccepted":6352,"Ġdisputes":6353,"Ġadvantage":6354,"Ġvehicles":6355,"Daniel":6356,"baseline":6357,"ĠPitts":6358,"riendly":6359,"Ġrestricted":6360,"ĠGeniets":6361,"ĠLatin":6362,"Ġvideos":6363,"growth":6364,"Community":6365,"Approaches":6366,"Ġeducation":6367,"5000000":6368,"MOD":6369,"Natur":6370,"layer":6371,"molik":6372,"uromorphic":6373,"ÐłÑĥÑģ":6374,"ÑĩÐ°":6375,"Ġencyclopedia":6376,"Ġtargets":6377,"urzweil":6378,"ĠCohen":6379,"Ġrevenue":6380,"ĠDissertation":6381,"Ġexcerpts":6382,"akravartty":6383,"ÐºÐµÐ":6384,"ĠParticipation":6385,"Ø§ÙĦØ":6386,"52428800":6387,"\").":6388,"%!":6389,"%}":6390,"'.":6391,")[":6392,"012":6393,"220":6394,"218":6395,"213":6396,"217":6397,"227":6398,"310":6399,"324":6400,"345":6401,"559":6402,"890":6403,"?:":6404,"AA":6405,"AGE":6406,"Audio":6407,"Ber":6408,"Bro":6409,"Big":6410,"Business":6411,"Bayesian":6412,"Citation":6413,"Cognition":6414,"Des":6415,"Develop":6416,"Disc":6417,"Development":6418,"Dimensionality":6419,"EO":6420,"Ep":6421,"Es":6422,"Emer":6423,"Econom":6424,"Early":6425,"Form":6426,"Fold":6427,"Flow":6428,"February":6429,"Fourth":6430,"GI":6431,"Gen":6432,"Green":6433,"HF":6434,"Har":6435,"IG":6436,"IP":6437,"Jump":6438,"Kin":6439,"KDD":6440,"Lex":6441,"Large":6442,"Lovreglio":6443,"MM":6444,"MP":6445,"Me":6446,"Mal":6447,"NA":6448,"NE":6449,"Non":6450,"OR":6451,"OS":6452,"Occ":6453,"PR":6454,"Pre":6455,"Pol":6456,"Pos":6457,"Post":6458,"People":6459,"Res":6460,"Resp":6461,"So":6462,"Su":6463,"Soft":6464,"Separ":6465,"Setting":6466,"Time":6467,"Television":6468,"Task":6469,"TÃ¼r":6470,"UC":6471,"UL":6472,"Use":6473,"Ve":6474,"Val":6475,"Virtual":6476,"ait":6477,"bi":6478,"cis":6479,"cil":6480,"cod":6481,"canny":6482,"da":6483,"df":6484,"do":6485,"din":6486,"dependent":6487,"eut":6488,"eties":6489,"fri":6490,"find":6491,"ger":6492,"gupta":6493,"hos":6494,"hud":6495,"hard":6496,"iy":6497,"ius":6498,"just":6499,"kh":6500,"kl":6501,"la":6502,"lua":6503,"mf":6504,"model":6505,"nam":6506,"nik":6507,"nect":6508,"null":6509,"pal":6510,"ping":6511,"post":6512,"pson":6513,"rf":6514,"run":6515,"ructure":6516,"spl":6517,"sense":6518,"semantics":6519,"tal":6520,"tun":6521,"tot":6522,"tology":6523,"tection":6524,"uating":6525,"uilding":6526,"vec":6527,"vid":6528,"wa":6529,"wall":6530,"wick":6531,"wrap":6532,"yb":6533,"yers":6534,"yak":6535,"yond":6536,"yrian":6537,"zo":6538,"zed":6539,"zadeh":6540,"£áĥ":6541,"¥æ":6542,"°âµ":6543,"´°âµ":6544,"Ã¡":6545,"Ã¶":6546,"Ð¡":6547,"â´°âµ":6548,"æĸ":6549,"æĹ":6550,"Ġz":6551,"Ġ80":6552,"ļáĥ":6553,"ľ¬":6554,"inc":6555,"incre":6556,"inson":6557,"erbert":6558,"Ġtal":6559,"Ġtim":6560,"Ġtakes":6561,"onio":6562,"Ġaway":6563,"tiality":6564,"orre":6565,"oratory":6566,"ena":6567,"enal":6568,"ened":6569,"aring":6570,"het":6571,"hey":6572,"alf":6573,"alle":6574,"alper":6575,"almers":6576,"edro":6577,"esi":6578,"anp":6579,"anatory":6580,"annotated":6581,"ising":6582,"isition":6583,"inge":6584,"utch":6585,"uther":6586,"utorial":6587,"reaking":6588,"Ġsal":6589,"Ġsite":6590,"Ġsyn":6591,"Ġovers":6592,"203":6593,"208":6594,"learn":6595,"lets":6596,"letters":6597,"Ġput":6598,"Ġpie":6599,"Ġpolitics":6600,"Ġpuzz":6601,"Ġphilosophical":6602,"Ġpenal":6603,"itle":6604,"itous":6605,"chorm":6606,"roid":6607,"rovers":6608,"rooms":6609,"Ġcars":6610,"Ġcod":6611,"Ġcov":6612,"Ġcore":6613,"Ġcite":6614,"Ġcart":6615,"Ġclear":6616,"Ġcoff":6617,"Ġcities":6618,"Ġcultures":6619,"Ġinstr":6620,"Ġinnovation":6621,"icated":6622,"elt":6623,"ĠAyalon":6624,"Ġfine":6625,"Ġfear":6626,"Ġfull":6627,"Ġdepth":6628,"Ġdmy":6629,"Ġdipl":6630,"Ġmed":6631,"Ġmental":6632,"Ġmurder":6633,"entence":6634,"Ġbal":6635,"Ġbure":6636,"Ġbran":6637,"Ġbelow":6638,"Ġbox":6639,"Ġbillions":6640,"Ġbattle":6641,"Ġwelf":6642,"Ġwider":6643,"oma":6644,"omi":6645,"oment":6646,"omial":6647,"omatic":6648,"ompson":6649,"Ġname":6650,"Ġnoun":6651,"Ġnode":6652,"etary":6653,"etection":6654,"asc":6655,"asure":6656,"asgupta":6657,"empts":6658,"Ġ124":6659,"Ġ185":6660,"Ġtown":6661,"olas":6662,"ĠSH":6663,"ĠST":6664,"ĠSer":6665,"ĠShe":6666,"ĠSuch":6667,"ĠSyn":6668,"ĠSoftware":6669,"ĠSignal":6670,"ĠSpace":6671,"ĠSparse":6672,"Ġ2000":6673,"ĠMu":6674,"ĠMer":6675,"ĠMaking":6676,"ĠMedical":6677,"ĠMaster":6678,"ĠMedicine":6679,"ida":6680,"idential":6681,"ĠTime":6682,"ĠTyp":6683,"ĠTensor":6684,"ĠRod":6685,"ĠRight":6686,"ĠRuss":6687,"ĠRugg":6688,"ĠRoutledge":6689,"ĠRoger":6690,"ĠCal":6691,"ĠCur":6692,"ĠCond":6693,"ĠCurrent":6694,"ĠCivil":6695,"ĠCEO":6696,"Ġ\"[":6697,"161":6698,"168":6699,"ilver":6700,"Ġlaun":6701,"ĠNow":6702,"ĠNuclear":6703,"ĠNotes":6704,"ĠNils":6705,"Ġreasons":6706,"Ġremov":6707,"impl":6708,"imate":6709,"images":6710,"Ġhund":6711,"Ġthough":6712,"Ġthird":6713,"tices":6714,"ticians":6715,"ĠPerspec":6716,"access":6717,"geo":6718,"una":6719,"1987":6720,"1967":6721,"ava":6722,"avily":6723,"throp":6724,"Ġprocl":6725,"Ġprogress":6726,"abet":6727,"ablo":6728,"aching":6729,"ĠBar":6730,"ĠBozin":6731,"Ġgor":6732,"Ġgives":6733,"Ġgrew":6734,"Ġgatekeep":6735,"Ġra":6736,"Ġrate":6737,"Ġrational":6738,"Ġrates":6739,"Ġleg":6740,"Ġlegal":6741,"Ġletters":6742,"ĠJoy":6743,"ĠJenn":6744,"ĠJones":6745,"ĠJST":6746,"ĠJoseph":6747,"104":6748,"1099":6749,"\":[]":6750,"iring":6751,"plication":6752,"oph":6753,"operation":6754,"ĠDel":6755,"ĠDocument":6756,"ĠDetection":6757,"aint":6758,"ainment":6759,"uma":6760,"ĠWest":6761,"ĠWong":6762,"ĠWarren":6763,"ĠWeekly":6764,"Ġconver":6765,"Ġcongl":6766,"Ġconven":6767,"Ġconferences":6768,"ĠHan":6769,"ĠHas":6770,"ĠHop":6771,"ĠHans":6772,"ĠHere":6773,"ĠHong":6774,"ĠHey":6775,"ĠGates":6776,"ĠGovern":6777,"ĠGovernment":6778,"ĠList":6779,"ĠLarge":6780,"ĠLife":6781,"ĠLibrary":6782,"ĠLovreglio":6783,"ĠArs":6784,"ĠArt":6785,"ĠFive":6786,"ĠFire":6787,"ĠFurther":6788,"ĠFramework":6789,"ĠFrontier":6790,"ĠFosu":6791,"Ġbeyond":6792,"ĠEven":6793,"izational":6794,"CITEREFY":6795,"angley":6796,"Ġanti":6797,"Ġanomaly":6798,"Ġancient":6799,"Ġvan":6800,"andberg":6801,"ova":6802,"ovski":6803,"Ġexam":6804,"Ġexec":6805,"ectors":6806,"igins":6807,"ĠOur":6808,"ĠOEC":6809,"udd":6810,"ude":6811,"udkow":6812,"ports":6813,"Ġtry":6814,"Ġtrend":6815,"Ġtrade":6816,"ifth":6817,"ĠUp":6818,"agh":6819,"agent":6820,"agging":6821,"uctions":6822,"echo":6823,"Ġ1999":6824,"efinit":6825,"iller":6826,"illas":6827,"ĠKim":6828,"ĠKri":6829,"ĠKau":6830,"ĠKatz":6831,"ĠKumar":6832,"111":6833,"Ġ34":6834,"Ġ36":6835,"astructure":6836,"ĠChallenges":6837,"ĠCharles":6838,"ĠChakravartty":6839,"Ġimperial":6840,"ously":6841,"Ġchance":6842,"126":6843,"128":6844,"Ġneigh":6845,"ĠCommission":6846,"encoder":6847,"Ġactive":6848,"Ġactivity":6849,"Ġsystematic":6850,"oche":6851,"ocratic":6852,"Ġagreed":6853,"Ġagreement":6854,"Ġcompute":6855,"Theory":6856,"Ġkeep":6857,"entiable":6858,"Ġunit":6859,"Ġclusters":6860,"Ġcontain":6861,"Ġ59":6862,"182":6863,"ĠYu":6864,"atible":6865,"atization":6866,"ĠAlso":6867,"ĠThrough":6868,"ĠThomas":6869,"137":6870,"147":6871,"ĠUnlike":6872,"ĠUniversal":6873,"Ġcompens":6874,"umann":6875,"Ġdisag":6876,"Ġdiscipl":6877,"Ġdisambiguation":6878,"ustin":6879,"Ġspan":6880,"Ġspons":6881,"Ġspaces":6882,"230":6883,"237":6884,"239":6885,"ĠVision":6886,"ĠVox":6887,"170":6888,"177":6889,"1700":6890,"252":6891,"258":6892,"cribe":6893,"Ġgenerator":6894,"ouncil":6895,"Ġjud":6896,"Ġjoint":6897,"240":6898,"263":6899,"268":6900,"269":6901,"oke":6902,"lobin":6903,"Ġ40":6904,"Ġ43":6905,"Ġenorm":6906,"Ġenabled":6907,"Ġenabl":6908,"Ġrelative":6909,"comput":6910,"discipl":6911,"Ġknows":6912,"880":6913,"Ġsold":6914,"raft":6915,"ĠNewell":6916,"annon":6917,"anned":6918,"Ġroles":6919,"Ġrough":6920,"275":6921,"276":6922,"279":6923,"Ġshare":6924,"ĠProcess":6925,"ĠProgramming":6926,"Ġanalog":6927,"Ġoutper":6928,"Ġoutlier":6929,"Ġtechnological":6930,"Ġauthors":6931,"hesion":6932,"ĠReich":6933,"3390":6934,"Ġrecurrent":6935,"222":6936,"Ġemphas":6937,"Ġ2005":6938,"iero":6939,"uctural":6940,"364":6941,"365":6942,"ĠMarvin":6943,"406":6944,"Ġtextual":6945,"Alan":6946,"Ġindex":6947,"Ġindefinit":6948,"Engl":6949,"Entity":6950,"Ġquot":6951,"Ġquoted":6952,"Ġparamet":6953,"Wikidata":6954,"riter":6955,"ypes":6956,"ĠAng":6957,"Ġheld":6958,"Ġheavily":6959,"Ġjournalistic":6960,"Ġsetting":6961,"Ġ73":6962,"Ġsimply":6963,"Ġsimulate":6964,"State":6965,"Stuart":6966,"review":6967,"384":6968,"294":6969,"iquitous":6970,"Ġrepresentative":6971,"ĠZandberg":6972,"ĠZlobin":6973,"Ġpublication":6974,"Ġregister":6975,"Ġregularly":6976,"ĠMcG":6977,"Ġ175":6978,"ĠConvention":6979,"Ġrecognized":6980,"Ġrecognizing":6981,"rammatical":6982,"ĠForest":6983,"Ġscen":6984,"Ġscruff":6985,"Ġcalling":6986,"Ġlogics":6987,"ĠPrivacy":6988,"ministration":6989,"Ġrealism":6990,"281":6991,"Ġdefend":6992,"674":6993,"ouy":6994,"Ġ156":6995,"inguistic":6996,"sociation":6997,"ĠAgence":6998,"pared":6999,"partiality":7000,"Ġcommunity":7001,"ĠTrust":7002,"Ġextensive":7003,"skiS":7004,"Ġcapabilities":7005,"Ġmarkets":7006,"ĠIndian":7007,"ĠIndustry":7008,"Anomaly":7009,"ĠTechnica":7010,"ĠExpl":7011,"ĠAnderson":7012,"Ġsubscribers":7013,"Ġphotograph":7014,"1972":7015,"Ġinterested":7016,"Ġinteresting":7017,"Ð°ÑĤ":7018,"Conc":7019,"Concepts":7020,"Ġtherefore":7021,"Ġthereby":7022,"Class":7023,"Cluster":7024,"Claude":7025,"arrative":7026,"Ġacts":7027,"ĠMeaning":7028,"istorical":7029,"Ġbehind":7030,"fluence":7031,"Ġpublishing":7032,"\";\".":7033,"phone":7034,"Ġtests":7035,"Ġpartners":7036,"where":7037,"...]":7038,"Ġinfluenced":7039,"Israel":7040,"Ġcircum":7041,"Ġcirculated":7042,"Ġcircuit":7043,"Ġlimits":7044,"Ġautomatic":7045,"Ġoptimal":7046,"668":7047,"Ġcohesion":7048,"Ġinvolved":7049,"ursive":7050,"redible":7051,"Ġtermin":7052,"ĠClark":7053,"ĠEmbedded":7054,"Robotics":7055,"Robotic":7056,"Ġfactor":7057,"Ġfactors":7058,"ĠCenter":7059,"Ġconsumers":7060,"maximization":7061,"Ġowned":7062,"Ġowners":7063,"ambria":7064,"ĠBerlin":7065,"ĠGuide":7066,"Ġperceptr":7067,"Association":7068,"United":7069,"ĠPlant":7070,"ĠPlatform":7071,"Ġgrid":7072,"CITEREFRussell":7073,"ĠTransl":7074,"Ġfocusing":7075,"ceptual":7076,"ĠOrgan":7077,"ĠOrder":7078,"ĠOrganization":7079,"ĠOrigins":7080,"ufficient":7081,"ĠAlexander":7082,"ĠMorgan":7083,"Ġreleased":7084,"Ġ1978":7085,"tegrated":7086,"ĠRegression":7087,"Ġallowed":7088,"Ġresulting":7089,"Ġentertain":7090,"Ġsingularity":7091,"Ġdevi":7092,"Ġdependent":7093,"Ġreferences":7094,"Ġreferred":7095,"Ġsignificance":7096,"CML":7097,"Ġedited":7098,"Ġeditors":7099,"Ġsensational":7100,"Ġsensors":7101,"Ġinstance":7102,"Ġinstances":7103,"Adversarial":7104,"ĠAnaly":7105,"Ġreceive":7106,"Ġassociation":7107,"ĠOnline":7108,"Health":7109,"ederal":7110,"Ġpositive":7111,"Ġintent":7112,"ĠContin":7113,"Ġcombined":7114,"Ġcombination":7115,"ĠEliz":7116,"Ġcollective":7117,"Ġextract":7118,"ĠApproaches":7119,"Journalists":7120,"Recent":7121,"portion":7122,"Ġproperty":7123,"ĠAlgorithmic":7124,"Ġassumptions":7125,"December":7126,"Ġelites":7127,"Ġideas":7128,"ĠAbout":7129,"Ġhapp":7130,"Ġstarted":7131,"Ġeasily":7132,"Ġgrowing":7133,"Ġinvestment":7134,"Ġaffairs":7135,"Ġsyntax":7136,"Ġfacilit":7137,"Ġnovel":7138,"ĠInterpre":7139,"ĠInteraction":7140,"Ġanswering":7141,"Evans":7142,"STA":7143,"setting":7144,"solving":7145,"Ġfront":7146,"Ġreflect":7147,"Ġemployed":7148,"ĠĠĠĠĠĠĠĠĠĠĠĠĠĠĠĠĠĠĠĠĠĠĠĠĠĠĠĠĠĠĠĠĠĠĠĠĠĠĠĠĠĠĠĠĠĠĠĠ":7149,"baum":7150,"Ġsuffer":7151,"Ġfailed":7152,"Ġconditions":7153,"Ġprincipal":7154,"Ġchatbots":7155,"Ġindependent":7156,"Ġstrategies":7157,"hilosophers":7158,"Ġsuperintelligence":7159,"Ġprofessional":7160,"Ġprofessionals":7161,"Latv":7162,"Latent":7163,"Mathematics":7164,"Ã§e":7165,"Ġimplemented":7166,"Ġacceleration":7167,"Ġaccelerated":7168,"Ġmanipulation":7169,"Ġmanipulate":7170,"Ġnumerical":7171,"Ġelectricity":7172,"Ġresponsible":7173,"Ġcorrectly":7174,"Visual":7175,"Webarchive":7176,"pathy":7177,"Ġsymbol":7178,"Ġsymbols":7179,"Ġinitial":7180,"Ġbroadly":7181,"Ġwrong":7182,"Ġlevels":7183,"CITEREFMcC":7184,"Ġcorresponding":7185,"Distributed":7186,"Logic":7187,"Support":7188,"frastructure":7189,"Ġdirections":7190,"ĠMetz":7191,"ĠDiscovery":7192,"ĠOptimization":7193,"Ġkinds":7194,"Explanatory":7195,"Ġassistants":7196,"ĠExperts":7197,"Ġsequence":7198,"Ġsequences":7199,"Ġswarm":7200,"Ġschol":7201,"Ġpolicies":7202,"Ġpsychology":7203,"Ġfilter":7204,"ĠWolff":7205,"Ġdocument":7206,"Arguments":7207,"Ġcomponent":7208,"ĠGoodfellow":7209,"Navigation":7210,"prietary":7211,"Ġensure":7212,"inchilla":7213,"Ġfully":7214,"Ġdestro":7215,"Ġmerch":7216,"ĠSelfridge":7217,"ĠCritics":7218,"ĠWriting":7219,"ĠConstruction":7220,"Ġweapon":7221,"Ġpremises":7222,"Ġsummarization":7223,"Differentiable":7224,"Systems":7225,"atabase":7226,"Ġpatients":7227,"Ġmoral":7228,"Ġgathering":7229,"Ġforecasting":7230,"Ġviolence":7231,"ĠConversation":7232,"Ġterritories":7233,"mediate":7234,"Ġdemonstrated":7235,"driving":7236,"paydin":7237,"rgba":7238,"olynomial":7239,"Ġprotein":7240,"ĠHandbook":7241,"ĠHawking":7242,"Ġchampion":7243,"Ġcompletely":7244,"Ġengineers":7245,"Experim":7246,"ighthill":7247,"áĥĲáĥłáĥ":7248,"ĠMcCulloch":7249,"Kinsey":7250,"Lexical":7251,"MPAS":7252,"TÃ¼rk":7253,"vidia":7254,"¥æľ¬":7255,"æĹ¥æľ¬":7256,"allel":7257,"Ġpiece":7258,"chorman":7259,"Ġcartel":7260,"Ġcoffee":7261,"Ġwelfare":7262,"ĠRussia":7263,"ĠRuggiero":7264,"ĠConduct":7265,"Ġproclam":7266,"ĠBozinovski":7267,"ĠJSTOR":7268,"\":[],\"":7269,"Ġconglomer":7270,"ĠOECD":7271,"udkowsky":7272,"Ġneighbor":7273,"Ġenormous":7274,"Ġenabling":7275,"Ġroughly":7276,"Ġindefinitely":7277,"English":7278,"Ġparameters":7279,"\"}}":7280,"$)":7281,"$,":7282,"$|":7283,"%}}.":7284,"'-":7285,"').":7286,"'),":7287,"');":7288,"'\"\"":7289,"'\"}.":7290,"()":7291,"([^":7292,"(^|":7293,"(?:":7294,"($,":7295,")/":7296,"*\"],\"":7297,"+(":7298,"+'$":7299,"+$|":7300,"+'-":7301,"-\\":7302,"-\\\\":7303,"-]+":7304,".\",\"":7305,"011":7306,"023":7307,"024":7308,"030":7309,"021":7310,"0362":7311,"297":7312,"223":7313,"224":7314,"280":7315,"290":7316,"286":7317,"312":7318,"388":7319,"321":7320,"488":7321,"485":7322,"460":7323,"467":7324,"489":7325,"521":7326,":\":":7327,":\")":7328,";(":7329,";}":7330,";Â":7331,";]+":7332,";});});":7333,"=[\"":7334,"=([^":7335,"?\",":7336,"Ac":7337,"Ag":7338,"Actions":7339,"ACL":7340,"ALL":7341,"Another":7342,"Augment":7343,"Afri":7344,"BE":7345,"Bre":7346,"CV":7347,"Cmw":7348,"Cac":7349,"Cell":7350,"Cym":7351,"Cyber":7352,"Crevier":7353,"Cookie":7354,"Categories":7355,"Catal":7356,"Czech":7357,"Div":7358,"Dir":7359,"Date":7360,"Dans":7361,"Dream":7362,"Digit":7363,"Deut":7364,"Database":7365,"EA":7366,"Each":7367,"Esp":7368,"Eusk":7369,"Fi":7370,"Field":7371,"Five":7372,"Fallback":7373,"FDis":7374,"Federated":7375,"Friendly":7376,"GO":7377,"Gr":7378,"Gal":7379,"Get":7380,"Gale":7381,"GES":7382,"Grammar":7383,"Hu":7384,"Hy":7385,"Hor":7386,"Hom":7387,"Hol":7388,"Host":7389,"Help":7390,"Historical":7391,"Ian":7392,"ITEREF":7393,"James":7394,"Jones":7395,"Load":7396,"Logg":7397,"Links":7398,"Liet":7399,"Length":7400,"Mu":7401,"Mar":7402,"Met":7403,"Mag":7404,"Mode":7405,"Move":7406,"Match":7407,"Michael":7408,"Mackworth":7409,"MES":7410,"Meta":7411,"Multimedia":7412,"NF":7413,"Neder":7414,"OM":7415,"ON":7416,"Oper":7417,"Overs":7418,"PUs":7419,"Psych":7420,"Popups":7421,"Perman":7422,"Portug":7423,"Personal":7424,"Ques":7425,"Rom":7426,"Retrieved":7427,"RLP":7428,"Radio":7429,"RNN":7430,"Runa":7431,"Sens":7432,"Senti":7433,"Science":7434,"Sha":7435,"Select":7436,"Session":7437,"Semi":7438,"Sources":7439,"Semantics":7440,"Slov":7441,"Sfn":7442,"TM":7443,"Tor":7444,"Tom":7445,"Tow":7446,"Talk":7447,"Tiá":7448,"Title":7449,"UK":7450,"UTC":7451,"Vision":7452,"Vector":7453,"When":7454,"Wrap":7455,"Warren":7456,"Walter":7457,"]\"}.":7458,"];});});":7459,"aith":7460,"auc":7461,"ailey":7462,"bit":7463,"big":7464,"bitness":7465,"brah":7466,"biquitous":7467,"cp":7468,"cing":7469,"cit":7470,"cust":7471,"chema":7472,"cisc":7473,"cacher":7474,"campa":7475,"dc":7476,"dom":7477,"deep":7478,"dmy":7479,"dotted":7480,"eor":7481,"eal":7482,"eet":7483,"eace":7484,"eÅ¡":7485,"eReport":7486,"fb":7487,"fi":7488,"fake":7489,"found":7490,"fair":7491,"fakes":7492,"fred":7493,"fmann":7494,"gh":7495,"gÃ":7496,"gence":7497,"gap":7498,"green":7499,"how":7500,"hma":7501,"iK":7502,"ih":7503,"iat":7504,"ients":7505,"iences":7506,"iÐłÑĥÑģ":7507,"jection":7508,"jee":7509,"jQuery":7510,"kol":7511,"kele":7512,"las":7513,"light":7514,"lines":7515,"large":7516,"lhu":7517,"lÃ¢":7518,"mal":7519,"mem":7520,"more":7521,"mology":7522,"moh":7523,"mode":7524,"math":7525,"mobile":7526,"nus":7527,"nodes":7528,"ntz":7529,"o×":7530,"oos":7531,"obotics":7532,"po":7533,"pon":7534,"pel":7535,"pub":7536,"pattern":7537,"point":7538,"png":7539,"popups":7540,"rd":7541,"rad":7542,"riv":7543,"ray":7544,"rated":7545,"rules":7546,"sis":7547,"stic":7548,"same":7549,"sEn":7550,"sworth":7551,"sPar":7552,"sbor":7553,"ters":7554,"tter":7555,"tag":7556,"them":7557,"techn":7558,"tina":7559,"task":7560,"tags":7561,"ui":7562,"uin":7563,"uid":7564,"utive":7565,"utime":7566,"war":7567,"work":7568,"wire":7569,"wns":7570,"wood":7571,"wmf":7572,"yes":7573,"yth":7574,"zd":7575,"zi":7576,"zen":7577,"zanp":7578,"})":7579,"};":7580,"}];});});":7581,"¡áĥ":7582,"¢×":7583,"£Ðº":7584,"¤à®":7585,"¥áĥĲáĥłáĥ":7586,"¨ÙĬ":7587,"¨×Ļ×":7588,"©å":7589,"ªs":7590,"¬Esp":7591,"®à¤°":7592,"¯į":7593,"¯ÛĮ":7594,"²µ":7595,"²Ð°ÑĤ":7596,"³į":7597,"³ÛĮ":7598,"´Õ":7599,"µŃ":7600,"·Î":7601,"¸Ń":7602,"¹Î":7603,"¹Ħ":7604,"¹Ø±Ø":7605,"º¿":7606,"ºÎ":7607,"»ĩ":7608,"¼à¬":7609,"½Î":7610,"Â®":7611,"Ã²":7612,"Äĥ":7613,"ÉĻ":7614,"Îķ":7615,"Î»Î":7616,"Ð£Ðº":7617,"Ñħ":7618,"ÑĬ":7619,"×¨×Ļ×":7620,"Ùģ":7621,"Úļ":7622,"Ûĩ":7623,"à¶":7624,"à¯į":7625,"à³į":7626,"à¹Ħ":7627,"ä¸Ń":7628,"ç²µ":7629,"éĸ":7630,"êµŃ":7631,"ìĸ":7632,"íķ":7633,"ĉĠĊ":7634,"Ġq":7635,"Ġx":7636,"Ġer":7637,"Ġir":7638,"Ġep":7639,"Ġ90":7640,"ĠÑģ":7641,"Ġelection":7642,"Ġ-->":7643,"Ġ]\"}.":7644,"ĢÕ¡ÕµÕ¥":7645,"įĹ":7646,"įsl":7647,"ĳ×¨×Ļ×":7648,"ĵà¬":7649,"ķà²¨":7650,"Ĺáĥ":7651,"ĹÐ½":7652,"Ĺà¸":7653,"ľêµŃ":7654,"iner":7655,"inen":7656,"inent":7657,"inod":7658,"inations":7659,"initions":7660,"eron":7661,"erem":7662,"erFunction":7663,"erjee":7664,"Ġten":7665,"Ġtended":7666,"Ġtries":7667,"Ġtagging":7668,"onth":7669,"Ġast":7670,"Ġage":7671,"Ġabo":7672,"tition":7673,"orf":7674,"oria":7675,"origin":7676,"organ":7677,"orrow":7678,"orEm":7679,"enst":7680,"enwiki":7681,"enska":7682,"enhancements":7683,"enbaum":7684,"aron":7685,"arti":7686,"ares":7687,"arwin":7688,"arayan":7689,"hev":7690,"hest":7691,"hetical":7692,"heading":7693,"heckUser":7694,"edy":7695,"ediam":7696,"esize":7697,"ancies":7698,"anerjee":7699,"isms":7700,"isher":7701,"isource":7702,"isinformation":7703,"Ġthems":7704,"ingUp":7705,"ingprofile":7706,"reme":7707,"Ġshe":7708,"Ġsus":7709,"Ġsend":7710,"Ġsoft":7711,"Ġsuperv":7712,"Ġslow":7713,"Ġsemi":7714,"Ġsparse":7715,"Ġsrp":7716,"ats":7717,"atar":7718,"206":7719,"209":7720,"lection":7721,"Ġpig":7722,"Ġpun":7723,"Ġpick":7724,"Ġpath":7725,"Ġportal":7726,"Ġpolynomial":7727,"itan":7728,"itext":7729,"itors":7730,"cher":7731,"room":7732,"Ġcens":7733,"Ġcou":7734,"Ġcounter":7735,"Ġcookie":7736,"Ġcriter":7737,"Ġinform":7738,"Ġinduc":7739,"Ġincomplete":7740,"icard":7741,"icons":7742,"icense":7743,"Ġ(\";":7744,"elist":7745,"elves":7746,"elPubl":7747,"ĠAustr":7748,"Ġface":7749,"Ġfaster":7750,"Ġfrequ":7751,"Ġfederal":7752,"Ġden":7753,"Ġdig":7754,"Ġdang":7755,"Ġdict":7756,"Ġdraw":7757,"Ġdoll":7758,"Ġdimensionality":7759,"Ġdotted":7760,"Ġmar":7761,"Ġmut":7762,"Ġmist":7763,"Ġmiti":7764,"Ġmicro":7765,"Ġmiddle":7766,"Ġmagazine":7767,"Ġmultimodal":7768,"Ġmagazines":7769,"Ġmoment":7770,"enty":7771,"entin":7772,"ented":7773,"Ġbar":7774,"Ġbir":7775,"Ġbreaking":7776,"Ġwon":7777,"Ġwor":7778,"igal":7779,"igure":7780,"igious":7781,"omed":7782,"ommend":7783,"Ġnav":7784,"Ġnations":7785,"Ġnorm":7786,"Ġnever":7787,"etect":7788,"ema":7789,"emer":7790,"emble":7791,"emming":7792,"emId":7793,"Ġ129":7794,"Ġtoward":7795,"Ġtotal":7796,"Ġtowns":7797,"uran":7798,"urism":7799,"urance":7800,"urRev":7801,"used":7802,"using":7803,"olf":7804,"oly":7805,"olbar":7806,"olEs":7807,"putEnabled":7808,"ĠSo":7809,"ĠSy":7810,"ĠSing":7811,"ĠSus":7812,"ĠSex":7813,"ĠSun":7814,"ĠSue":7815,"ĠSpeech":7816,"ĠSelection":7817,"ĠSemantic":7818,"ĠSecurity":7819,"ĠSlov":7820,"ĠSingh":7821,"ceptr":7822,"ewhat":7823,"aming":7824,"amental":7825,"amela":7826,"ĠMA":7827,"ĠMad":7828,"ĠMod":7829,"ĠMich":7830,"ĠMore":7831,"ĠMile":7832,"ĠMatt":7833,"ĠMathema":7834,"ĠMeta":7835,"ĠMusk":7836,"ĠMÃ¼ller":7837,"ĠMyers":7838,"ectively":7839,"idura":7840,"outer":7841,"ĠTe":7842,"ĠTan":7843,"ĠTang":7844,"ĠTurk":7845,"ĠTaylor":7846,"ĠĠĠĠĊ":7847,"ĠĠĠĠĠĠĊ":7848,"ĠRed":7849,"ĠRem":7850,"ĠRaj":7851,"ĠRedd":7852,"ĠRFR":7853,"ĠRoche":7854,"arson":7855,"arsons":7856,"ĠChe":7857,"ĠCare":7858,"ĠCons":7859,"ĠCyn":7860,"ĠCurr":7861,"ĠCran":7862,"ĠCade":7863,"ĠCybernetics":7864,"ĠCouncil":7865,"ĠCITEREF":7866,"ĠII":7867,"ĠIQ":7868,"ĠIss":7869,"ĠIlya":7870,"166":7871,"169":7872,"ila":7873,"ilm":7874,"Ġlight":7875,"Ġlost":7876,"Ġlibrary":7877,"Ġlittle":7878,"ĠNvidia":7879,"state":7880,"static":7881,"evisionId":7882,"mwclientpref":7883,"Ġrev":7884,"Ġreform":7885,"Ġrepe":7886,"Ġrepro":7887,"Ġrepor":7888,"img":7889,"imov":7890,"impro":7891,"imize":7892,"imination":7893,"imager":7894,"imediam":7895,"ulates":7896,"ultiv":7897,"istem":7898,"istant":7899,"Ġhar":7900,"Ġhom":7901,"Ġhtt":7902,"Ġhalf":7903,"adox":7904,"additional":7905,"ivic":7906,"ivef":7907,"export":7908,"ĠPre":7909,"ĠPri":7910,"ĠPos":7911,"ĠPDF":7912,"ĠPaper":7913,"ĠPedro":7914,"ĠPamela":7915,"ĠParsons":7916,"acial":7917,"essages":7918,"Ġongo":7919,"riy":7920,"odd":7921,"otos":7922,"194":7923,"1940":7924,"1985":7925,"1959":7926,"1981":7927,"lyn":7928,"ells":7929,"available":7930,"thia":7931,"thical":7932,"ogy":7933,"ogpub":7934,"abis":7935,"abeth":7936,"abbr":7937,"aycan":7938,"Ġ[...]":7939,"ĠBur":7940,"ĠBerg":7941,"ĠBÃ¢n":7942,"ĠBishop":7943,"Ġgen":7944,"Ġgain":7945,"ĠJun":7946,"ĠJeff":7947,"1000":7948,"Ġforest":7949,"irror":7950,"plo":7951,"pled":7952,"plicated":7953,"appearance":7954,"opy":7955,"ĠDevelop":7956,"ĠDigital":7957,"ĠDomin":7958,"ĠDangers":7959,"ĠDALL":7960,"ainable":7961,"ainato":7962,"umper":7963,"Ġnewsletters":7964,"Ġnewsrooms":7965,"ĠInste":7966,"ĠInnovation":7967,"\",\"@":7968,"ĠWin":7969,"ĠWil":7970,"ĠWide":7971,"ĠWalter":7972,"forward":7973,"forEach":7974,"ageSuggestedEdit":7975,"Ġconf":7976,"Ġconfl":7977,"Ġconvention":7978,"Ġcomm":7979,"Ġcommit":7980,"Ġcommons":7981,"Ġcomplicated":7982,"ĠHo":7983,"ĠHass":7984,"ĠHern":7985,"ĠHard":7986,"ĠHart":7987,"ĠHorn":7988,"ĠHouse":7989,"ĠGar":7990,"ĠGiven":7991,"ĠGiff":7992,"ĠGatekeep":7993,"ĠGemini":7994,"ĠLu":7995,"ĠLamp":7996,"ĠLak":7997,"ĠLong":7998,"ĠLocal":7999,"ĠLicense":8000,"ĠArg":8001,"bootstrap":8002,"ialog":8003,"ĠFl":8004,"ĠFang":8005,"ĠFord":8006,"ĠFast":8007,"ĠFunction":8008,"ĠFusion":8009,"ĠForeign":8010,"Ġbeat":8011,"Ġbeings":8012,"ĠEf":8013,"ĠEnd":8014,"ĠEtt":8015,"ĠEhud":8016,"ĠEstate":8017,"izenbaum":8018,"Ġaltern":8019,"Ġalternative":8020,"Ġalloc":8021,"ctors":8022,"CITEREFI":8023,"CITEREFEd":8024,"CITEREFTh":8025,"CITEREFNilsson":8026,"anging":8027,"Ġvar":8028,"Ġvectors":8029,"Ġstore":8030,"Ġstream":8031,"Ġstaff":8032,"ampton":8033,"epageSuggestedEdit":8034,"20250":8035,"ika":8036,"Ġ255":8037,"ĠĠĠĠĠĠĠĠĠĠĠ":8038,"undro":8039,"Ġexcerpt":8040,"boxtext":8041,"earable":8042,"ecture":8043,"quick":8044,"quotes":8045,"Ġiter":8046,"format":8047,"seen":8048,"loading":8049,"loader":8050,"anta":8051,"anto":8052,"anted":8053,"antFallback":8054,"aken":8055,"Ġtradem":8056,"ordon":8057,"ordance":8058,"claim":8059,"acks":8060,"ackend":8061,"ughey":8062,"ests":8063,"estamp":8064,"estId":8065,"ĠURL":8066,"aging":8067,"ague":8068,"aghi":8069,"ucination":8070,"0099":8071,"atedly":8072,"Ġ1991":8073,"Ġ1988":8074,"Ġ1949":8075,"Ġ1996":8076,"Ġ1956":8077,"navigation":8078,"ĠSteven":8079,"blems":8080,"ereira":8081,"skohr":8082,"cessor":8083,"ystery":8084,"Ġdoor":8085,"Ġdouble":8086,"\":\"\",\"":8087,"ologin":8088,"ologist":8089,"ĠKnow":8090,"ĠKurzweil":8091,"solete":8092,"Ġ37":8093,"Ġ329":8094,"ableTopics":8095,"Ġprices":8096,"asters":8097,"astava":8098,"ĠChen":8099,"ĠChange":8100,"ĠChicago":8101,"peranto":8102,"Ġimm":8103,"protected":8104,"Ġcharge":8105,"Ġchalleng":8106,"Ġchallenge":8107,"wgEdit":8108,"wgCite":8109,"wgFl":8110,"wgNotice":8111,"wgVis":8112,"wgWikibase":8113,"wgArticleId":8114,"wgDefault":8115,"wgNamespace":8116,"wgAction":8117,"wgRequ":8118,"wgSepar":8119,"wgDigit":8120,"wgGES":8121,"wgHost":8122,"wgPopups":8123,"wgTitle":8124,"wgVector":8125,"ips":8126,"1297":8127,"tools":8128,"toolti":8129,"tokens":8130,"toolbar":8131,"igned":8132,"ensivef":8133,"Ġresol":8134,"Ġresource":8135,"ĠCommercial":8136,"encing":8137,"tructured":8138,"herlands":8139,"151":8140,"155":8141,"157":8142,"ledged":8143,"areAl":8144,"These":8145,"Ġkill":8146,"Ġkernel":8147,"entist":8148,"entists":8149,"Ġunivers":8150,"Ġunlab":8151,"Ġunseen":8152,"Ġclar":8153,"Ġclose":8154,"Ġclients":8155,"Ġcontains":8156,"Ġcontrovers":8157,"InHe":8158,"Influence":8159,"Integrated":8160,"InputEnabled":8161,"notation":8162,"ethics":8163,"oberts":8164,"Ġ50":8165,"Ġ51":8166,"Ġ55":8167,"Ġ57":8168,"amezanp":8169,"ientcontent":8170,"ientHints":8171,"186":8172,"189":8173,"ĠYan":8174,"ĠYour":8175,"ĠYann":8176,"ĠAlthough":8177,"ĠAltman":8178,"Ġnotes":8179,"timingprofile":8180,"timestamp":8181,"yses":8182,"ĠThus":8183,"ĠThree":8184,"138":8185,"141":8186,"149":8187,"index":8188,"Ġcomplete":8189,"Ġcomparis":8190,"Ġdisplay":8191,"ustainable":8192,"Ġsphere":8193,"233":8194,"ĠVen":8195,"ĠViá":8196,"171":8197,"176":8198,"pty":8199,"ptoms":8200,"Ġabstr":8201,"257":8202,"iann":8203,"afe":8204,"Ġgenerated":8205,"Ġgenerating":8206,"iotics":8207,"Ġjus":8208,"vert":8209,"243":8210,"245":8211,"247":8212,"265":8213,"267":8214,"Ġaddress":8215,"Ġadjust":8216,"teenth":8217,"Ġ44":8218,"Ġenem":8219,"Ġentity":8220,"Ġrelies":8221,"Ġreliable":8222,"eats":8223,"comp":8224,"combe":8225,"actLinks":8226,"Ġconsiders":8227,"Ġdesired":8228,"Ġdescribe":8229,"readth":8230,"{\"@":8231,"Ġplan":8232,"Ġplural":8233,"Ġplaced":8234,"Ġdecre":8235,"raeg":8236,"wikitext":8237,"wikimediam":8238,"anna":8239,"anner":8240,"playWikibase":8241,"Ġroots":8242,"arios":8243,"270":8244,"271":8245,"273":8246,"274":8247,"277":8248,"Ġinterconn":8249,"ĠProject":8250,"ckman":8251,"tenance":8252,"clientHints":8253,"Ġanalyses":8254,"ohan":8255,"Ġoutside":8256,"Ġoutcome":8257,"Ġoutlets":8258,"ĠinformationCite":8259,"merce":8260,"ducational":8261,"908":8262,"Ġclassical":8263,"ĠclassName":8264,"Ġsubstan":8265,"ertzel":8266,"Ġ62":8267,"Ġmethodology":8268,"Ġreconstr":8269,"Ġemp":8270,"Ġemulate":8271,"Ġembedded":8272,"305":8273,"307":8274,"}}},\"":8275,"}}});});":8276,"Ġdiffer":8277,"Ġdifference":8278,"Ġdiffusion":8279,"oldid":8280,"Excerpt":8281,"inker":8282,"ierahn":8283,"ucted":8284,"360":8285,"ĠMarco":8286,"contain":8287,"typ":8288,"tymology":8289,"Algorithms":8290,"ynam":8291,"Ġparts":8292,"Wikisource":8293,"arguments":8294,"observ":8295,"ritzel":8296,"rick":8297,"ressional":8298,"stronomy":8299,"neutral":8300,"Ġheuristic":8301,"Ġaccordance":8302,"Ġnotions":8303,"ularization":8304,"unctioncount":8305,"ĠComputation":8306,"ĠComputers":8307,"Real":8308,"Rejection":8309,"ieÅ¡":8310,"Stanford":8311,"389":8312,"Ġsocieties":8313,"296":8314,"299":8315,"Ġrepresenting":8316,"aze":8317,"ĠZadeh":8318,"Ġregulation":8319,"ĠMcKinsey":8320,"Ġpredicates":8321,"Ġpredicting":8322,"ĠeventsRandom":8323,"Projects":8324,"Progress":8325,"Proprietary":8326,"ttl":8327,"Ġexpert":8328,"\"];":8329,"\"]},\"":8330,"à¤¦":8331,"à¤¹":8332,"à¤¿":8333,"à¤ł":8334,"à¤Ń":8335,"à¤®à¤°":8336,"rolToken":8337,"ĠConnect":8338,"Ġexpand":8339,"Ġexpansion":8340,"Ġexpiry":8341,"Ġspecified":8342,"Ġ103":8343,"Ġ108":8344,"Ġyet":8345,"Ġyour":8346,"Ġyear":8347,"ĠYorker":8348,"596":8349,"csrf":8350,"Ġscope":8351,"ĠAsia":8352,"Ġlogged":8353,"EditAtt":8354,"Ġ81":8355,"Ġ98":8356,"Ġrealized":8357,"284":8358,"Ġambig":8359,"Ġvariable":8360,"Ġdiscovering":8361,"hilosopher":8362,"ouis":8363,"span":8364,"verse":8365,"394":8366,"396":8367,"Ġground":8368,"brands":8369,"ÐºÐ°":8370,"Ġgeneralization":8371,"ĠAgenda":8372,"Ġworkshop":8373,"379":8374,"Contribut":8375,"ahd":8376,"ahl":8377,"parameter":8378,"Ġorganized":8379,"Ġcommunities":8380,"ccf":8381,"ÑģÑĮ":8382,"ĠTrends":8383,"Ġextinction":8384,"ĠarticleAbout":8385,"skiPortug":8386,"995":8387,"Ġcapac":8388,"Ġmarked":8389,"others":8390,"Ġassign":8391,"liest":8392,"mainEntity":8393,"reset":8394,"ĠIndex":8395,"ĠIndones":8396,"Anim":8397,"mitBut":8398,"Ġtypical":8399,"Ġprepared":8400,"ĠTechnological":8401,"ĠTechniques":8402,"italic":8403,"ĠNeed":8404,"ĠNeiger":8405,"issinger":8406,"ĠApple":8407,"Quantum":8408,"Ġoperate":8409,"Ġoperates":8410,"uggle":8411,"Api":8412,"Application":8413,"PageIs":8414,"PageLength":8415,"positional":8416,"Ġseems":8417,"Ġdeal":8418,"Ġdece":8419,"Ġdead":8420,"ĠSchuster":8421,"Ġlabeling":8422,"1976":8423,"1977":8424,"schema":8425,"Ð°ÑĹÐ½":8426,"Ġeffectively":8427,"Constr":8428,"Convolutional":8429,"Ġearliest":8430,"Ġsuppl":8431,"Ġsupply":8432,"Ġcoreference":8433,"ĠSystematic":8434,"Ġlocations":8435,"Ġreturn":8436,"CITEREFSch":8437,"Ġprinted":8438,"Ġspecifically":8439,"Click":8440,"ClientHints":8441,"pageVari":8442,"inner":8443,"Ġseeking":8444,"Christop":8445,"LanguageSelect":8446,"LanguageInHe":8447,"Ġactual":8448,"visi":8449,"Ġpublishers":8450,"ShareAl":8451,"ennachin":8452,"reakFr":8453,"Ġpresses":8454,"hui":8455,"php":8456,"phones":8457,"utionsTalk":8458,"Ġtesting":8459,"Ġmaintenance":8460,":\"[":8461,":\"\\\"\"\"":8462,"RLCO":8463,"RLHF":8464,"RLSTA":8465,"TextInputEnabled":8466,"which":8467,"à¦¬":8468,"à¦²":8469,"à¦Ĥ":8470,"ooleMackworth":8471,"ÑģÐºÐ¾":8472,"Ġsurv":8473,"Ġinfluences":8474,"ĠAdap":8475,"ĠAdministration":8476,"\":[\"*\"],\"":8477,"Ġvalley":8478,"Ġclassified":8479,"Isi":8480,"CITEREFBro":8481,"Ġautomatically":8482,"tonLab":8483,"Ġcoord":8484,"Ġcoined":8485,"ashaghi":8486,"urlShort":8487,"ĠIsland":8488,"wikimediaEv":8489,"wikimediaBad":8490,"Neuromorphic":8491,"aiwan":8492,"check":8493,"checkUser":8494,"à¥ģ":8495,"à¥į":8496,"interest":8497,"interface":8498,"Ġtermed":8499,"Ġsites":8500,"Ġbuilding":8501,"ĠClinical":8502,"Ġviewers":8503,"Ġindividuals":8504,"ĠWikipediaContact":8505,"Ġeconomy":8506,"Robots":8507,"Ġbring":8508,"ĠCenters":8509,"Ġhighly":8510,"Ġhighlight":8511,"Impro":8512,"zeer":8513,"Ġminds":8514,"ĠSimiÐłÑĥÑģ":8515,"Ġimproved":8516,"Ġresponding":8517,"Ġperceive":8518,"ĠdescriptionShort":8519,"Unstrip":8520,"Uncanny":8521,"architect":8522,"levels":8523,"Ġbusinesses":8524,"ĠPlot":8525,"Ġgrad":8526,"Predic":8527,"config":8528,"});}":8529,"atorTransformTable":8530,"ĠAmong":8531,"Ġfairly":8532,"ĠWeizenbaum":8533,"CITEREFGold":8534,"CITEREFGood":8535,"wgRevisionId":8536,"Ġestablish":8537,"ViewLanguage":8538,"Ġposted":8539,"Ġprevent":8540,"Ġcrier":8541,"Ġcritical":8542,"ĠAlexand":8543,"Ġreleases":8544,"ĠEdwards":8545,"Ġexisting":8546,"Ġ1979":8547,"Ġcontinent":8548,"Ġcontinuing":8549,"Ġattempts":8550,"Ġadvent":8551,"Ġplayer":8552,"Ġshortened":8553,"ĠRegExp":8554,"OnClick":8555,"switch":8556,"Ġserious":8557,"ĠCreate":8558,"ĠCreative":8559,"ĠImp":8560,"ÑĢÐ°ÑĹÐ½":8561,"Ġentails":8562,"Ġincredible":8563,"Ġintelligently":8564,"Ġfinds":8565,"Ġconstraints":8566,"Ġanalytics":8567,"Ġobservation":8568,"GEHom":8569,"Sociology":8570,"googpub":8571,"à¬Ĩ":8572,"à¬¼à¬":8573,"à¬ĵà¬":8574,"ĠeditCommunity":8575,"emptStep":8576,"expansion":8577,"expensivef":8578,"wgCategories":8579,"wgCheckUser":8580,"wgCurRev":8581,"wgPageName":8582,"wgPagePars":8583,"wgPageViewLanguage":8584,"Ġtransformers":8585,"EnabledFor":8586,"EnabledBy":8587,"Add":8588,"Italian":8589,"ItemId":8590,"Ð¾Ð»":8591,"Ø§Ø":8592,"ĠQR":8593,"ĠPhD":8594,"ĠPhysical":8595,"ĠStruggle":8596,"timeusage":8597,"Automatic":8598,"ÑģÐºÐ¸Ð¹":8599,".)&#":8600,"Headers":8601,"Models":8602,"Parallel":8603,"Toolti":8604,"kins":8605,"noscript":8606,"Ð»Ð³":8607,"Ġtendency":8608,"Ġdriven":8609,"Ġdriving":8610,"ĠRoberts":8611,"Ġlinked":8612,"ĠlinkPage":8613,"ungar":8614,"ĠWoodhead":8615,"Ġexchang":8616,"Ġpractical":8617,"FranÃ§":8618,"Journals":8619,"Recurrent":8620,"Recursive":8621,"targetLoad":8622,"Ġsmaller":8623,"Ġcopies":8624,"Ġdemand":8625,"transientcontent":8626,"Interpre":8627,"Ġdominant":8628,"Ø±Ø¯ÛĮ":8629,"ĠAfrican":8630,"à®´":8631,"à®¿":8632,"à®¤à®":8633,"à²¡áĥ":8634,"à²ķà²¨":8635,"Ġelab":8636,"Ġelimin":8637,"entityaccess":8638,"Ġsuggests":8639,"Ġpopulation":8640,"Ġinsufficient":8641,"ĠBrooks":8642,"sequently":8643,"Ġclosed":8644,"Ġeasier":8645,"AllExp":8646,"Ġinvested":8647,"Ġinvesting":8648,"Ġsignificantly":8649,"DATE":8650,"Physics":8651,"getAllExp":8652,"linson":8653,"means":8654,"Ġaffect":8655,"reedom":8656,"ĠpageContents":8657,"ĠpageGet":8658,"Ġintegrated":8659,"Ġfacial":8660,"adigms":8661,"Ġgreatly":8662,"Ġanswer":8663,"Ġemerging":8664,"Ġdiscussion":8665,"Ð°ÑĢÑģÐºÐ¸":8666,"Ġmaintain":8667,"Ġdataset":8668,"ParserFunction":8669,"module":8670,"solid":8671,"ÐĳÑĬ":8672,"Ġ)'+":8673,"includesize":8674,"Ġwarfare":8675,"ĠCanada":8676,"ĠWorkshop":8677,"Ġpresence":8678,"CompactLinks":8679,"Ġemployment":8680,"Ġstronger":8681,"Ġdatabase":8682,"Ġsuccessfully":8683,"ÑĢÐ²Ð°ÑĤ":8684,"41586":8685,"Center":8686,"Century":8687,"Flags":8688,"decimal":8689,"dateMod":8690,"datePublished":8691,"documentEle":8692,"iewsActive":8693,"kaans":8694,"ocher":8695,"ochastic":8696,"ĠÂ·":8697,"Ġsentience":8698,"Ġselected":8699,"eventeenth":8700,"eventlogging":8701,"eventLogg":8702,"ĠHills":8703,"andedArguments":8704,"Ġchatbot":8705,"Ġadvances":8706,"haoLovreglio":8707,"Transformer":8708,"Ġannounces":8709,"Ġannounced":8710,"Disclaim":8711,"JsApi":8712,"gypt":8713,"journalism":8714,"menu":8715,"uously":8716,"ÙĪØ±Ø¯ÛĮ":8717,"à°¤":8718,"à°²":8719,"à°Ĺ":8720,"à±Ĩ":8721,"Ġfirm":8722,"Ġminimize":8723,"Ġboundary":8724,"ĠMatthe":8725,"ĠMohamm":8726,"ĠBenj":8727,"CITEREFPooleMackworth":8728,"Ġimplementation":8729,"wgIsArticle":8730,"wgIsProbablyEditable":8731,"wgIsRedirect":8732,"wgULSPos":8733,"Ġeveryday":8734,"Ġequal":8735,"Ġinterpretation":8736,"Ġnumerous":8737,"ArticleTalk":8738,"Ã¼rgen":8739,"wgRelevantPageName":8740,"wgRelevantArticleId":8741,"wgRelevantPageIs":8742,"centralautologin":8743,"\":\"+\\\\\"});":8744,"Norvig":8745,"RevsPar":8746,"patrolToken":8747,"âµľ":8748,"Ġ|$)":8749,"Ġteams":8750,"headline":8751,"Ġmessage":8752,"Ġmessengers":8753,"Ġgraphics":8754,"Ġrecords":8755,"Ġestimated":8756,"Ġproducts":8757,"Gaussian":8758,"Gaughey":8759,"Superintelligence":8760,"William":8761,"uviÅ":8762,"variance":8763,"inyals":8764,"onseTime":8765,"araÙģ":8766,"return":8767,"require":8768,"Ġcrossbar":8769,"Ġdirection":8770,"ĠSean":8771,"ĠSolomonoff":8772,"ĠManagement":8773,"ĠCOMPAS":8774,"ĠNetherlands":8775,"ĠhereRelated":8776,"ĠDifferent":8777,"ĠObserv":8778,"ĠKarpathy":8779,"Newspaper":8780,"Ġexpressed":8781,"à¦¾à¦Ĥ":8782,"ĠCollective":8783,"Ġcopyrighted":8784,"Planning":8785,"SubmitBut":8786,"ddf":8787,"rbaycan":8788,"Ġignored":8789,"Ġencour":8790,"Ġaims":8791,"Ġschool":8792,"Ġintract":8793,"Ġdivided":8794,"Ġdiagnosis":8795,"ĠSupport":8796,"ĠTimeline":8797,"otojournalism":8798,"platformVersion":8799,"Ġcommentators":8800,"Ġstandard":8801,"Ġdocuments":8802,"Argument":8803,"Ġcomponents":8804,"Ġconsistently":8805,"Ġregulatory":8806,"Ġregarding":8807,"Ġdeployed":8808,"Ġdeployment":8809,"ĠClassification":8810,"Ø§Ø±Ø³ÛĮ":8811,"TopicsMatch":8812,"Ġutility":8813,"\"};":8814,"('%":8815,"('(^|":8816,"(/-":8817,"(/(?:":8818,",'')":8819,"4331":8820,"Analy":8821,"GPUs":8822,"ISBN":8823,"MEPageLength":8824,"Object":8825,"SpecialPageName":8826,"VersionList":8827,"[^\\":8828,"^|;":8829,"called":8830,"callParserFunction":8831,"nearest":8832,"nearby":8833,"rpskohr":8834,"watchlist":8835,"watchToken":8836,"»Î·Î":8837,"ÄĮeÅ¡":8838,"Ð³Ð¾Ð»":8839,"Ú©ÙĪØ±Ø¯ÛĮ":8840,"à¸Ĺà¸":8841,"Ġsmart":8842,"Ġpossibility":8843,"ĠSciences":8844,"\\\"\"\"'\"\"":8845,"ĠNicolas":8846,"startUp":8847,"Ġhousehold":8848,"ĠPalgrave":8849,"ĠParty":8850,"Ġgovernance":8851,"ĠDonald":8852,"Ġconsequence":8853,"Ġcompetition":8854,"ĠKenneth":8855,"wgBackend":8856,"wgBreakFr":8857,"wgMFDis":8858,"wgMonth":8859,"wgWMES":8860,"wgWMEPageLength":8861,"wgUserName":8862,"wgUserGro":8863,"wgGELevel":8864,"wgGETopicsMatch":8865,"Ġopposed":8866,"Algorithmic":8867,"Enterprise":8868,"Contribute":8869,"ContributionsTalk":8870,"Ġcollected":8871,"fullVersionList":8872,"pageLanguageCode":8873,"pageLanguageDir":8874,"Ġparticipants":8875,"ReferencePrev":8876,"ReferenceToolti":8877,"ImageObject":8878,"Printable":8879,"expandincludesize":8880,"wgPageContentLanguage":8881,"wgPageContentModel":8882,"à²¨à²¡áĥ":8883,"ÑĢÐ¿ÑģÐºÐ¸":8884,"ÑĢÐ¿ÑģÐºÐ¾":8885,"Ã¢nÄĥ":8886,"Ġsufficiently":8887,"wgULSisLanguageSelect":8888,"wgULSisCompactLinks":8889,"SuggestedEditSession":8890,"wgMediaViewerOnClick":8891,"wgMediaViewerEnabledBy":8892,"wgRestrictionEdit":8893,"wgRestrictionMove":8894,"wgCanonicalNamespace":8895,"wgCanonicalSpecialPageName":8896,"Attention":8897,"AzÉĻ":8898,"Graphics":8899,"defined":8900,"publisher":8901,"selflink":8902,"templatearguments":8903,"uÃªs":8904,"validation":8905,"ÐľÐ¾Ð½":8906,"ØªÙĪ":8907,"Ù¾Úļ":8908,"remely":8909,"Ġskep":8910,"Ġinherently":8911,"ĠAttribution":8912,"Ġfavor":8913,"Ġmissing":8914,"Ġbenefits":8915,"ometry":8916,"ĠCourville":8917,"Ġreveal":8918,"Ġrecently":8919,"ĠPhilip":8920,"avenport":8921,"ĠBernard":8922,"ĠJonathan":8923,"Ġnewsworthiness":8924,"ĠGroup":8925,"Ġtraditional":8926,"Ġprimary":8927,"ĠChomskyan":8928,"griculture":8929,"Ġacquisition":8930,"Ġdiseases":8931,"2592000":8932,"Ġshift":8933,"Ġobtaining":8934,"ReasonTextInputEnabled":8935,"Ġcapture":8936,"ĠSilverblatt":8937,"Create":8938,"European":8939,"Overfitting":8940,"Syntactic":8941,"Timing":8942,"augeland":8943,"justify":8944,"mmv":8945,"ppvisited":8946,"Õ¶à¤¹":8947,"enzlhu":8948,"Ġsymptoms":8949,"Ġchemistry":8950,"Ġcustomer":8951,"icensing":8952,"Ġbenchmark":8953,"emporary":8954,"ĠIraq":8955,"Ġlooking":8956,"status":8957,"Ġrapidly":8958,"ĠJobs":8959,"ĠFunding":8960,"aggedRevsPar":8961,"ĠProfessionalism":8962,"Ġopportunity":8963,"Ġemotions":8964,"ĠMarcus":8965,"Ġcolonial":8966,"Ġmanifold":8967,"Ġconnections":8968,"ĠStrategies":8969,"aÃ±olEs":8970,"Ġbelieve":8971,"ÖĢÕ¥Õ¶à¤¹":8972,"growthExperim":8973,"MODUL":8974,"Ø§ÙĦØ¹Ø±Ø":8975,"AGEMODUL":8976,"Descriptions":8977,"Developers":8978,"Format":8979,"PolskiPortug":8980,"ResponseTime":8981,"Suomi":8982,"TaskRejection":8983,"codex":8984,"doors":8985,"postexpandincludesize":8986,"split":8987,"total":8988,"walltime":8989,"yakh":8990,"£áĥļáĥ":8991,"Ð¡ÑĢÐ¿ÑģÐºÐ¸":8992,"æĸĩ":8993,"increment":8994,"utherAI":8995,"Ġdiplomatic":8996,"ĠSeries":8997,"ĠTypically":8998,"ĠTensorFlow":8999,"ĠRodney":9000,"Ġlaunched":9001,"geoIP":9002,"abloid":9003,"Ġraised":9004,"ĠJennifer":9005,"Ġconvenient":9006,"ĠHopfield":9007,"ĠHeyd":9008,"ĠKaufmann":9009,"Ġsponsorship":9010,"disciplinary":9011,"Ġregistered":9012,"ĠMcGraw":9013,"Ġscenarios":9014,"skiSrpskohr":9015,"Clustering":9016,"CITEREFRussellNorvig":9017,"ĠElizabeth":9018,"Ġhappens":9019,"ĠInterpretable":9020,"LatvieÅ¡":9021,"Ã§eÐ£Ðº":9022,"CITEREFMcCarthy":9023,"æĹ¥æľ¬èªŀ":9024,"Ġproclamations":9025,"\"}},\"":9026,"'),'$":9027,"');});}":9028,"());":9029,")/);":9030,"+$|[^\\":9031,"-]+/":9032,":\")\";":9033,";}());":9034,";Â·":9035,";]+)/);":9036,"=([^;]+)/);":9037,"Afrikaans":9038,"Cymraeg":9039,"CatalÃł":9040,"DateFormat":9041,"Dansk":9042,"Deutsch":9043,"EuskaraÙģ":9044,"Galego":9045,"HelpLearn":9046,"LietuviÅ":9047,"ModeEnabled":9048,"Nederlands":9049,"Oversample":9050,"Permanent":9051,"Question":9052,"RomÃ¢nÄĥ":9053,"RLPAGEMODUL":9054,"Sentiment":9055,"Tiáº¿":9056,"Wrapper":9057,"aucratic":9058,"brahim":9059,"cputime":9060,"custom":9061,"chemaEditAtt":9062,"cisco":9063,"cachereport":9064,"campaigns":9065,"gÃº":9066,"lÃ¢m":9067,"memusage":9068,"mohundro":9069,"o×¢×":9070,"rivastava":9071,"sticky":9072,"sameAs":9073,"sEnableTopics":9074,"sborne":9075,"tagline":9076,"tinaCymraeg":9077,"¥áĥĲáĥłáĥĹáĥ":9078,"¨ÙĬØ©":9079,"©åįĹ":9080,"¬EspaÃ±olEs":9081,"¹ÎºÎ":9082,"»ĩt":9083,"½Î¹ÎºÎ":9084,"ÎķÎ»Î":9085,"ÑħÑĢÐ²Ð°ÑĤ":9086,"à¹Ħà¸Ĺà¸":9087,"ä¸Ńæĸĩ":9088,"ç²µèªŀ":9089,"éĸ©åįĹ":9090,"íķľêµŃ":9091,"ĠÑģÑĢÐ¿ÑģÐºÐ¾":9092,"ĢÕ¡ÕµÕ¥ÖĢÕ¥Õ¶à¤¹":9093,"įslenska":9094,"ĳ×¨×Ļ×ª":9095,"Ġasthma":9096,"Ġabove":9097,"orEmpty":9098,"enwikimwclientpref":9099,"arayanan":9100,"Ġthemselves":9101,"ingUpEnabledFor":9102,"ĠsrpskiSrpskohr":9103,"ĠportalRecent":9104,"Ġcoupled":9105,"elPublish":9106,"Ġdanger":9107,"Ġdollars":9108,"Ġbirth":9109,"ĠCynthia":9110,"Ġreporter":9111,"improvement":9112,"imageright":9113,"ĠPrize":9114,"ĠPDFPrintable":9115,"Ġongoing":9116,"ĠInstead":9117,"Ġcommonsense":9118,"ĠHassabis":9119,"ĠGiffard":9120,"ĠGatekeeping":9121,"epageSuggestedEditsEnableTopics":9122,"antFallbacks":9123,"Ġtrademark":9124,"ĠURLDownload":9125,"navigationTiming":9126,"wgEditSubmitBut":9127,"wgCiteReferencePrev":9128,"wgFlaggedRevsPar":9129,"wgNoticeProject":9130,"wgVisualEditor":9131,"wgWikibaseItemId":9132,"wgDefaultDateFormat":9133,"wgNamespaceNumber":9134,"wgRequestId":9135,"wgSeparatorTransformTable":9136,"wgDigitTransformTable":9137,"wgGEStructured":9138,"wgHostname":9139,"wgPopupsFlags":9140,"tooltip":9141,"Ġunlabeled":9142,"amezanpour":9143,"Ġcomparison":9144,"ĠViá»ĩt":9145,"wikimediamessages":9146,"playWikibaseDescriptions":9147,"Ġinterconnected":9148,"ĠConnecting":9149,"csrfToken":9150,"Contributors":9151,"ÑģÑĮÐºÐ°":9152,"ĠIndonesia":9153,"ClientHintsHeaders":9154,"pageVariantFallbacks":9155,"LanguageInHeader":9156,"ShareAlike":9157,":\"\\\"\"\"\\\"\"\"'\"\"":9158,"RLCONF":9159,"RLSTATE":9160,"tonLabelPublish":9161,"urlShortener":9162,"wikimediaEvents":9163,"wikimediaBadges":9164,"architecture":9165,"switcher":9166,"ÑĢÐ°ÑĹÐ½ÑģÑĮÐºÐ°":9167,"GEHomepageSuggestedEditsEnableTopics":9168,"à¬¼à¬¿":9169,"à¬ĵà¬¡":9170,"emptStepOversample":9171,"expansiondepth":9172,"expensivefunctioncount":9173,"wgCheckUserClientHintsHeaders":9174,"wgCurRevisionId":9175,"wgPageParseReport":9176,"Italiano×¢×":9177,"Ð»Ð³Ð°ÑĢÑģÐºÐ¸":9178,"FranÃ§ais":9179,"targetLoader":9180,"à®¤à®®":9181,"entityaccesscount":9182,"getAllExpandedArguments":9183,"ĠpageContentsCurrent":9184,"ÐĳÑĬÐ»Ð³Ð°ÑĢÑģÐºÐ¸":9185,"dateModified":9186,"documentElement":9187,"eventLogging":9188,"Disclaimers":9189,"wgULSPosition":9190,"wgRelevantPageIsProbablyEditable":9191,"Ġ|$)'),'$":9192,"rbaycanca":9193,"(/(?:^|;":9194,",'')+'-":9195,"»Î·Î½Î¹ÎºÎ":9196,"ÄĮeÅ¡tinaCymraeg":9197,"Ú©ÙĪØ±Ø¯ÛĮÐ¡ÑĢÐ¿ÑģÐºÐ¸":9198,"wgBackendResponseTime":9199,"wgBreakFrames":9200,"wgMFDisplayWikibaseDescriptions":9201,"wgMonthNames":9202,"wgWMESchemaEditAtt":9203,"wgUserGroups":9204,"wgGELevelingUpEnabledFor":9205,"wgGETopicsMatchModeEnabled":9206,"ReferenceTooltips":9207,"à²¨à²¡áĥ¥áĥĲáĥłáĥĹáĥ":9208,"wgULSisLanguageSelectorEmpty":9209,"wgULSisCompactLinksEnabled":9210,"wgMediaViewerEnabledByDefault":9211,"AzÉĻrbaycanca":9212,"templateargumentsize":9213,"ÐľÐ¾Ð½Ð³Ð¾Ð»":9214,"Ù¾ÚļØªÙĪ":9215,"ppvisitednodes":9216,"enzlhuemer":9217,"growthExperiments":9218,"Ø§ÙĦØ¹Ø±Ø¨ÙĬØ©":9219,"PolskiPortuguÃªs":9220,"TaskRejectionReasonTextInputEnabled":9221,"£áĥļáĥĺ":9222,"LatvieÅ¡u":9223,"Ã§eÐ£ÐºÑĢÐ°ÑĹÐ½ÑģÑĮÐºÐ°":9224,"EuskaraÙģØ§Ø±Ø³ÛĮ":9225,"LietuviÅ³":9226,"RomÃ¢nÄĥRuna":9227,"RLPAGEMODULES":9228,"Tiáº¿ng":9229,"¬EspaÃ±olEsperanto":9230,"ÎķÎ»Î»Î·Î½Î¹ÎºÎ":9231,"ÑħÑĢÐ²Ð°ÑĤÑģÐºÐ¸":9232,"à¹Ħà¸Ĺà¸¢":9233,"éĸ©åįĹèªŀ":9234,"íķľêµŃìĸ":9235,"ĠÑģÑĢÐ¿ÑģÐºÐ¾ÑħÑĢÐ²Ð°ÑĤÑģÐºÐ¸":9236,"įslenskaItaliano×¢×":9237,"enwikimwclientpreferences":9238,"ĠsrpskiSrpskohrvatski":9239,"wgEditSubmitButtonLabelPublish":9240,"wgCiteReferencePreviewsActive":9241,"wgFlaggedRevsParams":9242,"wgGEStructuredTaskRejectionReasonTextInputEnabled":9243,":\"\\\"\"\"\\\"\"\"'\"\"'\"}.":9244,"wgCheckUserClientHintsHeadersJsApi":9245,"ÄĮeÅ¡tinaCymraegDansk":9246,"wgWMESchemaEditAttemptStepOversample":9247,"wgGELevelingUpEnabledForUser":9248,"à²¨à²¡áĥ¥áĥĲáĥłáĥĹáĥ£áĥļáĥĺ":9249,"ÎķÎ»Î»Î·Î½Î¹ÎºÎ¬EspaÃ±olEsperanto":9250,"įslenskaItaliano×¢×ĳ×¨×Ļ×ª":9251,"!\\\"]":9252,"%}}":9253,"',":9254,")\",\"":9255,")âĢĶ":9256,".:":9257,".[":9258,"016":9259,"019":9260,"0261":9261,"293":9262,"291":9263,"225":9264,"285":9265,"287":9266,"317":9267,"327":9268,"380":9269,"386":9270,"322":9271,"340":9272,"359":9273,"3116":9274,"420":9275,"424":9276,"550":9277,"583":9278,"650":9279,"642":9280,"786":9281,"755":9282,"993":9283,"991":9284,"990":9285,":.":9286,";)":9287,";~":9288,"AB":9289,"AL":9290,"AP":9291,"AAI":9292,"Americ":9293,"Bo":9294,"Bos":9295,"Back":9296,"Broadcast":9297,"Book":9298,"Batch":9299,"Bostrom":9300,"Because":9301,"Bioinformatics":9302,"CE":9303,"Cs":9304,"Car":9305,"Can":9306,"Cri":9307,"Cour":9308,"Chem":9309,"CAI":9310,"Cross":9311,"CNN":9312,"Category":9313,"Cloud":9314,"Citiz":9315,"Consciousness":9316,"Copy":9317,"DL":9318,"Det":9319,"Dem":9320,"Domingos":9321,"Dreyfus":9322,"Er":9323,"Ees":9324,"Ethical":9325,"Educational":9326,"Etymology":9327,"Fel":9328,"Face":9329,"Free":9330,"Fact":9331,"False":9332,"Framework":9333,"Fitness":9334,"GD":9335,"GR":9336,"Gu":9337,"Glo":9338,"Gold":9339,"Good":9340,"GAN":9341,"Hr":9342,"IJ":9343,"IR":9344,"IPS":9345,"IME":9346,"Jordan":9347,"Jawa":9348,"Karl":9349,"Kuligowski":9350,"LG":9351,"Long":9352,"LaM":9353,"MT":9354,"Ma":9355,"My":9356,"Mad":9357,"Most":9358,"Moh":9359,"Major":9360,"Medical":9361,"Mamb":9362,"Marv":9363,"Morph":9364,"Minsky":9365,"Martin":9366,"Medicine":9367,"Military":9368,"Mitchell":9369,"Misinformation":9370,"NG":9371,"NT":9372,"NLL":9373,"OA":9374,"OÊ":9375,"Oliver":9376,"PU":9377,"Pat":9378,"Prom":9379,"Poole":9380,"Politics":9381,"PMM":9382,"Philosophers":9383,"Qara":9384,"Rep":9385,"Rich":9386,"Rule":9387,"Rise":9388,"Roman":9389,"RSA":9390,"Royal":9391,"SV":9392,"Sw":9393,"Sit":9394,"Sep":9395,"Section":9396,"Sven":9397,"Since":9398,"Several":9399,"Space":9400,"Searle":9401,"Sparse":9402,"Second":9403,"Smolik":9404,"Sentence":9405,"Silver":9406,"Type":9407,"Today":9408,"Tagal":9409,"Types":9410,"Urb":9411,"UNESCO":9412,"Ubiquitous":9413,"VA":9414,"Vi":9415,"Vil":9416,"VID":9417,"Wal":9418,"Wil":9419,"Where":9420,"XI":9421,"Yoshua":9422,"ZA":9423,"Zul":9424,"Zhang":9425,"aive":9426,"aish":9427,"aule":9428,"aussian":9429,"bes":9430,"bod":9431,"bles":9432,"bust":9433,"cr":9434,"cu":9435,"cision":9436,"cons":9437,"ctively":9438,"dam":9439,"dog":9440,"dinary":9441,"dahl":9442,"ea":9443,"ez":9444,"eil":9445,"earn":9446,"equ":9447,"eons":9448,"fc":9449,"fel":9450,"fir":9451,"father":9452,"gar":9453,"gun":9454,"gest":9455,"government":9456,"gments":9457,"had":9458,"hill":9459,"hall":9460,"hone":9461,"hran":9462,"hry":9463,"house":9464,"haps":9465,"ij":9466,"ior":9467,"ifor":9468,"ja":9469,"jn":9470,"jo":9471,"jour":9472,"jug":9473,"kle":9474,"kos":9475,"knowledge":9476,"kcha":9477,"lad":9478,"lers":9479,"lies":9480,"lNorsk":9481,"mp":9482,"mÃ":9483,"mond":9484,"moli":9485,"maa":9486,"nb":9487,"nar":9488,"nist":9489,"nia":9490,"natural":9491,"nature":9492,"ntemplate":9493,"ncit":9494,"oT":9495,"ptive":9496,"phy":9497,"possible":9498,"pai":9499,"pster":9500,"paq":9501,"pdf":9502,"qal":9503,"qip":9504,"rÃ":9505,"ras":9506,"rence":9507,"rum":9508,"rill":9509,"redit":9510,"rics":9511,"rule":9512,"reds":9513,"rath":9514,"rigal":9515,"sm":9516,"she":9517,"section":9518,"syn":9519,"scientific":9520,"sites":9521,"saur":9522,"tx":9523,"taz":9524,"telegraph":9525,"tainment":9526,"uo":9527,"uable":9528,"uition":9529,"uates":9530,"ucial":9531,"uits":9532,"ubert":9533,"va":9534,"vision":9535,"vements":9536,"viously":9537,"wen":9538,"what":9539,"wski":9540,"wise":9541,"whether":9542,"walk":9543,"whel":9544,"ye":9545,"yr":9546,"yer":9547,"yar":9548,"ycl":9549,"ybers":9550,"zer":9551,"zbe":9552,"zhone":9553,"¥lNorsk":9554,"¨ÛĮ":9555,"¯Ń":9556,"¯ve":9557,"¯ÙĪ":9558,"±Ðµ":9559,"²Ñ":9560,"´è":9561,"´Ð¾Ð½":9562,"»zbe":9563,"Ã½":9564,"Äį":9565,"Ð¢":9566,"Ð±Ðµ":9567,"ÑĨ":9568,"Ñŀ":9569,"Ùħ":9570,"Ùĩ":9571,"ÛĨ":9572,"ãģ":9573,"åĲ":9574,"Ġ+":9575,"Ġ,":9576,"Ġ91":9577,"Ġri":9578,"Ġels":9579,"ĠÄĮ":9580,"ĠÑŀ":9581,"ĸÑĨ":9582,"ľà¤ª":9583,"inions":9584,"erl":9585,"ertion":9586,"eras":9587,"erve":9588,"ertil":9589,"Ġtem":9590,"Ġtri":9591,"Ġtalk":9592,"Ġtaken":9593,"oned":9594,"onic":9595,"onies":9596,"onite":9597,"onics":9598,"Ġaf":9599,"Ġair":9600,"Ġakin":9601,"Ġaxi":9602,"tia":9603,"tie":9604,"tile":9605,"tique":9606,"tiÎķÎ»Î»Î·Î½Î¹ÎºÎ¬EspaÃ±olEsperanto":9607,"tikos":9608,"orsk":9609,"orative":9610,"orobotics":9611,"enK":9612,"enat":9613,"ention":9614,"enri":9615,"enamed":9616,"heless":9617,"aly":9618,"alence":9619,"also":9620,"aluation":9621,"alities":9622,"aluating":9623,"alwalk":9624,"edest":9625,"estim":9626,"anan":9627,"ania":9628,"anish":9629,"anking":9630,"isk":9631,"isp":9632,"isner":9633,"ingen":9634,"uter":9635,"utter":9636,"utnam":9637,"real":9638,"rele":9639,"reely":9640,"Ġsm":9641,"Ġson":9642,"Ġsem":9643,"Ġster":9644,"Ġsay":9645,"Ġsure":9646,"Ġsection":9647,"Ġsatis":9648,"Ġsample":9649,"Ġsexual":9650,"Ġsudd":9651,"Ġseventeenth":9652,"atas":9653,"atast":9654,"atches":9655,"205":9656,"2050":9657,"2041":9658,"leks":9659,"lell":9660,"Ġpe":9661,"Ġpers":9662,"Ġpap":9663,"Ġpref":9664,"Ġpix":9665,"Ġpoll":9666,"Ġphenomen":9667,"Ġpedest":9668,"ita":9669,"itor":9670,"itate":9671,"itations":9672,"itative":9673,"itten":9674,"itney":9675,"itelist":9676,"chat":9677,"chley":9678,"roc":9679,"root":9680,"robot":9681,"Ġcand":9682,"Ġcable":9683,"Ġcognition":9684,"Ġcerem":9685,"Ġcells":9686,"Ġcitations":9687,"Ġinf":9688,"Ġinev":9689,"Ġintroduction":9690,"Ġinfrastructure":9691,"Ġoffice":9692,"ici":9693,"ico":9694,"icism":9695,"icks":9696,"icting":9697,"iciant":9698,"elh":9699,"elines":9700,"ellect":9701,"elrath":9702,"ĠAre":9703,"ĠAgr":9704,"ĠABC":9705,"ĠANN":9706,"ĠACL":9707,"ĠAffective":9708,"ĠAAAI":9709,"ĠAleks":9710,"Ġfive":9711,"Ġfra":9712,"Ġfusion":9713,"Ġfilt":9714,"Ġfuzzy":9715,"Ġdon":9716,"Ġdress":9717,"Ġdeat":9718,"Ġdra":9719,"Ġdile":9720,"Ġdiversity":9721,"Ġdensity":9722,"Ġdaily":9723,"Ġmo":9724,"Ġmy":9725,"Ġmod":9726,"Ġmember":9727,"Ġmale":9728,"Ġmouth":9729,"Ġmorn":9730,"Ġmeta":9731,"Ġmanner":9732,"entral":9733,"entland":9734,"Ġbom":9735,"Ġbok":9736,"Ġbroadc":9737,"Ġblog":9738,"Ġbooks":9739,"Ġburd":9740,"Ġwent":9741,"Ġwave":9742,"Ġwild":9743,"Ġwinn":9744,"igm":9745,"igor":9746,"igan":9747,"ighest":9748,"omput":9749,"omson":9750,"omedical":9751,"Ġnet":9752,"Ġnyn":9753,"Ġnarr":9754,"Ġnarrow":9755,"etz":9756,"etts":9757,"asi":9758,"asy":9759,"asper":9760,"asks":9761,"askow":9762,"emm":9763,"emale":9764,"empel":9765,"Ġ191":9766,"Ġ110":9767,"Ġ118":9768,"Ġ1880":9769,"Ġtold":9770,"Ġtoget":9771,"Ġtokens":9772,"urate":9773,"urnal":9774,"uraf":9775,"urric":9776,"uracy":9777,"urphy":9778,"usive":9779,"uscript":9780,"usetts":9781,"olation":9782,"ĠSach":9783,"ĠSand":9784,"ĠSqu":9785,"ĠSens":9786,"ĠSector":9787,"ĠSoft":9788,"ĠSpec":9789,"ĠSays":9790,"ĠSymbolic":9791,"ĠSynt":9792,"ĠStill":9793,"ĠSurg":9794,"ĠShel":9795,"ĠSiri":9796,"ĠSVM":9797,"ĠSmolik":9798,"ĠSIG":9799,"ĠSrivastava":9800,"ceptions":9801,"ewhere":9802,"936":9803,"amd":9804,"amiz":9805,"amie":9806,"ĠMon":9807,"ĠMing":9808,"ĠMas":9809,"ĠMak":9810,"ĠMary":9811,"ĠMakes":9812,"ĠMilitary":9813,"ĠMaxim":9814,"ĠMaur":9815,"ĠMirror":9816,"eckl":9817,"idiv":9818,"idering":9819,"idjour":9820,"ĠTa":9821,"ĠTi":9822,"ĠTu":9823,"ĠTest":9824,"ĠTian":9825,"ĠTown":9826,"ĠTool":9827,"ĠTutorial":9828,"ĠTurism":9829,"ĠTaiwan":9830,"ĠRes":9831,"ĠRef":9832,"ĠRome":9833,"ĠReb":9834,"ĠRace":9835,"ĠRule":9836,"ĠRacter":9837,"ĠRandom":9838,"ĠRosen":9839,"ĠRitter":9840,"ĠRyan":9841,"ĠRoyal":9842,"ĠRena":9843,"ĠCell":9844,"ĠCop":9845,"ĠCity":9846,"ĠCase":9847,"ĠCirc":9848,"ĠCorpor":9849,"ĠConsciousness":9850,"ĠCiaramella":9851,"ĠCAA":9852,"ĠIsh":9853,"ĠIbrahim":9854,"1610":9855,"ilot":9856,"ilomet":9857,"Ġlat":9858,"Ġlot":9859,"Ġlap":9860,"Ġlower":9861,"Ġlaid":9862,"Ġlatter":9863,"Ġlinguistic":9864,"ĠNY":9865,"ĠNon":9866,"ĠNot":9867,"ĠNort":9868,"ĠNear":9869,"ĠNeats":9870,"stell":9871,"step":9872,"stances":9873,"stanford":9874,"evert":9875,"Ġreb":9876,"Ġrep":9877,"Ġreass":9878,"Ġrevol":9879,"Ġreject":9880,"Ġreinfor":9881,"Ġreopen":9882,"ims":9883,"iment":9884,"imbo":9885,"ula":9886,"ulf":9887,"ulg":9888,"isted":9889,"istance":9890,"istral":9891,"Ġhim":9892,"Ġhack":9893,"Ġhired":9894,"Ġhomes":9895,"adic":9896,"Ġthres":9897,"ivial":9898,"ivate":9899,"ivery":9900,"excerpt":9901,"ĠPol":9902,"ĠPort":9903,"ĠPlo":9904,"ĠPeng":9905,"ĠPension":9906,"ĠPortal":9907,"ĠPKDD":9908,"ĠPyth":9909,"acle":9910,"acement":9911,"essing":9912,"Ġontology":9913,"uns":9914,"unt":9915,"odec":9916,"ota":9917,"oting":9918,"oters":9919,"otonic":9920,"192":9921,"195":9922,"196":9923,"1966":9924,"1956":9925,"tered":9926,"ellati":9927,"avel":9928,"owe":9929,"owl":9930,"owers":9931,"Ġordinary":9932,"then":9933,"this":9934,"through":9935,"ogram":9936,"ograd":9937,"ogà®¤à®®":9938,"Ġproto":9939,"Ġprosp":9940,"Ġproof":9941,"Ġprobabil":9942,"Ġpropagation":9943,"Ġproportion":9944,"ayu":9945,"achusetts":9946,"ĠBu":9947,"ĠBac":9948,"ĠBab":9949,"ĠBack":9950,"ĠBill":9951,"ĠBra":9952,"ĠBert":9953,"ĠBob":9954,"ĠBroad":9955,"ĠBlog":9956,"ĠBoth":9957,"ĠBayes":9958,"ĠBlet":9959,"ĠBreed":9960,"ĠBurk":9961,"Ġgaining":9962,"Ġgender":9963,"Ġrank":9964,"Ġrais":9965,"Ġrenamed":9966,"ĠJa":9967,"ĠJo":9968,"ĠJer":9969,"ĠJess":9970,"ĠJill":9971,"ĠJaze":9972,"ĠJamie":9973,"1056":9974,"Ġforce":9975,"Ġformer":9976,"irani":9977,"cia":9978,"Ġ[\\\"!\\\"]":9979,"plan":9980,"placed":9981,"aped":9982,"oper":9983,"opes":9984,"beral":9985,"berto":9986,"iai":9987,"ĠDe":9988,"ĠDu":9989,"ĠDes":9990,"ĠDist":9991,"ĠDav":9992,"ĠDow":9993,"ĠDay":9994,"ĠDud":9995,"ĠDef":9996,"ĠDeb":9997,"ĠDeng":9998,"ĠDick":9999,"ĠDiagnos":10000,"ĠDyson":10001,"ĠDayan":10002,"ĠDaily":10003,"ĠDasgupta":10004,"ainmaa":10005,"ĠIntellig":10006,"ĠInform":10007,"ĠIntr":10008,"ĠIntro":10009,"ĠIntegr":10010,"ĠInvent":10011,"osing":10012,"oski":10013,"oswami":10014,"ĠWs":10015,"ĠWas":10016,"ĠWid":10017,"ĠWang":10018,"ĠWack":10019,"ĠWired":10020,"ĠWiley":10021,"ĠWerb":10022,"ĠWenzlhuemer":10023,"Ġconce":10024,"Ġconvin":10025,"Ġconfig":10026,"Ġcommodity":10027,"ĠHeb":10028,"ĠHale":10029,"ĠGO":10030,"ĠGary":10031,"ĠGlob":10032,"ĠGran":10033,"ĠGenetic":10034,"ĠGloss":10035,"ĠGrah":10036,"ĠGrammatical":10037,"ĠGaussian":10038,"ĠGulf":10039,"ĠAIs":10040,"ĠLin":10041,"ĠLim":10042,"ĠLuc":10043,"ĠLinn":10044,"ĠLett":10045,"ĠLiter":10046,"ĠLighthill":10047,"ĠLecture":10048,"ĠFail":10049,"ĠFeature":10050,"ĠFair":10051,"ĠFormal":10052,"ĠFeder":10053,"ĠFeed":10054,"ĠFleer":10055,"ĠFactor":10056,"Ġbegun":10057,"ĠEU":10058,"ĠEX":10059,"ĠEss":10060,"ĠEra":10061,"ĠEyal":10062,"ĠELI":10063,"ĠErik":10064,"ĠEgypt":10065,"izable":10066,"CITEREFO":10067,"CITEREFLe":10068,"CITEREFAnderson":10069,"Ġanthrop":10070,"Ġvoc":10071,"Ġviews":10072,"Ġstress":10073,"Ġstated":10074,"Ġstakes":10075,"Ġstrik":10076,"ubious":10077,"iking":10078,"andy":10079,"andal":10080,"andez":10081,"Ġ211":10082,"undancies":10083,"Ġexha":10084,"Ġexempl":10085,"Ġexists":10086,"Ġexceed":10087,"Ġexternal":10088,"ectation":10089,"ĠusSpecial":10090,"uperman":10091,"ques":10092,"quity":10093,"quiry":10094,"formance":10095,"ĠOld":10096,"ĠOver":10097,"ĠOsborne":10098,"seq":10099,"Ġarms":10100,"Ġoriginated":10101,"udeyer":10102,"anting":10103,"akar":10104,"akash":10105,"Ġtrack":10106,"Ġtruly":10107,"Ġtrying":10108,"Ġtrends":10109,"ighteenth":10110,"close":10111,"clusion":10112,"ifiers":10113,"ĠUP":10114,"ĠUl":10115,"uced":10116,"ucinations":10117,"004":10118,"008":10119,"0036":10120,"ĠNewsroom":10121,"anski":10122,"Ġ1986":10123,"Ġ1966":10124,"Ġ1995":10125,"Ġ1994":10126,"Ġ1964":10127,"Ġ1998":10128,"cology":10129,"ĠSte":10130,"ĠStar":10131,"ĠStable":10132,"ĠStatistics":10133,"ĠStau":10134,"eref":10135,"ysts":10136,"ystop":10137,"Ġdoing":10138,"ills":10139,"peed":10140,"pears":10141,"mart":10142,"marks":10143,"ĠKel":10144,"ĠKam":10145,"ĠKos":10146,"ĠKore":10147,"ĠKurd":10148,"ĠKlein":10149,"ĠKuligowski":10150,"endall":10151,"endering":10152,"endorf":10153,"Ġ320":10154,"Ġ300":10155,"Ġ305":10156,"ĠCham":10157,"ĠChrist":10158,"ĠChalleng":10159,"ĠChurch":10160,"ĠChaff":10161,"ĠChalmers":10162,"ĠChinchilla":10163,"peror":10164,"perparameter":10165,"Ġimpre":10166,"Ġimpartiality":10167,"Ġimmediate":10168,"refly":10169,"ouses":10170,"Ġchpts":10171,"Ġchildren":10172,"Ġcancer":10173,"ussels":10174,"assisted":10175,"assellati":10176,"Ġevol":10177,"Ġevac":10178,"iparti":10179,"ernor":10180,"ernan":10181,"122":10182,"1275":10183,"Ġnegation":10184,"prises":10185,"titative":10186,"ĠCommon":10187,"ĠComplete":10188,"encer":10189,"ueen":10190,"ostamiz":10191,"uchanan":10192,"ardy":10193,"972":10194,"hemes":10195,"hemical":10196,"1572":10197,"dings":10198,"oca":10199,"Ġappears":10200,"ielus":10201,"ieliÅ":10202,"Ġkilled":10203,"Ġkilomet":10204,"Ġunc":10205,"Ġunless":10206,"Ġunrelated":10207,"Ġunifies":10208,"Ġunbi":10209,"Ġclip":10210,"Ġclaus":10211,"Ġclimate":10212,"Architect":10213,"Intelligent":10214,"Institute":10215,"Ġ53":10216,"Ġ596":10217,"ultane":10218,"ĠYang":10219,"ĠYah":10220,"ĠYuv":10221,"ĠYudkowsky":10222,"ĠYuran":10223,"ĠAlice":10224,"ĠAlpaydin":10225,"Ġnoted":10226,"Ġnotations":10227,"editsection":10228,"ĠThings":10229,"131":10230,"ĠUncertain":10231,"Ġcompil":10232,"Ġdisplaying":10233,"Ġspend":10234,"Ġspoken":10235,"231":10236,"235":10237,"2391":10238,"ĠVan":10239,"ĠVideo":10240,"ĠViet":10241,"ĠViol":10242,"ĠVoice":10243,"ĠVinge":10244,"ĠVinod":10245,"ĠLegal":10246,"172":10247,"175":10248,"179":10249,"Ġabs":10250,"253":10251,"2539":10252,"cripts":10253,"criptive":10254,"afi":10255,"affic":10256,"affe":10257,"ifications":10258,"vertical":10259,"241":10260,"242":10261,"246":10262,"264":10263,"grams":10264,"tee":10265,"teo":10266,"Ġeighteenth":10267,"imitations":10268,"Ġ41":10269,"Ġ42":10270,"Ġ46":10271,"Ġ47":10272,"Ġenable":10273,"Ġengines":10274,"Ġreli":10275,"Ġrelate":10276,"clude":10277,"eather":10278,"acters":10279,"crete":10280,"dison":10281,"disambiguation":10282,"Ġperhaps":10283,"Ġconsol":10284,"Ġconsists":10285,"Ġdesire":10286,"Ġdescriptions":10287,"885":10288,"Ġdecentral":10289,"raeli":10290,"Ġdevelops":10291,"century":10292,"ibly":10293,"ibsh":10294,"ibbs":10295,"intended":10296,"annen":10297,"Ġroad":10298,"Ġrobust":10299,"278":10300,"Ġshut":10301,"Ġshape":10302,"Ġinteract":10303,"Ġinterdisciplinary":10304,"Ġliberal":10305,"ĠProlog":10306,"ĠProbabilistic":10307,"ĠProPublic":10308,"805":10309,"ohavi":10310,"ediction":10311,"....":10312,"ectionism":10313,"Ġprogrammers":10314,"Ġtransl":10315,"Ġtransformation":10316,"erma":10317,"903":10318,"Ġautonomy":10319,"Ġsubjectivity":10320,"ĠReality":10321,"867":10322,"333":10323,"334":10324,"Ġ61":10325,"Ġ68":10326,"Ġ69":10327,"Ġnewness":10328,"Ġemail":10329,"Ġempir":10330,"Ġemplo":10331,"301":10332,"302":10333,"303":10334,"3077":10335,"awi":10336,"awal":10337,"awlinson":10338,"}}\"":10339,"itiv":10340,"ĠGoertzel":10341,"ailment":10342,"ailability":10343,"inking":10344,"ĠDeclar":10345,"361":10346,"366":10347,"36167":10348,"404":10349,"407":10350,"Newsworth":10351,"Ġtexts":10352,"Ġindicate":10353,"Environment":10354,"Energy":10355,"1005":10356,"Ġappropri":10357,"Ġapproval":10358,"Wikiversity":10359,"obielus":10360,"aligned":10361,"ĠAnchorman":10362,"ĠAnnotation":10363,"Ġobsolete":10364,"Ġobviously":10365,"Ġaccum":10366,"Ġnotion":10367,"Ġnoise":10368,"eopardy":10369,"Edward":10370,"Ġsimulation":10371,"Ġsimulating":10372,"Star":10373,"revor":10374,"ĠEnvironment":10375,"382050":10376,"Ð°ÐºÐµÐ":10377,"urrency":10378,"292":10379,"295":10380,"axman":10381,"Ġrepresentatives":10382,"azi":10383,"ausible":10384,"ĠZierahn":10385,"Ġregime":10386,"Ġpredicted":10387,"608":10388,"LPAC":10389,"Probabilistic":10390,"Probability":10391,"à¤²":10392,"à¤ľà¤ª":10393,"Ġserves":10394,"Ġ1792":10395,"877":10396,"878":10397,"ĠConf":10398,"ĠConceptual":10399,"ĠConstell":10400,"Ġexpensive":10401,"Ġ105":10402,"Ġ109":10403,"ountries":10404,"ramm":10405,"Ġoverall":10406,"Ġoverwhel":10407,"ĠForbes":10408,"Ġscoring":10409,"Ġscandal":10410,"ĠAsimov":10411,"ĠPres":10412,"ĠPrinci":10413,"Ġrising":10414,"uestions":10415,"ventions":10416,"Ġ95":10417,"thetic":10418,"orgenst":10419,"282":10420,"283":10421,"289":10422,"457":10423,"Ġupd":10424,"Ġincrement":10425,"Ġincreases":10426,"Ġdefault":10427,"Ġdefinitions":10428,"Ġprovider":10429,"Ġdiscour":10430,"672":10431,"676":10432,"versary":10433,"versky":10434,"icki":10435,"399":10436,"Ġ169":10437,"Ġ1600":10438,"Ġexplo":10439,"Ġexploratory":10440,"brid":10441,"ryhill":10442,"ÐºÑĩÐ°":10443,"Ġ1800":10444,"iddendorf":10445,"Ġstudied":10446,"ĠAges":10447,"ĠAgents":10448,"374":10449,"377":10450,"paring":10451,"without":10452,"Ġsoon":10453,"Ġsought":10454,"Ġcollab":10455,"Ġcommunicate":10456,"Ġfounder":10457,"Ġfoundation":10458,"Ġfoundations":10459,"Ġwhatever":10460,"343":10461,"349":10462,"Ġextension":10463,"Ġextremely":10464,"Ġwhole":10465,"Ġperformed":10466,"shin":10467,"othman":10468,"Ġdifferently":10469,"462":10470,"4650":10471,"liament":10472,"resh":10473,"Ġdistant":10474,"Ġmanuscript":10475,"ĠIndeed":10476,"ĠIndustrial":10477,"argeting":10478,"mitted":10479,"Ġprecise":10480,"ĠExplainable":10481,"Ġimpression":10482,"Ġtwenty":10483,"ĠNeo":10484,"ĠNeumann":10485,"issance":10486,"ĠApp":10487,"Ġredundancies":10488,"Ġsubsets":10489,"Quillan":10490,"Ġoperation":10491,"Ġphone":10492,"ugging":10493,"442":10494,"449":10495,"Three":10496,"Thomas":10497,"position":10498,"posium":10499,"Ġdegree":10500,"Ġdealing":10501,"ĠSchool":10502,"Ġlabelled":10503,"1971":10504,"1973":10505,"1978":10506,"atchdog":10507,"ĠShannon":10508,"Ġsupplied":10509,"CITEREFSim":10510,"CITEREFSun":10511,"Ġarguments":10512,"Computationalism":10513,"Cliff":10514,"Chinese":10515,"Charles":10516,"ĠMehry":10517,"Ġbehave":10518,"jective":10519,"Ġpublications":10520,"irectorate":10521,"Shapiro":10522,"Shqip":10523,"phof":10524,"physical":10525,"Ġtested":10526,"Ġmainly":10527,"ockrill":10528,"9660":10529,"wholes":10530,"whitelist":10531,"ĠXia":10532,"ĠXAI":10533,"Ġsections":10534,"Ġsecret":10535,"Ġsucc":10536,"Ġmarketed":10537,"Refend":10538,"Refbegin":10539,"Ġvaluable":10540,"Ġclassifying":10541,"áĢº":10542,"áĢ¼":10543,"áĢĶ":10544,"áĢĺ":10545,"áĢŀ":10546,"Ġedges":10547,"arma":10548,"CITEREFBer":10549,"CITEREFBostrom":10550,"Ġconsiderable":10551,"Ġcooperation":10552,"Ġfinite":10553,"Ġfinance":10554,"ĠRobot":10555,"ĠIsraeli":10556,"owned":10557,"Ġsimilarly":10558,"à¥ĩ":10559,"à¥ĭ":10560,"interactive":10561,"Ġbuz":10562,"ĠClaude":10563,"ĠEmploy":10564,"Extended":10565,"Ġsuccesses":10566,"ieval":10567,"Ġfactual":10568,"Ġidentifying":10569,"Implement":10570,"Ø±Ú©":10571,"orniai":10572,"aths":10573,"Ġwrites":10574,"ĠBerkele":10575,"Ġrespect":10576,"Ġperceived":10577,"694":10578,"University":10579,"Universal":10580,"Ġsectors":10581,"ĠPlans":10582,"CITEREFHar":10583,"CITEREFRoberts":10584,"software":10585,"ributional":10586,"Ġfocused":10587,"Searching":10588,"Ġspeak":10589,"ĠAmeet":10590,"Ġprofess":10591,"Ġprofound":10592,"ĠWebarchive":10593,"Ġproviding":10594,"ĠDaniela":10595,"Ġestablishing":10596,"11660":10597,"Ġtakeover":10598,"itzski":10599,"Ġcritic":10600,"ĠAlexa":10601,"ĠMoringen":10602,"Ġattributed":10603,"Ġadvice":10604,"Ġshowing":10605,"ĠRegul":10606,"Techniques":10607,"ĠQuoted":10608,"Ġaudiences":10609,"ĠRecommend":10610,"ĠImpro":10611,"ĠCompatible":10612,"Ġentered":10613,"Ġpromoted":10614,"Ġpromises":10615,"ĠAfshin":10616,"Ġdepends":10617,"Ġdependency":10618,"ĠBegin":10619,"ĠBehavior":10620,"ĠBrain":10621,"ĠBryson":10622,"ĠBrussels":10623,"ĠWhile":10624,"ĠWhitney":10625,"antane":10626,"Ġanalyzed":10627,"Transhumanism":10628,"Ġbehavioral":10629,"7619":10630,"Ġeditorial":10631,"Ġinstant":10632,"Ġinstead":10633,"Ġinstantane":10634,"Ġfollows":10635,"Ġvolume":10636,"Ġobjectives":10637,"midt":10638,"ĠQuestions":10639,"letins":10640,"Ġboard":10641,"Ġreceives":10642,"ĠPhotos":10643,"ĠFinance":10644,"Ġcharacters":10645,"12736167":10646,"Ġmeasured":10647,"Automata":10648,"Modeling":10649,"Seq":10650,"Ã©s":10651,"Ð»Ð°":10652,"Ġtendencies":10653,"espite":10654,"Ġposes":10655,"ĠContent":10656,"Ġcombine":10657,"Ġcombining":10658,"Ġdescribing":10659,"Ġcollectively":10660,"LSTM":10661,"Ġoccup":10662,"Ġoccasion":10663,"Ġcarried":10664,"Ġcarbon":10665,"Ġdemocratic":10666,"irtz":10667,"ĠEvans":10668,"ĠEvacuation":10669,"Ġannual":10670,"Ġpresentation":10671,"Ġevaluate":10672,"Ġevaluated":10673,"Interaction":10674,"Interactive":10675,"Ġreportedly":10676,"Ġassume":10677,"Ġcorrection":10678,"Ġdominate":10679,"Ġdominance":10680,"ĠReports":10681,"Andre":10682,"Andrew":10683,"Definition":10684,"generating":10685,"ĠBrockman":10686,"Ġguide":10687,"Ġstartups":10688,"Ġtravelled":10689,"Ġtransmitting":10690,"Ġautonomously":10691,"Ġcapitalization":10692,"Ġachieved":10693,"Ġachieving":10694,"ĠAtari":10695,"Ġfacult":10696,"Ġfundamental":10697,"Ġbasic":10698,"ĠNoah":10699,"Ġgreater":10700,"iresan":10701,"ĠHubert":10702,"ĠHaving":10703,"Ġauthority":10704,"Ġauthoritarian":10705,"Ġdiscussed":10706,"Ġdiscussions":10707,"Ð°ÑĢÐ°ÑĪ":10708,"Generalization":10709,"Donald":10710,"Empir":10711,"Parsing":10712,"Schmidhuber":10713,"uiten":10714,"uitable":10715,"Ġcrime":10716,"Ġcrimin":10717,"Ġcrucial":10718,"Ġframe":10719,"Ġframes":10720,"ĠSurge":10721,"ĠMassachusetts":10722,"ĠDoes":10723,"Companies":10724,"Ġefficiently":10725,"Ġdisseminating":10726,"oza":10727,"Ġscientists":10728,"ropic":10729,"Ġcosts":10730,"Ġdelivery":10731,"Ġwebsite":10732,"Ġwebsites":10733,"ushwick":10734,"ĠDempster":10735,"ĠHarper":10736,"ĠHarari":10737,"ĠHarris":10738,"Ġchatter":10739,"Ġannouncements":10740,"AlexNet":10741,"Diffusion":10742,"Geoffrey":10743,"Geography":10744,"LLMs":10745,"Spanning":10746,"black":10747,"cursors":10748,"à¨ª":10749,"à¨¬":10750,"à¨¾":10751,"à¨ľ":10752,"Ġtelephone":10753,"Ġpurch":10754,"Ġperspectives":10755,"ĠfilePermanent":10756,"Ġminor":10757,"ĠMatrix":10758,"ĠMatteo":10759,"ĠMoham":10760,"ĠLawrence":10761,"Ġarray":10762,"Ġarrived":10763,"ĠAlphaFold":10764,"Ġequival":10765,"Ġinterpret":10766,"Ġinterpretable":10767,"Ġconnectionist":10768,"Ġrecommendations":10769,"Before":10770,"Behavior":10771,"aÃ¯ve":10772,"laborative":10773,"informed":10774,"Ġteam":10775,"ĠActa":10776,"Ġfitted":10777,"Ġfamous":10778,"Ġfamily":10779,"Ġfamiliar":10780,"Ġmessages":10781,"Ġmaps":10782,"Ġmapping":10783,"ĠScott":10784,"ĠSpanish":10785,"ĠRisks":10786,"Ġhypothes":10787,"Ġproduces":10788,"Ġproducing":10789,"ĠLogic":10790,"ĠLogical":10791,"ĠFrancisco":10792,"ĠChristophe":10793,"Ġchoices":10794,"Ġcentralized":10795,"Ġestimation":10796,"Ġpriority":10797,"Distributional":10798,"Inductive":10799,"SARSA":10800,"Various":10801,"Ġtreaty":10802,"Ġtreatments":10803,"Ġsomewhat":10804,"atoes":10805,"atzky":10806,"ĠSeoul":10807,"ĠSoloski":10808,"ĠSummer":10809,"ĠTwitter":10810,"ĠTerry":10811,"Ġreplaced":10812,"Ġremains":10813,"ĠPerceptr":10814,"ĠPostal":10815,"Ġgoods":10816,"umped":10817,"CITEREFJordan":10818,"Ġvisual":10819,"Ġsteps":10820,"ĠObjectivity":10821,"ĠOpportun":10822,"Ġassistance":10823,"Ġreduced":10824,"eyerer":10825,"Ġhappened":10826,"Ġtravelers":10827,"Structural":10828,"Ġignor":10829,"Ġencod":10830,"Ġintrusion":10831,"Ġdebate":10832,"Ġdebates":10833,"Ġdivides":10834,"Ġdiagnostics":10835,"Ġmovie":10836,"Ġbelong":10837,"ĠShaw":10838,"ĠShazeer":10839,"Ġlossless":10840,"Ġharmful":10841,"ĠParkinson":10842,"riedman":10843,"ĠGoldman":10844,"ĠElectric":10845,"Ġstanding":10846,"ĠOfficial":10847,"ĠOffice":10848,"Ġchannel":10849,"Ġapproximation":10850,"Ġapproximate":10851,"Ġapproximately":10852,"ĠAnthropic":10853,"Ġregulations":10854,"ĠRepublicIsrael":10855,"ĠRepresenting":10856,"ĠRepresentations":10857,"Ġfindings":10858,"Ø§Ø±Ø¯ÙĪ":10859,"Ġdynamics":10860,"Analysis":10861,"Functional":10862,"Navbox":10863,"Objectivity":10864,"Optical":10865,"Opinion":10866,"Ġgeographic":10867,"Ġensemble":10868,"Ġelections":10869,"inchcombe":10870,"Ġsmarter":10871,"chae":10872,"Ġcivilization":10873,"Ġinvestig":10874,"ĠAssyrian":10875,"Ġfulf":10876,"Ġdeduction":10877,"Ġdeduce":10878,"Ġdestr":10879,"Ġmerely":10880,"urchin":10881,"ĠSanj":10882,"amentally":10883,"addle":10884,"addell":10885,"ĠPalmer":10886,"ĠDiabet":10887,"Ġconsequences":10888,"Ġcompetitive":10889,"ĠLLaM":10890,"ĠLLMs":10891,"Ġversati":10892,"Ġversions":10893,"Ġexhibit":10894,"Ġexhibited":10895,"skaTagal":10896,"ĠKingdom":10897,"ĠKennedy":10898,"ĠValley":10899,"Ġconstitu":10900,"Ġconstitute":10901,"Ġroutes":10902,"Ġroutine":10903,"Ġopposition":10904,"Entertainment":10905,"Ġmatching":10906,"ĠConstraints":10907,"Ġweapons":10908,"Ġassessment":10909,"Ġsummaries":10910,"Ġdelivered":10911,"Amazon":10912,"According":10913,"Finance":10914,"Financial":10915,"Hallucination":10916,"JapanCzech":10917,"OCR":10918,"White":10919,"published":10920,"uÃįslenskaItaliano×¢×ĳ×¨×Ļ×ª":10921,"Ð·Ð±Ðµ":10922,"ÐľÐ°ÐºÐµÐ":10923,"ØªÛĨ":10924,"Ù¾ÙĨ":10925,"Ġcurve":10926,"Ġmechanism":10927,"Ġmechanisms":10928,"Ġbanking":10929,"Ġbeliefs":10930,"Ġbenefit":10931,"ĠMelayu":10932,"ĠCoNLL":10933,"ĠCarol":10934,"ĠCourt":10935,"Ġliterary":10936,"ĠBias":10937,"Ġrunners":10938,"apses":10939,"Ġnewsworthy":10940,"ĠFlorence":10941,"Ġtradition":10942,"gricultural":10943,"Ġaccompl":10944,"Ġaggregation":10945,"18482":10946,"Ġdisease":10947,"30642":10948,"AlphaGo":10949,"Reasoning":10950,"ĠZhong":10951,"Ġoperationalization":10952,"ĠSimilarly":10953,"Ġincorporate":10954,"Ġcheckers":10955,"ÐĳÐµÐ»Ð°ÑĢÑĥÑģÐºÐ°ÑıÐĳÐµÐ»Ð°ÑĢÑĥÑģÐºÐ°Ñı":10956,"9977":10957,"Bride":10958,"Outline":10959,"family":10960,"lama":10961,"ÑĤÐ°ÑĢÐ°ÑĪ":10962,"Ø¬Ø§Ø":10963,"Ø¬Ùĩ":10964,"à©°":10965,"à©Ģ":10966,"Ġillusion":10967,"Ġillustr":10968,"Ġtheorem":10969,"Ġsuited":10970,"Ġsixteenth":10971,"Ġpursued":10972,"Ġpicture":10973,"Ġpictures":10974,"Ġpioneer":10975,"Ġpioneers":10976,"Ġcutting":10977,"Ġcaused":10978,"Ġfalls":10979,"Ġfastest":10980,"Ġbulk":10981,"Ġbulletins":10982,"Ġ1863":10983,"ĠMaxwell":10984,"ĠCongress":10985,"ĠCongressional":10986,"Ġhierarchical":10987,"ĠPapert":10988,"ĠBlack":10989,"ĠJulia":10990,"Ġconstantly":10991,"ĠEleutherAI":10992,"ĠErica":10993,"Ġvulnerabilities":10994,"ikolov":10995,"Ġtraits":10996,"ĠUnderstanding":10997,"agallo":10998,"ĠSteve":10999,"Ġpredomin":11000,"Ġimplicitly":11001,"Ġrespective":11002,"Ġrespectively":11003,"Ġactivities":11004,"Ġclaimed":11005,"Ġcompeted":11006,"Ġcompeting":11007,"978026":11008,"Ġdeclaration":11009,"Ġdeclarations":11010,"Ġpartial":11011,"ĠPractice":11012,"Ġredirects":11013,"Ġsubsidi":11014,"Autoencoder":11015,"ĠAdvances":11016,"Ġmonitored":11017,"Ġfeedback":11018,"1274942014":11019,"1274941297":11020,"Ġentirely":11021,"Ġarranged":11022,"Ġcorrespondence":11023,"represented":11024,"ÐºÐµÐ²Ñ":11025,"01243":11026,"Discourse":11027,"Developmental":11028,"Economics":11029,"NET":11030,"Occitan":11031,"hosla":11032,"runch":11033,"tuned":11034,"ybenko":11035,"Ã¡Å¡":11036,"Ã¶ller":11037,"utchins":11038,"Ġsales":11039,"Ġsynapses":11040,"Ġpuzzle":11041,"roids":11042,"Ġinstructions":11043,"Ġbalance":11044,"Ġbureaucratic":11045,"Ġbranch":11046,"ĠSHAP":11047,"ĠSynced":11048,"ĠRights":11049,"ĠCalifor":11050,"Ġhundreds":11051,"ĠPerspectives":11052,"Ġgorillas":11053,"Ġgatekeepers":11054,"Ġlegi":11055,"ĠJoyce":11056,"Ġconvergence":11057,"ĠGoverning":11058,"Ġtradeoff":11059,"Ġdisciplines":11060,"computer":11061,"Ġanalogous":11062,"Ġoutperformed":11063,"Ġindexing":11064,"Ġquotation":11065,"ĠAngwin":11066,"Ġscruffies":11067,"Ġdefendants":11068,"ouyet":11069,"Ġcircumstances":11070,"Ġterminology":11071,"Ġperceptron":11072,"Ġentertainment":11073,"Ġdeviations":11074,"ĠAnalytics":11075,"Healthcare":11076,"ĠContinue":11077,"Ġfacilitate":11078,"Ġfiltering":11079,"Ġdestroy":11080,"Ġmerchants":11081,"TÃ¼rkÃ§eÐ£ÐºÑĢÐ°ÑĹÐ½ÑģÑĮÐºÐ°":11082,"Ġconglomerates":11083,"BERT":11084,"Brezhone":11085,"Firefly":11086,"Gradient":11087,"Huang":11088,"Holland":11089,"MuZero":11090,"Meteor":11091,"Magyar":11092,"Sensationalism":11093,"Sloven":11094,"Towards":11095,"founder":11096,"ponent":11097,"patterns":11098,"Ã²l":11099,"organized":11100,"Ġpigeons":11101,"Ġcensorship":11102,"Ġinductive":11103,"ĠAustralian":11104,"Ġfrequently":11105,"Ġdigits":11106,"Ġmutual":11107,"Ġmitigate":11108,"etectable":11109,"ĠSingularity":11110,"ĠSusan":11111,"ĠTurkish":11112,"ĠRochester":11113,"ĠCurrents":11114,"istemology":11115,"Ġharms":11116,"Ġhomog":11117,"Ġhttps":11118,"ĠPositive":11119,"ĠBerger":11120,"Ġconventional":11121,"ĠLakoff":11122,"ialogue":11123,"ĠEttema":11124,"Ġchallenging":11125,"Ġuniversities":11126,"Ġcontroversy":11127,"Ġabstract":11128,"Ġenemy":11129,"Ġsubstanti":11130,"Ġreconstruction":11131,"typically":11132,"38926":11133,"Ġambiguous":11134,"ahdawi":11135,"Christopher":11136,"IsiZul":11137,"checking":11138,"Ġhighlighted":11139,"Improving":11140,"ĠPlotkin":11141,"ĠAlexandra":11142,"Ġexchanges":11143,"ĠMatthew":11144,"ĠMohammadi":11145,"Analytic":11146,"Ġskepticism":11147,"Ġrevealed":11148,"SuomiSven":11149,"DeutschEes":11150,"Ġdangerous":11151,"AzÉĻrbaycancaØªÛĨ":11152,"ÐľÐ¾Ð½Ð³Ð¾Ð»áĢĻ":11153,"Ù¾ÚļØªÙĪP":11154,"PolskiPortuguÃªsQara":11155,"LatvieÅ¡uLietuviÅ³":11156,"EuskaraÙģØ§Ø±Ø³ÛĮFranÃ§ais":11157,"American":11158,"Bosanski":11159,"Backpropagation":11160,"Courville":11161,"Citizen":11162,"Feliciant":11163,"GRU":11164,"GloVe":11165,"Hrvatski":11166,"Jawaà²ķà²¨":11167,"LaMDA":11168,"Mamba":11169,"Marvin":11170,"Morphological":11171,"OÊ»zbe":11172,"Swarm":11173,"Seppo":11174,"auley":11175,"bodied":11176,"hrani":11177,"mÃ¥lNorsk":11178,"moliar":11179,"narticle":11180,"nciteref":11181,"paqsha":11182,"qalpaqsha":11183,"txt":11184,"tazzo":11185,"´è¯Ń":11186,"´Ð¾Ð½ÑģÐºÐ¸":11187,"Äįina":11188,"åĲ´è¯Ń":11189,"Ġelsewhere":11190,"ĠÑŀÐ·Ð±Ðµ":11191,"ĸÑĨÐ°":11192,"Ġtrium":11193,"orskOccitan":11194,"alwalkar":11195,"Ġsatisf":11196,"Ġsudden":11197,"atasets":11198,"lelland":11199,"Ġpapers":11200,"Ġphenomena":11201,"Ġpedestrian":11202,"Ġcandid":11203,"Ġceremonies":11204,"Ġinevit":11205,"ickson":11206,"ellectual":11207,"Ġfraud":11208,"Ġfilters":11209,"Ġdeath":11210,"Ġdrawn":11211,"Ġmorning":11212,"Ġbombing":11213,"ĠbokmÃ¥lNorsk":11214,"Ġbroadcaster":11215,"Ġburden":11216,"Ġwinning":11217,"omputing":11218,"ĠnynorskOccitan":11219,"Ġnarratives":11220,"asperowicz":11221,"askowski":11222,"Ġtogether":11223,"urafsky":11224,"ĠSquare":11225,"idjourney":11226,"ĠTurismo":11227,"ĠRosenblatt":11228,"ĠRenaissance":11229,"ĠNorton":11230,"evertheless":11231,"Ġrejected":11232,"Ġthreshold":11233,"ĠPloeckl":11234,"ĠPenguin":11235,"ĠPensions":11236,"ĠPython":11237,"Ġprotocol":11238,"Ġprospects":11239,"Ġprobabilities":11240,"ĠBletchley":11241,"ĠJazeera":11242,"ĠDuda":11243,"ĠInventing":11244,"ĠWackman":11245,"ĠWerbos":11246,"Ġconvinced":11247,"Ġconfigur":11248,"ĠHebb":11249,"ĠGlobe":11250,"ĠGraham":11251,"ĠLinnainmaa":11252,"ĠLetters":11253,"ĠELIZA":11254,"Ġvocab":11255,"Ġexemplified":11256,"ĠStauber":11257,"ĠKorea":11258,"ĠChallenger":11259,"ĠChaffee":11260,"ipartito":11261,"1275382050":11262,"ostamizadeh":11263,"ieliÅĦ":11264,"Ġunbiased":11265,"ĠYahoo":11266,"ĠYuval":11267,"ibshirani":11268,"ĠProPublica":11269,"Ġemploys":11270,"ĠDeclaration":11271,"Newsworthiness":11272,"Ġappropriately":11273,"WikiversityWikidata":11274,"ĠConstellation":11275,"orgenstern":11276,"ÐºÑĩÐ°à¨ª":11277,"ĠMehryar":11278,"wholesale":11279,"ĠEmployment":11280,"Ø±Ú©Ø¬Ùĩ":11281,"ĠBerkeley":11282,"1273616726":11283,"ĠPerceptrons":11284,"ĠOpportunities":11285,"ĠDiabetes":11286,"skaTagalogà®¤à®®":11287,"ÐľÐ°ÐºÐµÐ´Ð¾Ð½ÑģÐºÐ¸":11288,"Ù¾ÙĨØ¬Ø§Ø":11289,"ÑĤÐ°ÑĢÐ°ÑĪÐºÐµÐ²Ñ":11290,"ĠCalifornia":11291,"Brezhoneg":11292,"IsiZuluÃįslenskaItaliano×¢×ĳ×¨×Ļ×ª":11293,"SuomiSvenskaTagalogà®¤à®®":11294,"DeutschEestiÎķÎ»Î»Î·Î½Î¹ÎºÎ¬EspaÃ±olEsperanto":11295,"AzÉĻrbaycancaØªÛĨØ±Ú©Ø¬Ùĩ":11296,"PolskiPortuguÃªsQaraqalpaqsha":11297,"Feliciantonio":11298,"OÊ»zbekcha":11299,"ĠÑŀÐ·Ð±ÐµÐºÑĩÐ°à¨ª":11300,"ĠnynorskOccitanà¬ĵà¬¡":11301,"Ù¾ÙĨØ¬Ø§Ø¨ÛĮ":11302,"ÑĤÐ°ÑĢÐ°ÑĪÐºÐµÐ²ÑĸÑĨÐ°":11303,"AzÉĻrbaycancaØªÛĨØ±Ú©Ø¬Ùĩà¦¬":11304,")}":11305,")\\\"]":11306,".'":11307,".-":11308,"020":11309,"013":11310,"014":11311,"088":11312,"038":11313,"060":11314,"059":11315,"039":11316,"099":11317,"0190":11318,"1197":11319,"226":11320,"2139":11321,"391":11322,"316":11323,"311":11324,"397":11325,"315":11326,"313":11327,"314":11328,"325":11329,"390":11330,"350":11331,"385":11332,"355":11333,"416":11334,"413":11335,"414":11336,"417":11337,"426":11338,"490":11339,"486":11340,"421":11341,"487":11342,"499":11343,"435":11344,"523":11345,"529":11346,"534":11347,"589":11348,"5402":11349,"5805":11350,"693":11351,"612":11352,"627":11353,"680":11354,"686":11355,"645":11356,"682":11357,"6245":11358,"716":11359,"790":11360,"738":11361,"787":11362,"769":11363,"7114":11364,"7139":11365,"7449":11366,"8201":11367,"800":11368,"811":11369,"850":11370,"837":11371,"899":11372,"849":11373,"987":11374,"983":11375,"981":11376,"956":11377,"943":11378,";),":11379,"?,":11380,"?\",\"":11381,"AO":11382,"AR":11383,"Av":11384,"Are":11385,"Aur":11386,"Ast":11387,"Ask":11388,"After":11389,"Atom":11390,"Affective":11391,"AGI":11392,"Astronomy":11393,"Agriculture":11394,"BL":11395,"BO":11396,"Bl":11397,"Bar":11398,"Bol":11399,"Bri":11400,"Bab":11401,"Bill":11402,"Bern":11403,"Blog":11404,"Bank":11405,"Belief":11406,"Blogging":11407,"Bikol":11408,"Banerjee":11409,"Buchanan":11410,"CF":11411,"CW":11412,"Co":11413,"Cor":11414,"Cast":11415,"Culture":11416,"Cry":11417,"Chen":11418,"Cognitive":11419,"Cultural":11420,"Carl":11421,"Civil":11422,"Cornell":11423,"Ciaramella":11424,"Craft":11425,"Cambria":11426,"Civic":11427,"CPU":11428,"Crunch":11429,"DE":11430,"DP":11431,"Di":11432,"Ded":11433,"Del":11434,"Dom":11435,"During":11436,"Depend":11437,"Domin":11438,"Dyson":11439,"Dennett":11440,"DCC":11441,"Darwin":11442,"Dynam":11443,"Despite":11444,"Datasets":11445,"Ech":11446,"Even":11447,"Earth":11448,"ECML":11449,"Ethem":11450,"FA":11451,"FE":11452,"FP":11453,"Far":11454,"Fol":11455,"Fang":11456,"Fake":11457,"FID":11458,"Father":11459,"Fox":11460,"Fred":11461,"Femin":11462,"Follow":11463,"Fashion":11464,"Fuzzy":11465,"Fidel":11466,"Foreign":11467,"Fifth":11468,"Facial":11469,"Freedom":11470,"Gon":11471,"God":11472,"Gate":11473,"Gated":11474,"Game":11475,"Give":11476,"Games":11477,"Gating":11478,"Gran":11479,"Greg":11480,"Gael":11481,"Gene":11482,"GNN":11483,"GAs":11484,"Ground":11485,"Garry":11486,"Gemini":11487,"Grammatical":11488,"Gordon":11489,"Giann":11490,"HW":11491,"Hum":11492,"Hard":11493,"Hail":11494,"Haus":11495,"Horn":11496,"Hinton":11497,"Higher":11498,"Hypot":11499,"Herbert":11500,"Henri":11501,"Highest":11502,"IN":11503,"IV":11504,"If":11505,"Ig":11506,"Ion":11507,"Ich":11508,"Ilo":11509,"ILP":11510,"Ill":11511,"Imit":11512,"IEEE":11513,"ICL":11514,"ICA":11515,"Ilya":11516,"ICML":11517,"ICE":11518,"IoT":11519,"Ja":11520,"Jin":11521,"Jan":11522,"Jason":11523,"Joseph":11524,"JÃ¼rgen":11525,"JCAI":11526,"Ka":11527,"Kar":11528,"Kal":11529,"Kis":11530,"Kism":11531,"Khan":11532,"Kling":11533,"Kevin":11534,"Kumar":11535,"Kahneman":11536,"Kernan":11537,"LM":11538,"Lo":11539,"Lin":11540,"Lim":11541,"Lot":11542,"Lamp":11543,"Lud":11544,"Lack":11545,"Lee":11546,"Law":11547,"Loss":11548,"Linguistics":11549,"Library":11550,"LAC":11551,"LTC":11552,"Ligure":11553,"Larson":11554,"Louis":11555,"LAB":11556,"Lemm":11557,"Limitations":11558,"Llama":11559,"MA":11560,"Mem":11561,"Mill":11562,"More":11563,"Marg":11564,"MLP":11565,"Modern":11566,"Manning":11567,"Math":11568,"Middle":11569,"Memory":11570,"Moore":11571,"Mixed":11572,"Magazines":11573,"Morrow":11574,"Multiv":11575,"MIR":11576,"Midjourney":11577,"NR":11578,"Ned":11579,"Nan":11580,"Not":11581,"NTE":11582,"Neat":11583,"Normal":11584,"Nick":11585,"Naj":11586,"Note":11587,"Nature":11588,"Named":11589,"Nathan":11590,"Narrow":11591,"Narrative":11592,"NMT":11593,"OO":11594,"OOM":11595,"PF":11596,"PM":11597,"PP":11598,"Pa":11599,"Pi":11600,"Pal":11601,"Pan":11602,"Pund":11603,"Power":11604,"Pink":11605,"Plan":11606,"Policy":11607,"PCA":11608,"Portal":11609,"Powered":11610,"Phenomen":11611,"POS":11612,"Peace":11613,"Pereira":11614,"Pritzel":11615,"PCF":11616,"PGAs":11617,"Qian":11618,"Qwen":11619,"Queen":11620,"RG":11621,"RP":11622,"Ris":11623,"Ray":11624,"RTE":11625,"Rud":11626,"Rational":11627,"Rober":11628,"Ritter":11629,"ROC":11630,"Roles":11631,"RFR":11632,"RMM":11633,"RDL":11634,"Rendering":11635,"Sam":11636,"Sun":11637,"Side":11638,"Serv":11639,"Sto":11640,"Size":11641,"Stop":11642,"Sense":11643,"Smith":11644,"Sexual":11645,"Sensor":11646,"Sora":11647,"SVM":11648,"Sports":11649,"SGD":11650,"Sigm":11651,"Speed":11652,"Smart":11653,"TV":11654,"Tech":11655,"Tone":11656,"Tax":11657,"Template":11658,"Times":11659,"Tensor":11660,"Taylor":11661,"TRA":11662,"Termin":11663,"Tabloid":11664,"Trevor":11665,"UM":11666,"Ud":11667,"VC":11668,"VÃ":11669,"Vas":11670,"Very":11671,"WF":11672,"Win":11673,"War":11674,"With":11675,"Work":11676,"Wave":11677,"Writ":11678,"Wood":11679,"Western":11680,"Week":11681,"Wiley":11682,"Weather":11683,"Watchdog":11684,"XXI":11685,"Yann":11686,"You":11687,"Yellow":11688,"Zaz":11689,"ZhaoLovreglio":11690,"[[\"":11691,"]\",\"":11692,"]},\"":11693,"_(":11694,"aÕ":11695,"aen":11696,"aol":11697,"aac":11698,"aik":11699,"aure":11700,"ban":11701,"but":11702,"bro":11703,"bum":11704,"bag":11705,"bign":11706,"bone":11707,"bra":11708,"bie":11709,"bining":11710,"blp":11711,"building":11712,"bagh":11713,"biotics":11714,"cel":11715,"cell":11716,"city":11717,"current":11718,"cognitive":11719,"craft":11720,"dic":11721,"det":11722,"dif":11723,"data":11724,"due":11725,"duct":11726,"dric":11727,"dsky":11728,"down":11729,"dai":11730,"duce":11731,"draw":11732,"distance":11733,"ees":11734,"eess":11735,"eot":11736,"eav":11737,"eated":11738,"eogram":11739,"fin":11740,"fot":11741,"fund":11742,"fect":11743,"fra":11744,"fires":11745,"fixed":11746,"fledged":11747,"gent":11748,"gem":11749,"gers":11750,"gov":11751,"gant":11752,"gue":11753,"gone":11754,"gian":11755,"gib":11756,"gression":11757,"good":11758,"gsub":11759,"gender":11760,"guid":11761,"gelh":11762,"gbag":11763,"hur":11764,"hol":11765,"ham":11766,"hap":11767,"hour":11768,"hance":11769,"high":11770,"hiann":11771,"houses":11772,"ii":11773,"iang":11774,"iform":11775,"ief":11776,"iper":11777,"iates":11778,"iert":11779,"iants":11780,"iemi":11781,"ji":11782,"jit":11783,"jews":11784,"jun":11785,"jrc":11786,"ke":11787,"km":11788,"kis":11789,"kci":11790,"kop":11791,"kra":11792,"kenn":11793,"kme":11794,"krah":11795,"kano":11796,"lu":11797,"lx":11798,"len":11799,"lim":11800,"lav":11801,"lity":11802,"lik":11803,"lak":11804,"liel":11805,"mc":11806,"mi":11807,"mu":11808,"map":11809,"mund":11810,"mak":11811,"mind":11812,"mount":11813,"machines":11814,"mended":11815,"master":11816,"middle":11817,"mersion":11818,"net":11819,"nem":11820,"nst":11821,"national":11822,"norm":11823,"nose":11824,"nings":11825,"nugg":11826,"ntable":11827,"narrow":11828,"nno":11829,"nih":11830,"oe":11831,"oj":11832,"ois":11833,"oel":11834,"oot":11835,"oop":11836,"oud":11837,"oever":11838,"oples":11839,"pti":11840,"pic":11841,"pur":11842,"pite":11843,"pare":11844,"part":11845,"pstein":11846,"rm":11847,"rn":11848,"rs":11849,"rz":11850,"ring":11851,"rut":11852,"rup":11853,"rant":11854,"race":11855,"rally":11856,"rash":11857,"rze":11858,"ruz":11859,"rives":11860,"sg":11861,"sen":11862,"sur":11863,"sid":11864,"sun":11865,"say":11866,"sci":11867,"sum":11868,"sip":11869,"sens":11870,"signal":11871,"second":11872,"tp":11873,"tac":11874,"tect":11875,"test":11876,"tologies":11877,"tze":11878,"tasks":11879,"tamd":11880,"uec":11881,"uitive":11882,"uerg":11883,"uAv":11884,"vary":11885,"verv":11886,"vern":11887,"voc":11888,"vind":11889,"vvisi":11890,"vii":11891,"wal":11892,"wig":11893,"was":11894,"will":11895,"wass":11896,"wyn":11897,"wne":11898,"wah":11899,"wined":11900,"wald":11901,"week":11902,"wiy":11903,"yun":11904,"yram":11905,"you":11906,"yler":11907,"yuan":11908,"ywin":11909,"ydd":11910,"ygh":11911,"zem":11912,"zap":11913,"zos":11914,"zgin":11915,"zli":11916,"zhev":11917,"{\\":11918,"},":11919,"}{":11920,"¡Ð¾":11921,"¥àº":11922,"¦Ûĩ":11923,"§Ó":11924,"§Ģ":11925,"§Lat":11926,"§Õ¶":11927,"©ç²µèªŀ":11928,"¬Ø©":11929,"®à´":11930,"¯Ø§Ø±Ø":11931,"°Õ¡ÕµÕ¥":11932,"±ÖĢÕ¥":11933,"²à´":11934,"²Ð°ÑĪ":11935,"²àº":11936,"³ble":11937,"³Ñĭ":11938,"³ÙĨ":11939,"´Haus":11940,"µro":11941,"µØ±":11942,"·Ð¸":11943,"¸à¦":11944,"º½":11945,"ºè":11946,"ºÛĩ":11947,"¼ĭ":11948,"¼à¦¾":11949,"½Simple":11950,"¿Õ¡Õ":11951,"Ã«":11952,"Ä±":11953,"Å©":11954,"ÅĤ":11955,"Î£":11956,"Ðļ":11957,"Ð§Ó":11958,"Ð²Ð°ÑĪ":11959,"ÑĪ":11960,"Òļ":11961,"ÒĽ":11962,"Ò¡Ð¾":11963,"Ò·Ð¸":11964,"Ó£":11965,"Ô±ÖĢÕ¥":11966,"Õ´Õ":11967,"Õ§Õ¶":11968,"Ö´":11969,"ÖĤ":11970,"×ĵ":11971,"Ø¦Ûĩ":11972,"Ø³ÙĨ":11973,"ØµØ±":11974,"ØºÛĩ":11975,"Ùī":11976,"ÚĨ":11977,"ÚĮ":11978,"Ûķ":11979,"ÜĲ":11980,"à§Ģ":11981,"à¼ĭ":11982,"áĪ":11983,"áĬ":11984,"áŁ":11985,"áº½":11986,"è¨":11987,"ï¼":11988,"Ġ?":11989,"Ġ}":11990,"Ġâ":11991,"Ġ93":11992,"ĠâĢ":11993,"Ġedic":11994,"Ġ85":11995,"ĠâĢĶ":11996,"Ġeds":11997,"Ġroman":11998,"Ġicon":11999,"ĤBosanski":12000,"Ħà¶":12001,"ħà¦":12002,"ĳÐ²Ð°ÑĪ":12003,"Ĵà¶":12004,"Łá±":12005,"inate":12006,"inik":12007,"inated":12008,"incess":12009,"inces":12010,"inator":12011,"inctive":12012,"inrich":12013,"inspired":12014,"inburg":12015,"erre":12016,"eric":12017,"eros":12018,"erov":12019,"erical":12020,"erstand":12021,"erald":12022,"erenko":12023,"erior":12024,"erkle":12025,"Ġtro":12026,"Ġtom":12027,"Ġtac":12028,"Ġties":12029,"Ġtens":12030,"Ġtax":12031,"Ġterror":12032,"Ġteled":12033,"oni":12034,"onia":12035,"onoun":12036,"onentially":12037,"onfir":12038,"Ġaro":12039,"Ġaware":12040,"Ġaston":12041,"Ġawar":12042,"Ġastronomy":12043,"Ġagriculture":12044,"tip":12045,"tiz":12046,"tise":12047,"tization":12048,"ortion":12049,"orpe":12050,"orich":12051,"orable":12052,"oravec":12053,"oradic":12054,"orjit":12055,"enin":12056,"ening":12057,"entive":12058,"enous":12059,"entical":12060,"arc":12061,"aret":12062,"arev":12063,"arow":12064,"arative":12065,"araj":12066,"arXiv":12067,"areness":12068,"heon":12069,"alan":12070,"alvan":12071,"algorithm":12072,"alta":12073,"aluated":12074,"edge":12075,"edik":12076,"esh":12077,"ester":12078,"esley":12079,"especially":12080,"estimate":12081,"anor":12082,"anop":12083,"anio":12084,"anie":12085,"anaz":12086,"anathan":12087,"anmen":12088,"anowicz":12089,"ancing":12090,"isa":12091,"isy":12092,"ison":12093,"isation":12094,"isory":12095,"isper":12096,"isra":12097,"ishes":12098,"isemantic":12099,"isdic":12100,"Ġthesis":12101,"ingd":12102,"uta":12103,"uted":12104,"rec":12105,"recom":12106,"reements":12107,"rebro":12108,"Ġsid":12109,"Ġspars":12110,"Ġsex":12111,"Ġsell":12112,"Ġsort":12113,"Ġspr":12114,"Ġsector":12115,"Ġsects":12116,"Ġsie":12117,"Ġsamples":12118,"Ġslower":12119,"Ġscript":12120,"Ġsoph":12121,"Ġsports":12122,"Ġsustainable":12123,"Ġsafe":12124,"Ġscripts":12125,"Ġsuitable":12126,"Ġstip":12127,"Ġowne":12128,"aton":12129,"aten":12130,"ateman":12131,"atories":12132,"atner":12133,"atlantic":12134,"atanio":12135,"2078":12136,"lean":12137,"leber":12138,"leading":12139,"leted":12140,"lemma":12141,"leasure":12142,"Ġpay":12143,"Ġport":12144,"Ġpamp":12145,"Ġpour":12146,"Ġpand":12147,"Ġpack":12148,"Ġpip":12149,"Ġpace":12150,"Ġpok":12151,"Ġpose":12152,"Ġpne":12153,"Ġpension":12154,"Ġpao":12155,"Ġpdf":12156,"Ġphilosophers":12157,"Ġpowers":12158,"Ġpyram":12159,"Ġportion":12160,"item":12161,"itory":12162,"itual":12163,"chaf":12164,"change":12165,"chastic":12166,"rotia":12167,"Ġcam":12168,"Ġcyber":12169,"Ġcyberne":12170,"ndetectable":12171,"Ġinac":12172,"Ġinef":12173,"Ġinferences":12174,"Ġinformed":12175,"Ġinvisible":12176,"iche":12177,"icas":12178,"icants":12179,"icators":12180,"elon":12181,"eles":12182,"elov":12183,"elix":12184,"elites":12185,"elzadeh":12186,"ĠAz":12187,"ĠAff":12188,"ĠActive":12189,"ĠAway":12190,"ĠAustin":12191,"ĠAaron":12192,"ĠALPAC":12193,"ĠAvvisi":12194,"Ġfu":12195,"Ġfly":12196,"Ġflock":12197,"Ġfals":12198,"Ġfears":12199,"Ġfilled":12200,"Ġfrontier":12201,"Ġfifth":12202,"Ġfaith":12203,"Ġfertil":12204,"Ġfreely":12205,"Ġfresh":12206,"Ġdu":12207,"Ġdep":12208,"Ġdedic":12209,"Ġdail":12210,"Ġdivers":12211,"Ġdram":12212,"Ġdiam":12213,"Ġdying":12214,"Ġdiag":12215,"Ġduk":12216,"Ġdangers":12217,"Ġdualism":12218,"Ġdystop":12219,"Ġmw":12220,"Ġmal":12221,"Ġmim":12222,"Ġmir":12223,"Ġmos":12224,"Ġmag":12225,"Ġmedic":12226,"Ġmorp":12227,"Ġmachinery":12228,"Ġmoles":12229,"Ġmole":12230,"Ġmoney":12231,"Ġmystery":12232,"enton":12233,"entzos":12234,"Ġbus":12235,"Ġbord":12236,"Ġblock":12237,"Ġbene":12238,"Ġbrow":12239,"Ġbacter":12240,"Ġblogs":12241,"Ġbinary":12242,"Ġblogging":12243,"Ġbloc":12244,"Ġbatter":12245,"Ġbioinformatics":12246,"Ġbanned":12247,"Ġbreadth":12248,"Ġwin":12249,"Ġwik":12250,"Ġwarr":12251,"Ġwater":12252,"Ġwestern":12253,"Ġwearable":12254,"Ġwanted":12255,"Ġwatches":12256,"iga":12257,"igion":12258,"igue":12259,"iguro":12260,"igwith":12261,"iggers":12262,"omason":12263,"omaa":12264,"omotion":12265,"omposition":12266,"Ġnorth":12267,"Ġnineteenth":12268,"ĠnaÃ¯ve":12269,"Ġnevertheless":12270,"eton":12271,"eting":12272,"etail":12273,"etsky":12274,"etta":12275,"aser":12276,"asso":12277,"asible":12278,"ashed":12279,"aspar":12280,"asco":12281,"ascha":12282,"aschaf":12283,"asrotia":12284,"emar":12285,"emont":12286,"emotion":12287,"emiotics":12288,"embles":12289,"Ġ120":12290,"Ġ111":12291,"Ġ123":12292,"Ġ117":12293,"Ġ125":12294,"Ġ127":12295,"Ġ140":12296,"Ġ160":12297,"Ġ134":12298,"Ġtoler":12299,"urts":12300,"urian":12301,"urns":12302,"urman":12303,"uristics":12304,"urche":12305,"urIPS":12306,"urisdic":12307,"usz":12308,"usar":12309,"usse":12310,"ustive":12311,"usual":12312,"usker":12313,"uslim":12314,"ola":12315,"olia":12316,"olated":12317,"olding":12318,"ĠSI":12319,"ĠSa":12320,"ĠSw":12321,"ĠSom":12322,"ĠSav":12323,"ĠSlo":12324,"ĠSee":12325,"ĠSaw":12326,"ĠSample":12327,"ĠSymb":12328,"ĠSpecial":12329,"ĠSix":12330,"ĠSource":12331,"ĠSaid":12332,"ĠSister":12333,"ĠSaud":12334,"ĠSky":12335,"ĠSemi":12336,"ĠSAS":12337,"ĠSatell":12338,"ĠSfn":12339,"ĠSuy":12340,"ĠSwami":12341,"ĠSainato":12342,"ĠSocher":12343,"ĠSaddle":12344,"ĠSascha":12345,"ceeds":12346,"cepti":12347,"ewart":12348,"ewise":12349,"9353":12350,"Ġ206":12351,"910":12352,"913":12353,"ama":12354,"amation":12355,"amir":12356,"amian":12357,"amining":12358,"amuel":12359,"amoto":12360,"amowski":12361,"amkis":12362,"ĠMa":12363,"ĠMal":12364,"ĠMed":12365,"ĠMec":12366,"ĠMun":12367,"ĠMot":12368,"ĠMach":12369,"ĠMate":12370,"ĠMont":12371,"ĠMag":12372,"ĠMember":12373,"ĠMost":12374,"ĠMake":12375,"ĠMah":12376,"ĠMicro":12377,"ĠMath":12378,"ĠMental":12379,"ĠMillion":12380,"ĠMAT":12381,"ĠMurder":12382,"ĠMultimedia":12383,"ĠMultimodal":12384,"ĠMoon":12385,"ĠMiner":12386,"ĠMidura":12387,"ĠMystery":12388,"ĠMashaghi":12389,"ĠMurphy":12390,"ĠMistral":12391,"ĠMiddendorf":12392,"ĠMikolov":12393,"ĠMÃ¶ller":12394,"ĠMuslim":12395,"ecutive":12396,"idi":12397,"ided":12398,"iding":12399,"idual":12400,"idya":12401,"outs":12402,"ĠTop":12403,"ĠTra":12404,"ĠTake":12405,"ĠTrib":12406,"ĠTask":12407,"ĠTversky":12408,"ĠTorniai":12409,"ĠTurchin":12410,"ĠTalwalkar":12411,"ĠTibshirani":12412,"ĠTasso":12413,"ĠRon":12414,"ĠRen":12415,"ĠRus":12416,"ĠRain":12417,"ĠRug":12418,"ĠRele":12419,"ĠRose":12420,"ĠRoss":12421,"ĠRules":12422,"ĠRiver":12423,"ĠResp":12424,"ĠRCA":12425,"ĠRampton":12426,"ĠRamezanpour":12427,"ĠRandy":12428,"ĠRostamizadeh":12429,"ĠRhiann":12430,"arshall":12431,"ĠCA":12432,"ĠCor":12433,"ĠCarn":12434,"ĠCain":12435,"ĠCable":12436,"ĠCost":12437,"ĠCra":12438,"ĠCaus":12439,"ĠCBC":12440,"ĠCorn":12441,"ĠCÃ©":12442,"ĠChel":12443,"ĠCarter":12444,"ĠCatal":12445,"ĠCzech":12446,"ĠCornell":12447,"ĠCNA":12448,"ĠCorre":12449,"ĠCambria":12450,"ĠCivic":12451,"ĠCybers":12452,"ĠChemical":12453,"ĠCountries":12454,"ĠCLTC":12455,"ĠIRE":12456,"ĠIran":12457,"ĠIPS":12458,"ĠIde":12459,"ĠIEA":12460,"ĠIJCAI":12461,"16402":12462,"iler":12463,"ilary":12464,"ilies":12465,"ilner":12466,"iliates":12467,"Ġla":12468,"Ġload":12469,"Ġlength":12470,"Ġloos":12471,"Ġlui":12472,"Ġlicensing":12473,"ĠNext":12474,"ĠNour":12475,"ĠNou":12476,"ĠNeta":12477,"ĠNathan":12478,"ĠNarrative":12479,"ĠNarayanan":12480,"ĠNaser":12481,"sta":12482,"stop":12483,"stream":12484,"evy":12485,"eves":12486,"evacuation":12487,"Ġrein":12488,"Ġreac":12489,"Ġreference":12490,"Ġreaches":12491,"Ġrepos":12492,"Ġreaction":12493,"Ġreactor":12494,"Ġrevisited":12495,"Ġreorganized":12496,"ima":12497,"imer":12498,"iman":12499,"imals":12500,"ulz":12501,"uler":12502,"ulum":12503,"ulik":12504,"ulations":12505,"ulary":12506,"ultit":12507,"ulative":12508,"ulman":12509,"uller":12510,"ullet":12511,"ulpan":12512,"ulius":12513,"iston":12514,"istingu":12515,"Ġhy":12516,"Ġhor":12517,"Ġhos":12518,"Ġhub":12519,"Ġhost":12520,"Ġhors":12521,"Ġharv":12522,"Ġhiring":12523,"Ġholy":12524,"Ġhopes":12525,"Ġhurts":12526,"adav":12527,"adian":12528,"adte":12529,"Ġthing":12530,"tica":12531,"ticulated":12532,"ticularly":12533,"iva":12534,"ivaj":12535,"ĠPew":12536,"ĠProm":12537,"ĠPop":12538,"ĠPant":12539,"ĠPall":12540,"ĠPast":12541,"ĠPric":12542,"ĠPlan":12543,"ĠPerson":12544,"ĠPiet":12545,"ĠPuzz":12546,"ĠPsych":12547,"ĠPoll":12548,"ĠPBS":12549,"ĠPitch":12550,"ĠPhilosophical":12551,"ĠPortug":12552,"ĠPasc":12553,"ĠPiat":12554,"ĠPereira":12555,"ĠPritzel":12556,"ĠPhilosopher":12557,"ĠPennachin":12558,"ĠPutnam":12559,"ĠPentland":12560,"ĠPaths":12561,"ĠPagallo":12562,"ĠPaol":12563,"ersey":12564,"acific":12565,"essment":12566,"essler":12567,"ĠonArtificial":12568,"Ġontologies":12569,"gebra":12570,"rier":12571,"riol":12572,"unes":12573,"unsupervised":12574,"unbordered":12575,"uniy":12576,"unobserv":12577,"oda":12578,"odor":12579,"odge":12580,").\"":12581,"1605":12582,"otog":12583,"othy":12584,"1900":12585,"1960":12586,"1908":12587,"1957":12588,"1969":12589,"1962":12590,"1951":12591,"19263":12592,"terprise":12593,"inear":12594,"lyss":12595,"lyea":12596,"lymp":12597,"lyusar":12598,"elles":12599,"ellion":12600,"avin":12601,"avis":12602,"avest":12603,"avaid":12604,"avuk":12605,"owed":12606,"owell":12607,"arnad":12608,"arnia":12609,"arnoff":12610,"ithium":12611,"Ġ2026":12612,"Ġ20250":12613,"Ġoral":12614,"Ġorient":12615,"thn":12616,"thal":12617,"that":12618,"thread":12619,"thony":12620,"thouse":12621,"third":12622,"thinking":12623,"ogun":12624,"oglu":12625,"Ġproceedings":12626,"Ġprobably":12627,"Ġprotected":12628,"Ġprotection":12629,"abh":12630,"abral":12631,"abadi":12632,"abbagh":12633,"aya":12634,"ayev":12635,"ĠBC":12636,"ĠBo":12637,"ĠBia":12638,"ĠBass":12639,"ĠBible":12640,"ĠBetween":12641,"ĠBran":12642,"ĠBroadcast":12643,"ĠBox":12644,"ĠBench":12645,"ĠBites":12646,"ĠBurg":12647,"ĠBaker":12648,"ĠBank":12649,"ĠBao":12650,"ĠBelief":12651,"ĠBatter":12652,"ĠBioinformatics":12653,"ĠBuilding":12654,"ĠBailey":12655,"ĠBanerjee":12656,"ĠBimbo":12657,"ĠBulg":12658,"Ġgif":12659,"Ġgave":12660,"Ġgone":12661,"Ġgive":12662,"Ġgreen":12663,"Ġgaming":12664,"Ġgramm":12665,"Ġgiants":12666,"Ġgwiy":12667,"Ġisolation":12668,"Ġrad":12669,"Ġraw":12670,"Ġrail":12671,"Ġradi":12672,"Ġriders":12673,"Ġrival":12674,"Ġranking":12675,"Ġrigor":12676,"ĠrStar":12677,"Ġruler":12678,"Ġlever":12679,"Ġleaves":12680,"Ġlemma":12681,"Ġletter":12682,"Ġlethal":12683,"ĠJac":12684,"ĠJens":12685,"ĠJoh":12686,"ĠJaw":12687,"ĠJason":12688,"ĠJoint":12689,"ĠJude":12690,"ĠJustin":12691,"ĠJÃ¼rgen":12692,"ĠJeopardy":12693,"ĠJurafsky":12694,"ĠJMIR":12695,"ĠJersey":12696,"arnings":12697,"1023":12698,"1086":12699,"1059":12700,"1028":12701,"1039":12702,"10694":12703,"Ġ===":12704,"ficulti":12705,"\":[[\"":12706,"Ġforth":12707,"Ġforum":12708,"ionen":12709,"ional":12710,"ionwe":12711,"irk":12712,"iron":12713,"irical":12714,"irable":12715,"iraud":12716,"irmal":12717,"irzli":12718,"plika":12719,"apa":12720,"appl":12721,"apnik":12722,"appoint":12723,"opel":12724,"opol":12725,"berstein":12726,"ĠDis":12727,"ĠDat":12728,"ĠDue":12729,"ĠDian":12730,"ĠDark":12731,"ĠDepend":12732,"ĠDream":12733,"ĠDuan":12734,"ĠDatab":12735,"ĠDennett":12736,"ĠDead":12737,"ĠDutch":12738,"ĠDarwin":12739,"ĠDynam":12740,"ĠDavenport":12741,"ĠDrum":12742,"ĠDirectorate":12743,"ĠDamian":12744,"umer":12745,"umnist":12746,"umonia":12747,"Ġnewsshe":12748,"ĠIntell":12749,"ĠInstit":12750,"ĠInformed":12751,"ĠInfrastructure":12752,"ĠInquiry":12753,"osure":12754,"oscience":12755,"osoda":12756,"ĠWon":12757,"ĠWel":12758,"ĠWord":12759,"ĠWend":12760,"ĠWard":12761,"ĠWild":12762,"ĠWright":12763,"ĠWhy":12764,"ĠWants":12765,"ĠWinter":12766,"ĠWald":12767,"ĠWearable":12768,"ĠWanta":12769,"ĠWrÃ":12770,"ĠWitten":12771,"ĠWeyerer":12772,"Ġask":12773,"Ġconv":12774,"Ġconcent":12775,"Ġcondition":12776,"Ġconclus":12777,"Ġconfr":12778,"Ġconditional":12779,"Ġcomments":12780,"Ġcomprises":12781,"ĠHis":12782,"ĠHel":12783,"ĠHad":12784,"ĠHay":12785,"ĠHap":12786,"ĠHug":12787,"ĠHend":12788,"ĠHave":12789,"ĠHuss":12790,"ĠHann":12791,"ĠHigh":12792,"ĠHels":12793,"ĠHardware":12794,"ĠHung":12795,"ĠHypot":12796,"ĠHipp":12797,"ĠHume":12798,"ĠHelp":12799,"ĠHalper":12800,"ĠHaugeland":12801,"ĠHempel":12802,"ĠHutchins":12803,"ĠHinrich":12804,"ĠHerald":12805,"ĠHusse":12806,"ĠThem":12807,"ĠGen":12808,"ĠGree":12809,"ĠGross":12810,"ĠGreen":12811,"ĠGiro":12812,"ĠGender":12813,"ĠGeyer":12814,"ĠGPUs":12815,"ĠGordon":12816,"ĠGavin":12817,"ĠLZ":12818,"ĠLab":12819,"ĠLight":12820,"ĠLind":12821,"ĠLeb":12822,"ĠLoss":12823,"ĠLarg":12824,"ĠLaz":12825,"ĠLock":12826,"ĠLater":12827,"ĠLux":12828,"ĠLCC":12829,"ĠLittle":12830,"ĠLangley":12831,"ĠLicensing":12832,"ĠLyakh":12833,"ĠLIME":12834,"ĠLisp":12835,"ĠLXXI":12836,"ĠLenin":12837,"ĠLithium":12838,"ĠArntz":12839,"ĠArvind":12840,"boken":12841,"ially":12842,"ĠFre":12843,"ĠFam":12844,"ĠFab":12845,"ĠFour":12846,"ĠFear":12847,"ĠFall":12848,"ĠFame":12849,"ĠFind":12850,"ĠFrey":12851,"ĠFred":12852,"ĠFull":12853,"ĠFrequ":12854,"ĠFriedman":12855,"ĠFPGAs":12856,"ĠFelix":12857,"ĠFuller":12858,"ĠFirzli":12859,"Ġbegin":12860,"ĠEs":12861,"ĠEw":12862,"ĠEight":12863,"ĠEug":12864,"ĠEmer":12865,"ĠEuro":12866,"ĠEll":12867,"ĠEvan":12868,"ĠEarly":12869,"ĠEthem":12870,"ĠEyes":12871,"ĠEpstein":12872,"ĠEthn":12873,"izons":12874,"izuk":12875,"izzi":12876,"Ġalert":12877,"Ġaligned":12878,"Ġaltered":12879,"Ġalgebra":12880,"ĠlearningSee":12881,"ctuation":12882,"CITEREFRe":12883,"CITEREFSt":12884,"CITEREFNew":12885,"CITEREFUrb":12886,"Ġant":12887,"Ġanym":12888,"Ġanomal":12889,"Ġanticip":12890,"Ġanxi":12891,"Ġanimal":12892,"Ġanimals":12893,"Ġvary":12894,"Ġvest":12895,"Ġvill":12896,"Ġventure":12897,"Ġvague":12898,"Ġvoting":12899,"ortes":12900,"Ġstar":12901,"Ġstay":12902,"Ġstop":12903,"Ġstage":12904,"Ġstance":12905,"Ġstake":12906,"Ġstric":12907,"Ġstochastic":12908,"Ġstumped":12909,"ampuz":12910,"ubt":12911,"ubai":12912,"ouragh":12913,"Ġwhom":12914,"Ġwhites":12915,"iks":12916,"andoned":12917,"andmaster":12918,"andola":12919,"ideb":12920,"ovan":12921,"oving":12922,"overs":12923,"overt":12924,"ovani":12925,"Ġwithdraw":12926,"Ġ210":12927,"Ġ233":12928,"Ġ230":12929,"Ġ259":12930,"Ġ235":12931,"Ġ275":12932,"ationsAudio":12933,"understand":12934,"Ġexclude":12935,"ivedha":12936,"earched":12937,"ectator":12938,"Ġusual":12939,"tification":12940,"uption":12941,"uple":12942,"upid":12943,"quin":12944,"quence":12945,"quality":12946,"quoted":12947,"qudai":12948,"quially":12949,"Ġiteration":12950,"formal":12951,"ĠOft":12952,"ĠOtt":12953,"ĠOwn":12954,"ĠOkl":12955,"ĠOmohundro":12956,"ĠOriol":12957,"ĠOlymp":12958,"mentary":12959,"mentator":12960,"seud":12961,"Ġaren":12962,"Ġoriginating":12963,"bara":12964,"loquially":12965,"udin":12966,"antos":12967,"antonio":12968,"antovani":12969,"aki":12970,"aks":12971,"akly":12972,"akura":12973,"akkol":12974,"akota":12975,"ported":12976,"Ġtrick":12977,"Ġtracking":12978,"Ġtrivial":12979,"Ġoriginally":12980,"cles":12981,"clif":12982,"uglas":12983,"ugliel":12984,"ifying":12985,"ifiable":12986,"ĠUber":12987,"ĠUtop":12988,"ĠUgo":12989,"ĠUrb":12990,"ĠUbit":12991,"ĠUkra":12992,"ĠUygh":12993,"ĠUlyss":12994,"agm":12995,"agen":12996,"agar":12997,"agers":12998,"agments":12999,"agasy":13000,"uclein":13001,"002":13002,"007":13003,"0015":13004,"0018":13005,"0022":13006,"0075":13007,"ansboth":13008,"nals":13009,"Ġ192":13010,"Ġ195":13011,"Ġ196":13012,"Ġ199":13013,"Ġ1920":13014,"Ġ1926":13015,"Ġ1940":13016,"Ġ1985":13017,"Ġ1987":13018,"Ġ1959":13019,"Ġ1945":13020,"Ġ1989":13021,"Ġ1965":13022,"Ġ1975":13023,"Ġ1977":13024,"Ġ1904":13025,"Ġ1969":13026,"Ġ1992":13027,"Ġ1948":13028,"Ġ1968":13029,"collar":13030,"ĠStart":13031,"ĠStories":13032,"ĠStock":13033,"ĠSturg":13034,"ĠStochastic":13035,"ĠStinchcombe":13036,"erek":13037,"efined":13038,"efowicz":13039,"efzadeh":13040,"cessibility":13041,"Ġdoctors":13042,"Ġdoubt":13043,"illian":13044,"illiam":13045,"illmann":13046,"alla":13047,"allach":13048,"allionen":13049,"ĠKo":13050,"ĠKu":13051,"ĠKy":13052,"ĠKal":13053,"ĠKeep":13054,"ĠKaw":13055,"ĠKhan":13056,"ĠKai":13057,"ĠKath":13058,"ĠKahneman":13059,"ĠKissinger":13060,"ĠKendall":13061,"ĠKohavi":13062,"ĠKhosla":13063,"ĠKaspar":13064,"ĠKallionen":13065,"enderson":13066,"ervous":13067,"1124":13068,"1186":13069,"1155":13070,"soon":13071,"soba":13072,"Ġ32":13073,"Ġ333":13074,"Ġ385":13075,"Ġ345":13076,"Ġ337":13077,"Ġ349":13078,"Ġprinces":13079,"aste":13080,"ĠChs":13081,"ĠChan":13082,"ĠChip":13083,"ĠChann":13084,"ĠChung":13085,"ĠChildren":13086,"ĠChanging":13087,"Ġimpl":13088,"Ġimitate":13089,"oustic":13090,"proat":13091,"probabilistic":13092,"proportion":13093,"problems":13094,"processor":13095,"ternoon":13096,"Ġchose":13097,"Ġchances":13098,"Ġchains":13099,"ussed":13100,"ussion":13101,"ipher":13102,"erner":13103,"ernock":13104,"ernandez":13105,"ĠdataWrapper":13106,"ĠISTE":13107,"toz":13108,"Ġneat":13109,"Ġnego":13110,"Ġneither":13111,"Ġneutral":13112,"Ġneuromorphic":13113,"print":13114,"present":13115,"enson":13116,"Ġresearched":13117,"ĠCommit":13118,"oston":13119,"Ġactively":13120,"Ġacknow":13121,"Ġacycl":13122,"ucharm":13123,"fering":13124,"ferred":13125,"tra":13126,"training":13127,"trusion":13128,"tronics":13129,"ardi":13130,"ardner":13131,"970":13132,"974":13133,"Ġsystemic":13134,"uality":13135,"1524":13136,"1533":13137,"1558":13138,"oconfir":13139,"orez":13140,"oretic":13141,"oregression":13142,"Ġagain":13143,"Ġaggress":13144,"Ġagreements":13145,"Ġcomputed":13146,"Theories":13147,"Theoretical":13148,"entieth":13149,"entives":13150,"entism":13151,"Ġunz":13152,"Ġunch":13153,"Ġunable":13154,"Ġuniqu":13155,"Ġunpre":13156,"Ġunlike":13157,"Ġunsol":13158,"Ġunfam":13159,"Ġunfair":13160,"Ġunintended":13161,"Ġunusual":13162,"Ġclient":13163,"Ġcontributed":13164,"Art":13165,"Arts":13166,"Arthur":13167,"Arntz":13168,"Archae":13169,"Int":13170,"Instr":13171,"Investi":13172,"Inverse":13173,"Infot":13174,"Intrusion":13175,"Ġ52":13176,"Ġ56":13177,"Ġ58":13178,"Ġ511":13179,"Ġ529":13180,"Ġ583":13181,"ameh":13182,"188":13183,"1809":13184,"18524":13185,"1863":13186,"1874":13187,"ĠYing":13188,"ĠYet":13189,"ĠYun":13190,"ĠYale":13191,"ĠYears":13192,"ĠYosh":13193,"Ġattit":13194,"atio":13195,"ĠAlready":13196,"ĠAlbert":13197,"ĠAlberto":13198,"Ġnotable":13199,"edited":13200,"timeline":13201,"ysÅĤ":13202,"ĠThen":13203,"ĠThurn":13204,"ĠThompson":13205,"ĠThomson":13206,"1346":13207,"1412":13208,"indhu":13209,"ĠUntil":13210,"ĠISBNs":13211,"Ġcompre":13212,"Ġcomply":13213,"Ġcompact":13214,"Ġcomparative":13215,"Ġcompleted":13216,"Ġdispar":13217,"Ġdisaster":13218,"Ġdisinformation":13219,"Ġdistill":13220,"Ġdisambig":13221,"Ġdisasters":13222,"Ġdisplaced":13223,"Ġdisappoint":13224,"ustries":13225,"Ġspin":13226,"Ġspoke":13227,"232":13228,"2318":13229,"2323":13230,"2327":13231,"2334":13232,"2307":13233,"ĠVer":13234,"ĠVis":13235,"ĠVari":13236,"ĠVinyals":13237,"ĠVaish":13238,"ĠVlad":13239,"ĠViking":13240,"ĠVernor":13241,"ĠLeone":13242,"ĠLeigh":13243,"ĠLeaders":13244,"1785":13245,"ptography":13246,"Ġabduction":13247,"Ġabilities":13248,"Ġabandoned":13249,"250":13250,"251":13251,"2538":13252,"2505":13253,"2546":13254,"ianism":13255,"paper":13256,"afou":13257,"afabadi":13258,"Ġgenerates":13259,"oung":13260,"Ġjurisdic":13261,"244":13262,"249":13263,"2400":13264,"2407":13265,"24273":13266,"266":13267,"2658":13268,"26880":13269,"269353":13270,"2618524":13271,"Ġadd":13272,"Ġadvis":13273,"Ġadjus":13274,"Ġadequ":13275,"okas":13276,"teacher":13277,"oulos":13278,"ssrn":13279,"Ġ48":13280,"Ġ49":13281,"Ġ400":13282,"Ġ460":13283,"Ġenhancements":13284,"Ġenvision":13285,"Ġenhance":13286,"Ġrelay":13287,"Ġrelied":13288,"Ġreligious":13289,"Ġreligion":13290,"cluded":13291,"Comics":13292,"Complications":13293,"Common":13294,"Combs":13295,"Commodity":13296,"commit":13297,"commerce":13298,"commentator":13299,"ognizing":13300,"bean":13301,"being":13302,"Ġotherwise":13303,"actability":13304,"creasing":13305,"disc":13306,"Ġperman":13307,"ĠPresse":13308,"Ġconsidering":13309,"irements":13310,"Ġdesert":13311,"Ġdespite":13312,"888":13313,"ffrey":13314,"Ġsolvent":13315,"Ġplans":13316,"Ġplants":13317,"Ġplausible":13318,"Ġdecl":13319,"Ġdecide":13320,"Ġdecomposition":13321,"utional":13322,"ordered":13323,"ibm":13324,"ibilities":13325,"isham":13326,"ishable":13327,"ishorjit":13328,"Ġroot":13329,"Ġrose":13330,"ariate":13331,"ariance":13332,"arities":13333,"ariampuz":13334,"2734":13335,"2775":13336,"Ġshall":13337,"Ġshown":13338,"Ġsharing":13339,"Ġintervention":13340,"Ġinteractions":13341,"Ġinterface":13342,"Ġintermedi":13343,"Ġinterdependent":13344,"Ġliability":13345,"ĠProc":13346,"ĠProgram":13347,"ĠProduction":13348,"ĠProced":13349,"ĠPropaganda":13350,"ĠProfile":13351,"ĠProtection":13352,"haideb":13353,"asekh":13354,"Ġanalysts":13355,"807":13356,"8099":13357,"8075":13358,"Ġtransaction":13359,"Ġtransistor":13360,"Ġresearching":13361,"ducing":13362,"Ġundes":13363,"Ġclasses":13364,"Ġclassic":13365,"Ġsubsequ":13366,"Ġsubtask":13367,"Ġsubmitted":13368,"Ġsubjective":13369,"ĠRees":13370,"ĠRead":13371,"ĠReason":13372,"ĠReopen":13373,"ĠReasons":13374,"ĠReuter":13375,"860":13376,"ertini":13377,"Ġopens":13378,"Ġopinions":13379,"Ġopponent":13380,"331":13381,"332":13382,"336":13383,"338":13384,"339":13385,"3389":13386,"Ġ67":13387,"Ġrecurs":13388,"Ġrecidiv":13389,"Ġsomeone":13390,"Ġnewly":13391,"Ġnewydd":13392,"221":13393,"2212":13394,"308":13395,"309":13396,"3044":13397,"awed":13398,"awareness":13399,"}}:":13400,"}}\\":13401,"oldsworth":13402,"aphor":13403,"aphora":13404,"ĠGoals":13405,"ĠGoffrey":13406,"Explain":13407,"Explainable":13408,"ailed":13409,"inki":13410,"inkler":13411,"displaystyle":13412,"Ġunderpinn":13413,"iering":13414,"uctures":13415,"367":13416,"368":13417,"505":13418,"ĠMario":13419,"401":13420,"408":13421,"409":13422,"4073":13423,"Newswire":13424,"control":13425,"ĠtextArticles":13426,"Ġtextbook":13427,"Altman":13428,"Alfred":13429,"yne":13430,"Ġindirect":13431,"Ġindeed":13432,"Ġindustrial":13433,"Ġindicators":13434,"Ġindistingu":13435,"Ġindustries":13436,"Encode":13437,"Engineering":13438,"Ġqui":13439,"Ġqual":13440,"Ġquite":13441,"Ġquantum":13442,"Ġparadox":13443,"Ġparadigms":13444,"Ġapproved":13445,"obitzski":13446,"oyle":13447,"ricia":13448,"imek":13449,"ypse":13450,"strong":13451,"Ġhear":13452,"Ġheight":13453,"Ġhegem":13454,"Ġaccents":13455,"Ġaccounts":13456,"Ġaccident":13457,"onde":13458,"Ġnotice":13459,"Ġnouv":13460,"ĠSociological":13461,"Computability":13462,"856":13463,"Reuters":13464,"Ġ78":13465,"tivation":13466,"Edwards":13467,"iezer":13468,"iegelh":13469,"Ġsimulated":13470,"Ġsimultane":13471,"ĠItaly":13472,"Stable":13473,"Stemming":13474,"ymour":13475,"revision":13476,"Ġmath":13477,"Ġmatches":13478,"Ġmatters":13479,"ĠEnterprise":13480,"383":13481,"hiliK":13482,"Ð°Ð·":13483,"Ð°Kis":13484,"Ð°ÒĽ":13485,"(.)":13486,"ĠZD":13487,"ĠZa":13488,"ĠZeal":13489,"ĠZakar":13490,"Ġpublicly":13491,"Ġregions":13492,"Ġregulate":13493,"Ġregularization":13494,"ĠMcQuillan":13495,"ĠMcCombs":13496,"Ġformulated":13497,"Ġformalism":13498,"Ġformula":13499,"Ġpredicts":13500,"602":13501,"Process":13502,"Propaganda":13503,"Problem":13504,"Processor":13505,"Propositional":13506,"\"]]},\"":13507,"Ġserver":13508,"Ġstrength":13509,"Ġ170":13510,"Ġ177":13511,"Ġ179":13512,"876":13513,"8760":13514,"8742":13515,"ĠConcern":13516,"ĠConvolutional":13517,"ĠConsequently":13518,"Ġexposed":13519,"Ġexponentially":13520,"Ġexposure":13521,"Ġrecognise":13522,"ovey":13523,"ountability":13524,"ĠForces":13525,"ĠForecast":13526,"cribed":13527,"Ġscoop":13528,"ĠAsian":13529,"etsanop":13530,"Ġlogistics":13531,"ĠPrinc":13532,"ĠPrivate":13533,"ĠPrediction":13534,"ĠPrzem":13535,"ĠPrincess":13536,"ĠPrimer":13537,"ĠCommunist":13538,"lla":13539,"uese":13540,"venLab":13541,"Ġ800":13542,"Ġ92":13543,"Ġ9269353":13544,"Ġrealm":13545,"Ġgovernmental":13546,"Ġdetails":13547,"ĠWikibase":13548,"458":13549,"rank":13550,"Ġupper":13551,"Ġupgr":13552,"Ġupdate":13553,"Ġdefines":13554,"Ġdefeated":13555,"Ġmean":13556,"Ġprovably":13557,"Ġvaried":13558,"Ġdiscovers":13559,"670":13560,"6772":13561,"oux":13562,"spect":13563,"spjrc":13564,"flation":13565,"mingly":13566,"aleh":13567,"aley":13568,"Ġallied":13569,"392":13570,"398":13571,"monotonic":13572,"isticated":13573,"Ġ141":13574,"Ġ152":13575,"Ġ153":13576,"Ġ157":13577,"Ġ163":13578,"Ġgrown":13579,"Ġexplained":13580,"Ġexplaining":13581,"Ġexploration":13582,"ÐºÓ£":13583,"Ġ189":13584,"Ġ1890":13585,"Ġ1850":13586,"Ġ1840":13587,"Ġ1835":13588,"Ġ1849":13589,"Ġgoes":13590,"umental":13591,"Ġstudent":13592,"Ġstudents":13593,"electronic":13594,"electronics":13595,"Ġgeneralize":13596,"ajpai":13597,"Ġworked":13598,"Ġworkers":13599,"371":13600,"376":13601,"5500":13602,"ahoma":13603,"fields":13604,"offend":13605,"Ġidentity":13606,"Ġidentical":13607,"Ġcreates":13608,"Ġcoll":13609,"Ġcolony":13610,"Ġcolloquially":13611,"Ġnaturally":13612,"Ġorganoid":13613,"Ġorganizational":13614,"logher":13615,"ÑģÐ°":13616,"ĠTrade":13617,"ĠTraining":13618,"ĠTracking":13619,"ĠTrappl":13620,"Ġdevelopmental":13621,"341":13622,"344":13623,"342658":13624,"Ġextending":13625,"Ġextreme":13626,"ĠscienceNote":13627,"Ġweakly":13628,"CITEREFMad":13629,"CITEREFMinsky":13630,"CITEREFMitchell":13631,"CITEREFMÃ¼ller":13632,"CITEREFMetz":13633,"overflow":13634,"994":13635,"shik":13636,"shadte":13637,"Ġcapability":13638,"Ġmarking":13639,"Ġassass":13640,"Ġassigns":13641,"Ġassertion":13642,"reswell":13643,"resistant":13644,"ristian":13645,"Ġsearching":13646,"Ġdistrib":13647,"Ġdistances":13648,"Ġdistinction":13649,"Ġmanuf":13650,"Ġmanagers":13651,"ĠInformationWeek":13652,"Ang":13653,"Any":13654,"Anchor":13655,"Anthrop":13656,"Anthony":13657,"errin":13658,"Ġpreprocessing":13659,"Ġprecis":13660,"Ġprepare":13661,"Ġpretraining":13662,"ĠExhib":13663,"ĠExistential":13664,"ĠExcel":13665,"ĠExelon":13666,"ĠExamining":13667,"Ġimply":13668,"Ġimposed":13669,"352":13670,"353":13671,"357":13672,"Ġtwentieth":13673,"Ġwellbeing":13674,"ĠRevenge":13675,"ĠReviews":13676,"ĠNegative":13677,"Training":13678,"Traffic":13679,"Truec":13680,"roni":13681,"ictionaries":13682,"ĠApplied":13683,"ĠAndriy":13684,"ĠAndroids":13685,"2018258":13686,"Ġsubset":13687,"Ġsubscription":13688,"0926":13689,"Quasi":13690,"eyrich":13691,"velar":13692,"Ġthemes":13693,"Ġoperator":13694,"Ġoperators":13695,"Ġphase":13696,"Ġphones":13697,"Ġwherein":13698,"Ġwhereas":13699,"444":13700,"448":13701,"8947":13702,"Apple":13703,"Applied":13704,"Thompson":13705,"hane":13706,"posal":13707,"poses":13708,"vanenko":13709,"Ġdeals":13710,"Ġdeepfakes":13711,"Ġ131":13712,"Ġ132":13713,"Ġtopony":13714,"ĠSchÃ¼":13715,"ĠSchmidt":13716,"ĠSchulman":13717,"Ġlabs":13718,"Ġlabel":13719,"1970":13720,"1974":13721,"Ġevening":13722,"centered":13723,"cedented":13724,"scape":13725,"ĠShi":13726,"ĠShiv":13727,"ĠShould":13728,"ĠShape":13729,"\")&#":13730,"Conference":13731,"Convolution":13732,"Convention":13733,"Concept":13734,"Conferences":13735,"Convert":13736,"Conjug":13737,"Ġearlier":13738,"Ġcorrel":13739,"Ġcoroll":13740,"Ġnumbers":13741,"Ġretail":13742,"ĠDana":13743,"CITEREFSc":13744,"CITEREFSample":13745,"CITEREFSearle":13746,"CITEREFSingh":13747,"CITEREFSocher":13748,"CITEREFSamuel":13749,"uctionism":13750,"Ġspecificity":13751,"Ġidentifies":13752,"Clone":13753,"Clark":13754,"Climate":13755,"Ġavvisi":13756,"Ġavailability":13757,"arrasco":13758,"Ġseeing":13759,"Autoregression":13760,"Chinchilla":13761,"Churnal":13762,"Ġacted":13763,"Ġacting":13764,"ĠMeg":13765,"ĠMeier":13766,"ĠMeasure":13767,"ĠStatesJapanCzech":13768,"ĠMcClelland":13769,"floatleft":13770,"floatright":13771,"021056":13772,"0226880":13773,"656":13774,"757":13775,"visual":13776,"virate":13777,"Ġrequest":13778,"Ġrequiring":13779,"Ġrequests":13780,"Ġanyone":13781,"Ġanywhere":13782,"Shared":13783,"enna":13784,"ennie":13785,"ennox":13786,"atterson":13787,"Ġpressure":13788,"Ġpressures":13789,"ĠModeler":13790,"Ġhandled":13791,"ĠstudyComputational":13792,"0740":13793,"32118":13794,"770":13795,"7774":13796,"831":13797,"8380":13798,"Using":13799,"fusions":13800,"huang":13801,"phabet":13802,"although":13803,"Ġpartly":13804,"Ġmainstream":13805,"Ġimportantly":13806,"Ġdesigners":13807,"42256":13808,"42936":13809,"968":13810,"derick":13811,"who":13812,"à¦¯":13813,"à¦¼à¦¾":13814,"à¦ħà¦":13815,"ĠXu":13816,"ĠXues":13817,"Ġecology":13818,"Ġnonlinear":13819,"Ġnonstop":13820,"Ġcommonalities":13821,"ÑģÐºÑĭ":13822,"DeepSee":13823,"Deepfake":13824,"Legal":13825,"Lehn":13826,"Refn":13827,"psos":13828,"Ġethically":13829,"Ġinfluential":13830,"Ġinfluencing":13831,"ĠAdam":13832,"ĠAdverti":13833,"Ġfunctional":13834,"Ġfunctionalism":13835,"Ġmemorable":13836,"iredo":13837,"Ġvalid":13838,"Ġvalued":13839,"Ido":13840,"Ideogram":13841,"Isaac":13842,"Ġedge":13843,"Ġeditions":13844,"armouyet":13845,"Ġcircular":13846,"Ġlimitation":13847,"ĠPeters":13848,"Ġissuing":13849,"CITEREFBut":13850,"Ġconsideration":13851,"Ġelector":13852,"Ġcouple":13853,"Ġcovered":13854,"Ġinternationally":13855,"Ġinvolve":13856,"Ġfinally":13857,"Ġmultiling":13858,"Ġmultidimensional":13859,"ĠRole":13860,"ĠlinksArticles":13861,"Ġstructured":13862,"Neumann":13863,"NeurIPS":13864,"chegian":13865,"rapher":13866,"singularity":13867,"Ġbuy":13868,"Ġbuys":13869,"ĠEmperor":13870,"Ġviewed":13871,"Ġviewing":13872,"Ġ248":13873,"Ġapplicants":13874,"ventionism":13875,"Ġeconomists":13876,"Ġsuccessive":13877,"aux":13878,"ĠAuthority":13879,"ĠAuthors":13880,"Ġfactory":13881,"ĠCentre":13882,"ĠNetworked":13883,"ucker":13884,"uckley":13885,"Ġprivately":13886,"Ġprivatization":13887,"Ġconsumer":13888,"Ġaccurately":13889,"ĠAssociates":13890,"Immersion":13891,"Imagen":13892,"Ø±ÚĨ":13893,"Ġblue":13894,"Ġblind":13895,"Ġbackground":13896,"Ġbackdoors":13897,"Ġwriters":13898,"ambiar":13899,"ĠParenti":13900,"ĠParadigm":13901,"ĠParliament":13902,"ĠParticularly":13903,"ĠBernd":13904,"ĠBerelson":13905,"ĠGuy":13906,"ĠGuha":13907,"Ġimproves":13908,"Ġimproving":13909,"Ġperceptions":13910,"6940":13911,"Asia":13912,"Asada":13913,"autcon":13914,"autoconfir":13915,"Ġreads":13916,"Ġreadable":13917,"ĠPlay":13918,"Ġgrav":13919,"Ġgranting":13920,"Ġgrandmaster":13921,"CITEREFHu":13922,"CITEREFHor":13923,"CITEREFHalper":13924,"classification":13925,"Ġspacecraft":13926,"Ġopened":13927,"Ġopening":13928,"ĠTransfer":13929,"ĠTransparency":13930,"ĠTranshumanism":13931,"ĠEnglishØ³ÙĨ":13932,"Goals":13933,"Goebel":13934,"Printed":13935,"constr":13936,"conference":13937,"Ġspeeds":13938,"ĠAmanda":13939,"Ġprofits":13940,"ĠWeber":13941,"ĠFront":13942,"ĠFrame":13943,"ĠFriston":13944,"CITEREFGar":13945,"CITEREFGrant":13946,"ĠOren":13947,"Ġdoesn":13948,"Ġenvironments":13949,"Ġenvironmental":13950,"ributes":13951,"ĠsourceView":13952,"1162":13953,"1164":13954,"470":13955,"9291":13956,"uffering":13957,"words":13958,"Ð¸Ð½":13959,"Ġpoor":13960,"Ġpool":13961,"Ġparse":13962,"Ġparser":13963,"Ġparses":13964,"Ġposterior":13965,"Ġprevalence":13966,"itzgib":13967,"Ġcriticism":13968,"Ġcritique":13969,"ĠAlexis":13970,"ĠAlexNet":13971,"ĠMoritz":13972,"oshi":13973,"ĠGeneration":13974,"ĠEditions":13975,"ĠEditors":13976,"ĠEdinburg":13977,"Ġexistence":13978,"Ġ1973":13979,"Ġcontinue":13980,"Ġcontinuous":13981,"Ġattacks":13982,"Ġplayed":13983,"Ġshows":13984,"ĠRegister":13985,"Ġmathematically":13986,"Ontology":13987,"swald":13988,"Ġseriously":13989,"Ġfeats":13990,"ĠRecent":13991,"ĠRecord":13992,"ĠRecurrent":13993,"ĠImperial":13994,"ĠImieliÅĦ":13995,"Ġallowing":13996,"Ġresulted":13997,"ĠComplex":13998,"Ġcomputationally":13999,"ÑĢÑĤ":14000,"Ġenter":14001,"Ġentailment":14002,"reporters":14003,"Ġsingular":14004,"Ġpromin":14005,"Ġpromote":14006,"Ġprompts":14007,"Ġprominent":14008,"Ġpromoters":14009,"Ġincome":14010,"Ġincorre":14011,"Ġincentive":14012,"Ġincentives":14013,"Ġinvasion":14014,"Ġinvented":14015,"Ġdevised":14016,"Ġdevoted":14017,"Ġdevising":14018,"Ġdepended":14019,"Ġdepending":14020,"Ġmisuse":14021,"Ġmisleading":14022,"Ġreferring":14023,"ĠBeing":14024,"ĠBeginning":14025,"ĠBrad":14026,"Ġleads":14027,"ĠWho":14028,"ĠWhig":14029,"ĠWhere":14030,"Ġconstruct":14031,"Ġconstraint":14032,"Ġconstructed":14033,"ĠHead":14034,"ĠHeidel":14035,"CITEREFLee":14036,"CITEREFLangley":14037,"Ġanalyz":14038,"Ġanalyse":14039,"Ġanalytical":14040,"Translation":14041,"761":14042,"768":14043,"vteArtificial":14044,"vteComputer":14045,"vtePhilosophy":14046,"Ġeditor":14047,"Ġsensor":14048,"Ġsenses":14049,"Ġsensitive":14050,"Ġsensitiv":14051,"Ġfeeds":14052,"ĠCamera":14053,"ĠCameron":14054,"expected":14055,"ĠWarwick":14056,"ĠArabia":14057,"CITEREFCo":14058,"CITEREFCal":14059,"CITEREFKahneman":14060,"Ġperiods":14061,"Ġperiodic":14062,"Ġperiodical":14063,"Ġtransformed":14064,"Ġtransformations":14065,"Ġautoencoder":14066,"\"],[\"[":14067,"Editorial":14068,"541":14069,"8415":14070,"Adap":14071,"Adversary":14072,"Advoc":14073,"McGaughey":14074,"Relational":14075,"missing":14076,"missions":14077,"Ð¾Ò·Ð¸":14078,"ĠQian":14079,"ĠQatar":14080,"enchik":14081,"Ġmention":14082,"Ġbootstrap":14083,"Ġreceiving":14084,"istrust":14085,"ĠPhysics":14086,"Ġassociations":14087,"Ġassociates":14088,"ĠFinch":14089,"ĠFindings":14090,"ĠEconomy":14091,"ĠEconomics":14092,"CITEREFDomingos":14093,"CITEREFDreyfus":14094,"CITEREFDavenport":14095,"CITEREFWang":14096,"CITEREFWong":14097,"CITEREFWilliam":14098,"ĠStructure":14099,"ĠStructural":14100,"ĠStructures":14101,"Ġphysically":14102,"Automation":14103,"5386":14104,"Hein":14105,"NoWiki":14106,"Newness":14107,"Newton":14108,"NewPP":14109,"Parameter":14110,"Paradigms":14111,"Sequence":14112,"Seymour":14113,"Toews":14114,"capable":14115,"Ġtends":14116,"Ġintellectual":14117,"Ġdrivers":14118,"Ġdirector":14119,"Ġdirected":14120,"urna":14121,"ĠSometimes":14122,"ĠIncome":14123,"ĠElon":14124,"ĠElad":14125,"ĠElgar":14126,"ĠUSA":14127,"Ġpractices":14128,"Ġpractition":14129,"Ġimpactful":14130,"ĠApproxim":14131,"Francis":14132,"Franzen":14133,"Rectif":14134,"Topic":14135,"Topological":14136,"porns":14137,"Ġoccurr":14138,"Ġoccurred":14139,"Ġcareful":14140,"Ġcheap":14141,"elihood":14142,"Ġdemands":14143,"Ġbiggest":14144,"ĠColvin":14145,"ĠColumb":14146,"irtually":14147,"ĠGrand":14148,"ĠGrant":14149,"ĠGraves":14150,"ĠGravest":14151,"ĠGrisham":14152,
[...]
