#version: 0.2
i n
e r
ĉ ĉ
Ġ t
o n
Ġ a
t i
o r
e n
a r
h e
a l
e d
e s
Ġ Ġ
a n
i s
Ġt he
in g
& #
u t
r e
Ġ s
Ġ o
a t
ti on
2 0
l e
Ġ p
i t
c h
r o
Ġ c
n d
Ġ in
Ġo f
i c
Ġ (
e l
Ġ A
Ġ f
Ġ d
ĉ Ċ
Ġ m
en t
Ġ b
Ġa nd
a tion
Ġ w
i g
o m
Ġ n
e t
a s
e m
ĉĉ Ċ
Ġ 1
Ġt o
u r
u s
o l
p ut
Ġ S
c e
ĉĉ ĉĊ
e w
9 3
Ġ 20
9 1
a m
Ġ M
e c
\ "
i d
Ġ .
o ut
. &#
Ġ T
ĠĠ ĠĠ
Ġ R
ar s
Ġ C
Ġ I
Ġ "
1 6
i l
Ġ l
Ġ N
s t
e v
m w
Ġ re
i m
u l
p ars
out put
pars er
is t
ew s
Ġ h
a d
Ġt h
ti c
i v
e x
Ġ P
er s
a c
es s
Ġ on
g e
r i
u n
, "
o d
) .
16 0
o t
1 9
t er
in e
l y
el l
a v
en ce
ro m
o w
ar n
â Ģ
) ,
it h
Ġ20 2
Ġ or
t h
o g
Ġp ro
ĠĠ Ġ
a b
a y
Ġ [
Ġf rom
a ch
Ġ B
Ġ g
Ġ is
Ġ r
Ġ le
Ġ J
arn ing
1 0
Ġ =
f ic
" :
âĢ ĵ
Ġf or
i on
i r
c i
, \
\" ]
Ġ[ \"
p l
a p
o p
b er
i a
Ġ D
a in
ĉĉ ĉĉĊ
u m
Ġn ews
ĠI n
o s
" ,"
Ġ W
C I
f or
a ge
Ġa s
Ġc on
Ġc om
v e
Ġ H
ĠT he
Ġth at
Ġ G
ĠA I
Ġ L
ĠA r
b o
i al
Ġ F
Ġb e
Ġ E
at e
" .
i z
Ġa l
} .
T E
R E
Ġle arning
TE RE
TERE F
c t
CI TEREF
an g
Ġa n
Ġ v
or t
h t
Ġs t
am p
ex t
e p
it y
u b
ed ia
o ur
ĉĉ ĉĉ
Ġw h
20 2
t ell
i k
an d
or k
id e
ach ine
tell ig
o v
l ist
Ġw ith
Ġ 2
ation s
ĠĠĠĠ ĠĠĠĠ
u nd
Ġb y
Ġ ex
bo x
iv ed
e ar
ri ev
ec t
Ġ us
ti fic
u p
riev ed
tellig ence
ig in
q u
Ġ it
for m
Ġ O
m ent
20 1
ch ived
s e
Ġa r
Ġor igin
b ar
u re
et rieved
l o
u d
an t
a k
ĠR etrieved
p ort
Ġt r
Ġorigin al
ig ht
Ġp p
or d
Ġ &
ĠAr chived
on t
tific ial
c l
ti ve
ar y
ac k
or y
Ġa re
u g
20 0
es t
i f
et w
Ġ U
r ess
ang u
a g
at a
, .
u c
ic al
0 0
ur al
Ġ202 4
e ch
ation al
at ed
ĠN ews
an s
od el
n al
Ġ1 9
Ġ20 1
n av
c ol
ĠS t
i es
b le
g in
er e
angu age
e f
s k
c ess
y st
Ġd o
il l
tic s
ear ch
p e
ent s
": "
em ber
etw ork
m s
Ġ202 3
ol og
s ide
i ch
al l
19 9
f t
m ar
yst em
Ġ K
en d
h list
er v
1 1
s o
Ġ 3
ab le
' s
Ġp r
as t
ĠC h
p er
Ġ im
av e
en er
g or
re f
o us
p ro
ter n
Ġm odel
Ġ ch
Ġc an
us s
w g
is m
as s
tic al
Ġ ev
g r
i p
er n
Ġd ata
Ġin telligence
ĠI S
1 2
t o
Ġm achine
ig n
Ġn e
p r
en s
Ġr es
; &#
ti t
ĠC om
en c
e le
t s
th er
tion s
u e
is ion
Ġn etwork
our nal
Ġh ave
o st
Ġa c
u ch
form ation
nav box
gor ith
f er
t r
ar d
l d
9 7
he m
Ġs ystem
u al
h er
1 5
d ing
Ġ 0
o c
or e
it e
l ed
Ġa g
Ġa p
Ġcom put
i el
side bar
ar e
T he
k s
Ġ k
en ti
ech n
ub l
mar gin
Ġ un
om e
g ro
Ġc l
Ġcon t
Ġwh ich
A r
I n
i tion
n ot
n ow
et h
uss ell
o ber
Ġ 5
or ld
an ce
am e
ul t
i ent
o ci
202 1
1 8
b ack
Ġh as
Ġ Y
Ġa t
ĠN or
l es
on g
a ti
ĠA l
Ġn ot
v ig
ar t
l ine
ed it
col or
Ġdo i
B N
ti m
Ġw as
y s
Ġthe ir
ĠT h
iz ation
ĠNor vig
1 3
1 4
in d
ĠR ussell
ĠU n
on e
Ġal gorith
ĠIS BN
: :
Ġcom p
f ont
ĉĉ ĉ
um an
. ;
Ġd is
e b
us t
olog y
Ġs p
Ġpro cess
iz e
2 3
Ġ V
ev el
ĠL e
1 7
on s
ct ober
ic s
p t
Ġa b
Ġs uch
2 5
i an
evel op
) :
a ce
c ri
p ap
a f
p x
Ġl anguage
Ġg ener
i o
i fic
o un
p ad
Ġ j
ĠO ctober
pad ding
" ,
c tion
m un
u ary
v er
iel d
el y
Ġar tificial
2 4
a tive
an y
Ġus ed
2 6
A I
Ġa d
Ġal so
e ep
o k
il d
gr am
b ot
ic ations
t e
lo b
sk in
o ul
s s
Ġ e
re e
at es
as ed
im it
ow er
Ġ 4
Ġ en
Ġre l
cl ud
e at
st y
C om
c om
ar k
og n
port ant
or s
Ġit s
p ref
ist ory
ir st
97 8
b e
Ġo ther
Ġpro ble
ci ence
ac t
lob al
oul d
c re
d is
Ġp er
iv e
ĠP ress
Ġcon s
i re
at ural
Ġd es
ĠM achine
Ġk now
re ad
ĠIn telligence
8 8
f f
{ "
Ġs ol
Ġp l
Ġd ec
r a
u tion
Ġd evelop
et y
w ik
in es
ĠN ew
ord er
. "
c ent
i b
le ft
tit le
w are
in t
ĉĉ ĉĉĉĊ
es ent
an n
is h
pl ay
Ġnetwork s
g an
Ġ ro
ar i
ak e
ag es
gro und
2 7
Ġs h
ug h
ubl ic
eth od
Ġin ter
Ġm ore
Ġl i
ĠP ro
Ġtr ain
Ġmodel s
c k
i ew
t en
Ġw ere
cl ient
hem e
b order
h a
ch ild
as e
ĠAr tificial
Ġan al
202 3
Ġne ural
8 0
o h
ed ic
Ġo ut
le x
Ġin clud
Ġth is
. .
Ġin formation
ec tion
Ġpro gram
Ġtr ans
tern ational
Ġres earch
ĠLe arning
e e
m er
o und
Ġt echn
ati s
200 4
back ground
d uc
m edia
er m
ect or
9 0
i le
Ġ und
Ġb ec
led ge
Ġcl ass
Ġa ut
he s
Ġs ub
ĠR e
8 6
t ext
er t
is ed
Ġthe y
Ġo p
Ġre pr
Ġnews pap
3 3
h at
n one
r ight
Ġ 6
Ġm ethod
Ġre c
Ġsystem s
Ġs ome
Ġn ew
Ġh uman
s ize
em ent
Ġ20 20
un e
ĠJ ournal
": {"
Ġbe en
. ,
2 2
Ġ em
on om
or m
3 0
a w
o ft
} }
ov ern
i ti
p tion
Ġd if
ol d
ap h
ĠG o
E x
a il
in k
ur ing
Ġ20 0
ĠD ec
os e
up erv
Ġab out
dis play
client pref
Ġund er
\ /
i er
u ct
w id
ing s
il ity
ev er
Ġre port
im portant
iv ers
ys is
wid th
3 6
5 0
D F
ĠM ar
ĠM ay
Ġus e
Ġalgorith ms
4 0
N ews
c ont
t y
u a
Ġt ext
tic le
os s
A l
t ember
y n
er y
ĉĉ ĉĉĉĉĊ
an uary
Ġin d
Ġin to
CI D
ep tember
ov ember
Ġ201 8
enc es
read y
) ;
E n
l ow
Ġ qu
Ġp ar
10 0
for e
Ġap pro
uperv ised
W ik
l imit
ar g
em an
am es
ĠM edia
enc y
P DF
i ble
o b
o y
r it
r ic
Ġo l
im e
ĠJ une
ect s
ress ion
c es
y p
al ign
ĠA n
Ġb ut
ol ic
st r
199 8
n e
p ec
Ġ he
Ġo b
Ġb i
Ġac c
Ar tificial
ĠTh is
Ġprocess ing
sty le
Ġdec ision
p le
on d
Ġm ay
Ġn o
ĠĠĠĠĠĠĠĠ ĠĠĠĠ
e op
Ġw ord
ĠS eptember
ul ar
un ction
ĠCom put
Ġj ournal
t op
Ġ '
he d
Ġs et
ĠS oci
ĠN ovember
ĠJ anuary
ik e
nav bar
Com put
oft ware
overn ment
8 5
R e
v ol
Ġ 7
ti v
al ly
Ġc ent
ic ation
Ġm edia
ul y
âĢ Ķ
ĠW orld
lo ck
eat ure
E d
e en
i e
Ġs im
20 19
ĠI t
ci es
eop le
S t
y m
Ġ ul
en g
re v
ro ad
Ġm at
Ġm ost
ĠE n
3 8
h il
Ð °
Ġs oci
it ed
as on
ur r
2 9
a x
i qu
n s
Ġt as
ar ge
Ġf ield
Ġm any
Ġw orld
ĠP M
Ġon e
Ġanal ysis
Ġrepr esent
cont ent
( .
a z
a us
i ed
Ġ Z
at ing
Ġp ublic
Ġd d
ol i
Ġre g
od e
amp le
af ter
Ġtrain ing
\ \
h y
en cies
Ġthe se
el f
em pl
ĠM c
od y
Ġfor m
pl ications
ĠH istory
Ġpr edic
Ġev ents
ip edia
ivers ity
6 0
L P
P ro
t t
} ,"
Ġthe ory
Ġd t
Ġw ill
Ġ202 1
ĉĉĉĉ ĉĉĉĊ
Ġex per
fer ence
Ġalgorith m
" ]
) {
M ain
à ¤
Ġs erv
20 20
ro l
iz ed
Ġst r
ĠĠĠĠĠĠĠĠ ĠĠĠĠĠĠĠĠ
ĠDec ember
M achine
n ess
u ro
Ġp ower
Ġ1 7
Ġ20 19
ad ing
ri b
Ġ202 2
Ġle arn
201 5
2 1
8 7
S N
[ "
h ip
o od
Ġ ef
or p
al se
ur es
ĠC on
ĠIn ternational
Ġex p
Ġsp ec
atis tical
Ġrec ogn
o ve
as es
Ġ1 0
201 1
etw een
Ġcomput er
oun t
Ġmethod s
% ;
, &#
g l
p re
r am
t ing
Ġ y
Ġo ver
Ġp eople
iv en
ĠF or
ĠY ork
cri b
Ġknow ledge
5 9
c s
m l
o o
al ue
Ġs c
Ġc all
ĠA s
Ġb etween
et s
Ġl og
tic les
ĠP r
ac y
Ġr is
ĠG lobal
201 4
col um
ĠCom mun
hem a
Ġproble ms
Ed it
l l
l an
m in
u es
v en
Ġ 8
Ġ 9
er ing
Ġre al
Ġg overnment
ĠJ uly
Ġv ector
ak ing
ĠIS SN
ens ion
ele v
ific ation
Ġrel ations
be fore
Ġnewspap ers
a ir
t he
t heme
Ġt ime
or g
al s
Ġd et
ist s
ers on
ab led
ĠW ik
ug ust
ĠMar ch
- -
2 8
4 5
r al
r an
s ub
w e
Ġ up
Ġa m
le ar
ro ugh
Ġin cre
Ġd ef
Ġm e
Ġth an
Ġpro v
os op
Ġv ari
ult ure
ĠUn iversity
Ġdis c
Ġproble m
orm al
hil osop
6 7
L ua
b ody
o u
s p
v ers
in ing
in ess
es earch
ic k
Ġf irst
202 2
ical ly
pr il
enti al
f l
m ing
s on
t ed
he ight
al e
Ġh ad
Ġal l
ht ml
pe ech
gro up
road c
empl ate
0 1
3 9
f irst
l ast
m on
m an
or th
is tic
is hed
Ġs our
ic e
ig h
Ġ1 4
Ġ1 5
Ġ1 6
ol s
Ġg ro
202 4
Ġex pl
Ġus ing
ref list
ert ain
b r
r y
Ð º
or ies
ing u
ut ure
Ġin put
ic es
Ġ1 8
id d
ul ti
ad e
ad io
Ġg o
um ent
Ġst ud
Ġ2 6
Ġex ample
Ġ201 5
olog ical
so ci
ele ct
fer ent
Ġgener al
mer ic
: #
S and
a j
f alse
ĠA g
Ġw ork
Ġch pt
roadc ast
3 7
5 5
C ont
I D
a h
f ield
o ff
p ar
w ith
Ġ id
Ġs o
Ġc re
Ġc ol
Ġn atural
Ġl arge
Ġre ason
Ġh ow
Ġor gan
Ġcom mun
Ġcomput ing
eb r
oh n
c c
i tive
l og
w ard
w orth
Ñ ģ
ĠA pril
ĠA meric
Ġf ound
Ġw ould
ĠT r
ab ility
ach ines
Ġwh at
Ġdevelop ment
Ġcall ed
Lua Sand
ebr uary
LuaSand box
3 4
l anguage
o ok
r aph
u ation
Ġ ext
Ġs cience
ĠA ugust
Ġw e
im edia
og le
CITEREF M
Ġwh o
ov er
Ġar ticle
sk i
Ġe ach
Ġper form
0 5
9 9
f ter
s h
v es
Ġc ap
Ġm ark
us iness
Ġth rough
ot h
Ġas s
iti es
Ġdif ferent
ym b
urr ent
+ .
4 6
C ite
a a
f ul
l i
m ain
p en
r es
r is
} @
Ġs earch
Ġc ould
Ġd ist
Ġm an
ĠI nd
ĠIn formation
Ġwh en
port al
Ġag encies
ss on
Ġtechn iqu
arg et
8 2
A n
E E
h en
m it
w n
Ġ if
er r
Ġt yp
is tics
Ġp re
Ġof ten
ĠS cience
Ġ20 16
ĠT echn
st and
ĠE x
ep end
Ġim p
ual ly
Ġinclud e
ty pe
ĠPM ID
aus e
oli tical
elev ision
we ight
3 5
b ased
f d
Ġt w
it al
Ġw ell
ĠR ev
ĠR esearch
il sson
Ġl ike
ĠN e
ĠN LP
ac hes
Ġon ly
bo tics
ĠF ebruary
ĠĠĠĠĠĠĠĠ Ġ
her it
ĠUn ited
cri ption
duc tion
Ġtas ks
uro pe
0 6
T r
r on
in herit
is s
ic tion
ĠA p
ĠA nd
Ġd l
id er
Ġr ed
ci al
Ġ2 2
201 8
Ġne ed
tr ue
sty les
Ġsub s
Ġreason ing
0 8
0 9
Q u
e y
f eature
j ect
u le
v el
Ġthe m
Ġo per
20 16
Ġp h
ĠH ow
Ġwh ere
ug g
sk y
Ġword s
Ġrecogn ition
4 4
8 9
A p
P age
T h
g ine
h an
p os
v an
v alue
Ġs e
Ġs eman
at tern
le arning
Ġd e
Ġd eep
Ġ1 1
Ġ1 3
Ġto p
ĠS ch
Ġl ab
ac tion
19 7
angu ages
tern et
Ġev en
Ġcont rol
cent er
Ġinter est
pec ial
" .&#
N atural
c ed
i ous
o ad
o ugh
s c
v ar
en tific
an ge
is e
re y
Ġs cre
at ch
Ġm ake
ĠS h
iv id
ot e
Ġr ight
pl es
Ġst atistical
tellig ent
200 6
Ġsol id
ĠJournal ism
Ð° Ñ
Ġef f
Ġscre en
" )
C on
i ence
m ons
w w
Ġ ear
Ġa fter
al ity
Ġs up
le ct
Ġc or
Ġd om
Ġn um
ĠS ystem
il ar
Ġl oc
Ġl anguages
Ġre t
ul ation
Ġth ere
ion s
ĠD an
ain ed
ate g
CITEREF S
Ġar g
uc tion
cess ing
Ġpr int
enti f
oss ible
Comput ational
vol ution
Ġspec ific
hilosop hy
ingu istics
Ġid entif
1 10
C l
c ode
h or
p age
á ĥ
Ġ Ċ
Ġ es
in a
in n
in for
in line
Ġa v
ar r
Ġs ee
em ents
ĠC ulture
ay s
ĠE urope
Ġ201 7
Ġ3 0
ĠAl lan
ĠSoci ety
Ġlog ic
A ut
C h
L anguage
N ame
a tic
e ars
f lo
p ha
t ro
t om
Ġ âĢĵ
in ce
Ġa ct
re g
le y
ĠM e
ĠT emplate
ĠR ep
ul es
ist or
od ern
av i
og g
Ġg lobal
Ġr adio
ĠThe se
Ġbe h
Ġst at
ĠSt ates
bot s
Ġdevelop ed
Ġout put
ĠEn gl
ĠMc C
fl u
flo at
( --
0 2
4 9
6 5
7 5
P T
W hat
a el
c ement
f lex
j ec
l ap
s upervised
v is
v ir
Ġ #
in ks
er g
at her
Ġp ubl
Ġre qu
ac ts
ĠJ ohn
for d
Ġan y
ide o
Ġ2 1
201 7
Ġap plications
ire ct
Ġinclud ing
ĠĠĠĠĠĠĠĠĠĠĠĠ Ġ
aj or
Ġtw o
S h
S oftware
d ition
j ects
o id
v ing
Ġ et
ti es
en e
en n
ed s
re ak
at t
at ure
Ġp ress
el ow
Ġb ased
Ġb oth
ur y
ĠM odel
Ġl ong
Ġh and
19 93
ir c
ĠL anguage
Ġbe ing
199 7
Ġnewspap er
Ġpar tic
Ġstud y
gine ering
infor cement
" ;
0 7
3 2
7 7
8 3
U s
b ab
f us
h u
p h
p ts
u tions
Ġt est
al th
re at
Ġs oftware
Ġp art
Ġm ain
em s
ĠT uring
ĠĠĠĠ Ġ
ĠN ilsson
im es
ad er
ber g
Ġst ories
201 3
ich ael
Ġim portant
oc k
ogn itive
be gin
Ġdes ign
." &#
Ġappro ach
Ġmat hema
Ġsoci ety
ymb olic
4 2
9 6
: "
B C
R L
T ext
T ogg
c ern
d er
i x
w h
à ¦
Ġ X
Ġ ec
ĠĠ Ċ
Ġs ec
Ġs uc
it s
Ġm ajor
Ġn on
as ing
ur ther
un to
Ġcom mon
Ġ2 3
up s
ak es
Ġch ang
Ġknow n
ann ing
.. .
Ġtechn ology
ĠGo ogle
pre title
crib unto
oo le
Ñģ Ðº
Ġmark et
stand ing
Togg le
D eep
I T
L e
R ef
n ight
o x
p s
s erv
s tit
Ġ eth
in ed
on ment
Ġs ur
Ġp olitical
ro ss
Ġin flu
ĠA d
Ġf unction
Ġf uture
Ġm em
Ġm achines
Ġ1 2
ol ution
": ["
ir ed
ĠD eep
iz ing
Ġv al
Ġwith out
201 2
ack worth
Ar ticles
bot tom
Ġprogram ming
Ġclass if
Ġclass ification
olic y
Ġrelations hip
vir onment
. ).
: -
G ener
I d
I s
X iv
l and
y ber
á Ģ
Ġ ed
ti ce
ar m
ar re
Ġp erson
Ġc irc
el s
Ġd uring
Ġl imit
Ġl aw
im age
ĠP et
19 88
ay es
Ġg iven
Ġis s
fic ient
ci entific
iz ations
CITEREF B
ant s
Ġim age
ref begin
gr aph
ele graph
Ġcons ider
Ġaut om
Ġop tim
}} @
Ġbi as
ĠGlobal ization
ĠCommun ication
roadcast ing
ĠAmeric an
Ġtechniqu es
err or
Ġear ly
) .&#
0 4
6 6
8 1
N N
b elow
n er
o f
t on
Ġ est
Ġ elect
ut e
Ġc o
Ġc over
Ġin ternational
Ġin vol
Ġf in
Ġd at
Ġm ulti
Ġw ay
as h
Ġto ols
ur l
ur s
us er
am ples
ĠM IT
ĠR o
ĠI s
Ġl inks
Ġh istory
av id
ow n
ab l
ab ove
ĠB ib
ĠJ ames
ci ous
Ġcon cern
ect ed
ĠNews pap
tr y
Ġcont ent
wik ipedia
wik imedia
Ġresearch ers
atis tics
ail able
Ġappro aches
Ġsim ilar
Ġstr uct
colum n
colum ns
ĠRev iew
ivid ual
ĠBib code
N e
a i
c he
h ang
l ation
l ink
m all
r ed
r ap
s ing
à ¥
in ter
Ġt erm
en se
Ġs it
Ġs ent
Ġp ossible
ic ro
Ġb u
Ġn ational
ĠM ichael
id ata
ĠC l
Ġr ules
ĠE m
Ġv iew
Ġ2 4
Ġ2 5
200 8
Ġ201 2
ĠSt ud
all back
199 9
end ed
ĠCh ris
12 5
Ġap pl
Ar ticle
now ledge
Ġtrain ed
Ġprogram s
Ex t
Ġind ividual
Wik i
tiv ity
Ġserv ices
Ġris k
ven tion
ĠWik ipedia
sub group
Ġam ong
Ġsour ces
fd fd
pecial ly
Ġec onom
Ġsuc cess
? ".
R o
a u
d ay
i ev
l er
l ower
v ector
Ġt elevision
ti l
ed ical
an ies
Ġp ot
Ġp attern
ro w
ĠA ut
Ġf act
Ġb r
ig nal
us ter
am box
ĠM ackworth
out h
ĠC ent
il y
ĠN etwork
Ġh igh
Ġth ose
ri es
ap an
ĠD ata
ain ing
ĠG e
qu ote
Ġar ticles
Ġar Xiv
uc k
Ġ201 4
ĠSt ep
gin es
olog ies
Ġpr iv
gorith m
Ġcons um
duc ed
Ġbec ome
Ġacc ur
Ġjournal ists
Ġsoci al
"] ,"
ĠAs soci
ĠSystem s
Ġidentif y
avi or
arre tt
5 6
B arrett
I m
b ed
m ax
u ed
u ce
z e
Ã ¼
Ø ±
Ġ {
Ġt er
or n
Ġs ign
Ġo wn
at h
it ation
Ġf oc
Ġm uch
Ġm ind
Ġm ining
Ġb l
Ġb ack
Ġw rit
ĠS im
am b
Ġl ay
ĠP ar
og raph
ĠB er
fic ult
pl oy
pl oad
ĠG u
bo ok
our ce
ment s
Ġ3 1
Ġim pro
Ġres p
tit y
Ġcomp lex
eb el
Ġen gineering
Ġper ce
Ġdes cription
ines e
Ġbec ame
Ġdif ficult
Ġjournal ism
ĠSoci al
Ġrepresent ation
orp or
ĠCommun ications
Ġdet ection
idd en
iction ary
Ġpartic ular
ayes ian
/ /
5 7
6 9
A s
E S
S ee
U n
a ut
b y
c lear
f unction
i et
p ag
in cent
ar ch
Ġs ect
Ġs ame
Ġs peech
Ġs ince
le vel
Ġc ertain
ent al
Ġb usiness
ĠM ark
id ge
Ġl ine
Ġre ad
Ġth en
ĠP l
ĠP oole
ess ion
th ics
ĠB ri
Ġg r
ĠW ay
ve y
ate gor
CITEREF H
CITEREF R
ht t
cl ass
ug er
ug ht
00 00
so ft
Ġne ur
Ġag ent
Ġag ents
ult ural
Ġsp ace
af ety
Ġgener ative
ĠPro cessing
Ġbec ause
Ġop en
ever al
Ġqu es
ĠComput er
rib ution
ĠTr ans
Ġav ailable
ĠEngl ish
Ġfoc us
5 8
C allback
G o
G PT
M edia
P r
S earch
S cribunto
a id
c er
c on
c tions
c onom
l p
p ly
} );
er ences
Ġt d
ti an
ar th
Ġs pe
at or
ro und
ĠA m
Ġf air
om ing
em in
ce pt
Ġl inguistics
im ension
ist er
Ġh um
ac ter
Ġpro d
Ġpro f
ab les
ĠB y
ĠW e
Ġcon n
ĠThe y
ĠG erm
ĠF r
CITEREF G
ub ble
ĉĉĉĉ ĉĉĉĉĊ
Ġus es
ĠO r
uc lear
Ġdo es
erv a
wg R
Ġev ent
oc ument
not e
not heme
Ġad dition
Ġen vironment
Ġrel ated
wik i
hat note
onom ous
ĠGo ebel
yn t
En gines
oy d
Comput er
rev ier
Ġtas k
rib ut
min erva
Ġprov id
Ġsour ce
Ġorgan izations
LuaSandbox Callback
Ġsubs ection
ugg est
Ġnum ber
Ġloc al
ĠDan iel
Ġes pecially
Ġest abl
Ext ension
ubble field
. ),
1 16
4 7
9 2
V iew
b old
b reak
g ress
n ormal
u f
v ed
w ord
y pe
Ð ¸
Ġ /
Ġt ake
an ing
ut ers
Ġp o
Ġp ars
Ġp ost
Ġp rev
it z
Ġc ri
ic it
ĠA lex
Ġm s
ĠM or
Ġre le
ac es
ĠB oyd
Ġr ule
os h
ĠG ener
ĠL uger
Ġbe gan
ĠE d
and om
Ġ2 8
Ġex ist
200 1
200 9
Ġ19 7
Ġ19 90
col lap
ĠSt ubblefield
ĠCh inese
ard ware
Ġcont in
Ġat t
Ġcomp anies
Ġj ob
Ġad v
te gr
Ġpl ay
Ġsh ow
Ġsh ort
ĠRe g
100 7
ĠComput ational
ĠPM C
Ġexper ience
Ġincre asing
Ġvari ous
Ġmathema tical
yber ne
Ġcover age
ĠWay back
0 3
4 3
O n
T echn
f it
s v
s w
Ġ Qu
in telligence
Ġt able
Ġa ud
ar v
is c
ing er
Ġs er
at ors
el ess
Ġf eat
Ġm on
Ġw id
as ter
ur ity
ol low
ew ork
ĠĠĠĠ ĠĠĠ
ĠR ec
ĠC re
ĠI m
Ġl ess
fic ial
Ġal low
Ġwh ile
Ġ2 7
200 5
200 7
ag az
Ġres ult
ĠCom p
Ġcomput ational
Ġcont ext
Ġtrans lation
Ġunder standing
Ġdecision s
ram ework
idd le
Ġgo al
EE E
Ġtyp ically
Ġpubl ished
Us er
bab il
Ġhum ans
collap se
sv g
4 8
: \/
B M
c ertain
g ing
g ree
i od
k en
k ow
l ike
p ear
t able
Ñ Ģ
Ġ ent
in ation
in ts
re port
Ġs ing
Ġs upervised
Ġs everal
Ġp rom
ch or
Ġc ount
Ġin c
Ġin v
Ġin ternet
Ġin telligent
ĠA f
Ġf ind
Ġf eature
Ġd ev
Ġd epend
Ġm is
il it
Ġre fer
iv er
Ġon line
Ġ202 5
th ough
ĠB e
ĠB r
ĠB ayesian
Ġr ather
Ġle ad
pl ain
ĠW h
Ġcon str
ĠH e
CITEREF L
Ġst ate
ant an
Ġ201 1
Ġ201 3
199 5
ĠCh ina
to c
tim es
Ġprocess es
oun ter
Ġsol ve
ish ing
Ġanal y
ĠRe uters
Ġob serv
Ġcent er
Ġserv ice
orp h
Ġy ears
ward s
Ġperform ance
ĠTechn ology
Tr ans
ron ic
Ġright s
Ġbeh avior
above below
ĠChris tian
Ġsign ific
:\/ \/
, ["
7 6
9 5
C M
G E
G iven
H ow
S oci
c itation
g o
i am
k ing
l ing
m a
p inn
r ist
u z
u art
v te
à ¬
Ġ edit
in formation
Ġt ree
on es
Ġs ens
Ġs ignal
at er
at form
20 10
Ġin st
el ed
Ġf e
Ġf ollow
Ġd ictionary
Ġm aking
ent h
ent ly
ig ital
em pt
ce ed
ĠC am
ĠC revier
ĠI EEE
ul ate
Ġth us
iv es
ex p
ac tions
ĠJ apan
ĠD avid
ĠW ar
ĠW ill
ĠAr ab
CITEREF C
CITEREF K
Ġv ol
Ġex amples
ord ing
ill ion
all eng
199 4
11 4
wg C
wg Page
In formation
tim eless
Ġcomp ression
Ġab ility
Ġper iod
Ġcons cious
cent ral
Ġtrans form
mer cial
Ġaut o
Ġreport ing
En abled
limit ed
Ġhe alth
Ġob jec
eng io
Ġreg ression
"] ,["
ram mar
oo ks
Ġris ks
Edit or
Ġgo als
Ġcre ated
ook ie
ĠNe ural
Ġseman tic
Ġseman tics
Ġval ues
Ġoptim ization
icro soft
quote box
arth y
yberne tics
' t
, #
5 4
8 4
; âĢĵ
A d
C L
D ata
H istory
I t
M c
N et
R el
c tive
h ens
m id
m iss
o ks
Ð ¾
Ø §
Ġ Q
in ition
in sky
er a
ti ll
en ch
en abled
ar l
he ther
an cial
re l
le t
it es
it ect
ĠA nal
Ġm en
Ġb o
ur g
us try
am ed
ĠT imes
ĠN atural
Ġre ce
ul ated
ist r
ĠP h
ot her
th ers
Ġas soci
ĠF in
ĠE conom
Ġal ong
CITEREF D
CITEREF W
Ġv ideo
ov ery
ĠO n
Ġar chived
if ied
uc tive
ĠSt r
Ġch ar
12 7
ele ction
Ġag ency
tim e
Ġro le
Ġro botics
Ġlearn ed
ĠCon ference
Ġme as
Ġcommun ication
res p
Ġph ys
110 9
Aut om
ÑģÐº Ð¸
ĠNewspap er
Ġpot ential
Ġter ms
ategor ies
Ġneur ons
Ġques tion
babil istic
. )
5 3
7 2
9 4
F ormal
H e
H uman
M odel
N o
N ew
P ar
S e
T o
c ap
d ed
d ark
k in
m ed
m ove
n os
o tion
p tions
p ace
u pload
} \
Ã ©
Ð »
Ġ &#
in side
Ġt end
Ġt ype
ti sh
ar ies
al k
al ism
ed er
es p
re w
Ġs ide
at ory
Ġp os
Ġc ognitive
Ġin t
Ġd r
Ġd irect
Ġn uclear
ur n
us ion
ĠS am
ĠS pr
ĠS ome
ĠM odern
ec ess
ĠR ober
ĠR antan
ĠC ont
Ġl ink
Ġh is
un g
ot ed
av oid
rom an
Ġpro jects
ĠB BC
ĠB roadcasting
ĠIn c
ĠW ood
Ġcom b
ĠL ond
ĠE l
Ġv ia
Ġv ision
Ġv alue
Ġwith in
Ġ2 9
Ġex ch
ĠO pen
ord uck
if e
ĠU S
ag ement
Ġ19 80
Ġpr ac
15 2
Ġgener ation
ok en
bot h
ogn ition
pref ers
Ġdes crib
ib ase
limit report
eman tic
Ġcent ury
Ġgovernment s
Ġdet erm
Ġcol le
Ġext r
Ġimp act
ĠAp pro
sc heme
ateg ory
ĠEurope an
tro duction
Ġinflu ence
Ġconsider ed
ĠNetwork s
Ġconsum ption
Ġ{ \
ribut ed
Ġfeat ures
ĠRantan en
ĠLond on
5 2
6 4
C S
F ran
J ournal
L S
R ec
T op
b ers
d iv
l or
m end
p or
t arget
w orld
y ing
on y
ar ed
Ġs elf
Ġs mall
Ġo cc
at hema
Ġc ar
Ġc he
Ġc op
Ġc urrent
Ġof ficial
el i
Ġd em
Ġd yn
Ġm ade
Ġb ig
Ġb ook
om berg
Ġn ow
Ġn ecess
et a
ur ed
ec tive
ĠC ol
Ġ" '
Ġl ate
Ġh istor
ers ion
ers pec
od es
Ġpro per
10 16
ir t
um ents
ĠG r
ĠE v
Ġan n
lo ud
lo omberg
ord an
Ġ19 60
pe at
199 2
ĠK nowledge
Ġpr esent
ous e
Ġev al
tr ans
ore tical
Ġcomput ation
Ġun certain
In ter
ĠAl gorithm
ver ti
com mons
int on
int ed
hes is
Ġsome times
Ġreport ed
ob ile
Ġbi ases
ple ment
br idge
Ġinput s
Ġcommun ications
Ġass um
aa a
Ġtyp es
ĠHow ever
Ġcor re
Ġdom in
Ġret rieved
ĠRep ort
ene tic
stit ute
Ġrelationship s
ĠPet er
Ġstruct ure
Ġbr ain
ĠStep hens
Ø± Ø
htt ps
oming os
Ġestabl ished
Ġpars ing
Ġprev ious
ĠAf ric
pinn ed
istr ation
ĠSpr inger
" //
% }.
( ){
( "//
) !
> .
A M
A nd
C ol
D ec
D ef
F or
N etwork
O ther
O pen
W ord
a ul
b lock
c ounter
e enth
f ree
g ener
h ide
i tions
k er
l is
l ess
n ing
n ame
t le
v in
w eb
Å ¡
Ð µ
à ®
à ²
Ġ i
Ġ el
Ġ ide
Ġ end
in ci
Ġt arget
en ge
en tity
he ader
al pha
es tern
re peat
Ġs afety
Ġs uggest
Ġo thers
Ġp op
Ġp olicy
ch iev
Ġin s
el er
el ine
ĠA b
Ġd ay
Ġm odern
Ġm edical
Ġw hether
Ġ" }.
Ġl arg
Ġre inforcement
Ġh ap
Ġth ings
ac ing
âĢ Ĳ
ith er
Ġor der
ach ten
ĠB ro
ĠB usiness
ĠB loomberg
Ġg u
Ġg et
Ġg ame
ir d
op e
ber t
ĠH uman
ĠF ound
Ġan other
Ġst art
ep ar
and s
ear le
up per
se qu
Ġtr av
est ric
199 6
tit em
ost rom
Ġac tion
ual Editor
Ġcl os
art in
14 0
Ġdis s
evelop ment
skin s
Ġe as
edic ine
Ġtrans mit
media wiki
Ġaut onomous
Al l
ĠComput ing
oli tics
Ġpredic tions
Ġy ou
Ġme ans
Ġprov ide
Ġgro w
ĠAg ency
Ġcap ital
ĠMcC orduck
Sh ort
hu ber
RL Q
Ġeconom ic
Ġpattern s
Ġaccur acy
Ġimpro ve
ĠBri tish
class Name
Ġfair ness
agaz ine
Ġcount ries
Ġinv est
Ġsignific ant
uz z
ĠCam bridge
mid huber
Ġchar acter
Ġside bar
lis titem
, _
7 3
9 8
B i
C A
D A
P h
S peech
] .
a ud
a ult
c hes
f e
g et
h uman
l in
m e
s y
s cience
t a
{ .
er ence
Ġt elegraph
Ġa ff
Ġa round
Ġa chiev
or ation
al d
an ces
Ġthe oretical
re ed
re es
Ġs ynt
Ġp age
ch itect
Ġc orpor
Ġin tegr
ĠA t
Ġf ac
Ġf und
Ġf ree
Ġd id
Ġb as
ig her
om al
Ġn ov
Ġ20 10
id ence
Ġl ist
ĠN o
ĠN ature
st e
Ġre ading
ul l
ul tim
ad ig
ad em
iv il
ĠP hilosophy
19 86
ter m
ach in
Ġg reat
Ġg rammar
ir es
ia g
ain s
ain st
ĠIn ter
Ġcom mercial
ĠH u
ĠH av
ĠH achten
Ġan sw
Ġv er
our se
ud son
ak er
Ġare as
ĠSt uart
Ġcan not
Ġun supervised
Ġcl uster
ind ents
ĠUn ion
Ġad verti
Ġits elf
Ġpl ace
Ġpl anning
Ġsh ould
Ġaut hor
Ġem erg
Ġreport s
yp ot
tiv ely
Ġfield s
Ġform al
Ġpredic t
Ġspec ial
ĠPr ism
Ġdisc uss
Ġgro ups
off rey
log o
Ġtechniqu e
Ġtop ics
rey fus
Ð°Ñ Ģ
Ġstat ements
Ġrequ ire
fus ion
Ġmain t
wh ite
Ġchang es
Ġeth ics
Ġmem ory
Gener al
Ġinvol ves
Ġdat as
Ġmulti ple
hang ing
Ġsent ence
ĠStud ies
ĠAssoci ation
bed ded
ĠSim on
Ġcomplex ity
ĠGerm any
Ġjob s
ilit ary
Soci al
rist op
ceed ings
Ġdeterm ine
sy ch
" },"
) ;&#
3 1
C O
D on
E m
E v
E volution
F urther
J ohn
M ind
O r
P ars
S T
S ch
S im
T oken
b ability
g ed
i ar
i ers
k y
m od
s et
s ol
s cription
u k
u it
u el
u ations
} }.
Ð ĳ
Ñ ĥ
Ġ )
Ġ enti
in clud
Ġt rees
al c
al ian
es ign
an ings
an ford
Ġs um
Ġs ymbolic
at ely
Ġp ass
Ġc r
Ġc ases
Ġin tro
ic t
Ġ( "
ĠA cc
Ġf r
Ġf ramework
Ġm ass
Ġm ust
Ġw ar
Ġw ro
Ġw ww
om en
as k
Ġto o
ĠS ur
ĠS ov
ce pts
ĠM ass
ĠM achines
ĠM iddle
ĠM icrosoft
ĠT ech
ĠC an
il t
Ġl ow
st ri
Ġre f
Ġre com
Ġh idden
ĠP ower
ĠP ublic
ac ed
19 89
Ġpro pos
ab ly
ĠB ut
ĠB ooks
Ġle ading
ap er
op edia
ĠD o
ĠIn troduction
ĠIn stitute
ĠW ork
ĠW hen
Ġas p
ĠH inton
ĠThe ory
CITEREF V
Ġst atistics
and a
Ġus ers
cl opedia
Ġare a
200 0
00 0
gin ning
ill ions
all enge
Ġpr es
uss ian
Ġac tions
Ġac ross
oc al
Ġcomput ers
ati v
Com p
Ġem ploy
Ġ200 6
ĠĠĠĠĠĠĠĠĠĠĠĠ ĠĠĊ
Re g
Ġexper im
Ġstr ong
ĠĠĠĠĠĠĠĠĠĠĠĠĠĠĠĠ ĠĠĠĠĠĠĠĠĠĠĠĠĠĠĠĠ
Ġef ficient
Ġincre ased
Ġme aning
Ġvari ables
Ġgro up
Ġexpl icit
ĠAg encies
par ent
Ġorgan ization
Ġtop ic
Ġinterest s
Ġeff ects
ĠMe anings
Ġoutput s
Gener ative
Ġlimit ed
Ġiss ues
Ġdat ab
Ġappl ication
fdfd fd
Ġsuccess ful
ĠAut om
Ġlay ers
Go ogle
Ġaddition al
Ġprovid ed
ÑĢ Ð
Ġsing le
miss ion
rel ated
ĠRober t
Ġexch ange
Ġdiss emin
Ġadverti sing
ĠSov iet
stri p
4 15
5 24
7 0
7 8
7 9
C ent
E thics
F l
M L
P hilosophy
R ose
W hy
[ ]
b a
c ements
d ec
d ate
d ocument
g ment
i ews
k a
l oss
m ann
o z
o ch
o ol
q i
r ary
s ource
x im
x ford
ª ŀ
Ã ¢
Ð ½
è ªŀ
Ġ Â
in it
er o
Ġt ech
Ġa ble
or ge
ar ial
re en
re am
Ġs ci
Ġs enti
Ġs ize
Ġs elect
Ġs aid
Ġs uf
Ġs till
at han
it ems
ro p
Ġc ost
nd er
ic on
ĠA CM
Ġf ail
Ġf urther
Ġd el
Ġd ue
Ġm ight
Ġb est
Ġb roadcast
Ġw eb
om s
om es
om an
em i
us h
ĠM any
ĠM artin
ĠC ultural
il ities
Ġl ife
ev ent
ul s
ul ts
Ġth ree
Ġth ink
iv ing
ĠP olitical
Ġpro duced
ĠB engio
pl ace
ĠD em
ĠW all
Ġcon d
ĠH ar
ĠH ill
ĠL a
ĠF ace
ĠF acts
Ġst ory
ep th
and ed
Ġus ually
Ġit ems
Ġtr ue
11 5
Ġpr inci
ĠCh at
Ġim ages
pro cessing
Ġch at
Ġev olution
ens ive
Ġres ults
ard ian
Ġag ainst
not ated
14 5
Ġsp read
Ġad van
gram ming
Ġe ither
Ġsol utions
ra w
gan ization
ĠPro ceedings
ten tion
ha o
Ġrepr inted
iti z
ĠDec ision
Ġind epend
ne y
Ġhe lp
ĠĠĠĠĠĠĠĠĠĠĠĠ ĠĠĠ
ular ity
Ġsim ple
Ġexper ts
){ .
Ġstr ateg
ĠWik idata
Ġdef inition
hilosop h
vers arial
ade h
Ġdist ribution
Ġeff ect
Ġsup er
Le arning
Ġeth ical
Ġlaw s
Ġiss ue
ĠRo botics
à¥ Ģ
Ġpriv acy
ĠGu ardian
Ġline ar
Ġprod uce
Ġprof ession
fit ting
Ġwid ely
kow itz
pear ance
Trans form
alleng es
Ġconscious ness
Ġextr action
Ġann oun
iag nos
Ġwro te
" "
) }.
+ \
6 2
A S
A b
A lex
D is
D if
G e
J s
L L
L at
L ock
M ulti
M athema
N ames
P ublic
S p
U LS
b l
b ase
c are
c urs
c ookie
d imension
g y
g ative
h ere
i ro
j ournal
k now
m en
m ith
m aking
n ews
o ught
s ite
s ister
u an
u ous
| |
Ã §
Õ ¥
Ù Ī
Û Į
à ¨
à °
à ±
à ´
à ½
Ġ $
in ion
er ge
Ġt ele
on str
or ed
or ing
he l
an k
is es
20 97
Ġp ur
Ġp ri
Ġp erspec
it che
Ġc alc
Ġin stit
Ġf un
Ġf ir
Ġf ile
Ġf acts
Ġm in
Ġm akes
Ġb et
Ġb ound
Ġb roadcasting
om in
et t
em ory
ol l
ĠS il
am et
ĠM at
ĠM oh
ec urity
ĠC NN
ĠI BM
ĠN ational
pars e
Ġh igher
ex ual
ĠP olicy
ac uation
ell ing
av ec
ĠB en
Ġg ames
10 7
10 38
ĠD omingos
ĠIn ference
ĠL aw
ĠF uture
ĠE thics
CITEREF P
Ġv ast
Ġv ery
our ces
ĠĠĠĠĠĠĠĠ Ċ
riev al
ĠO xford
se e
Ġar r
ak ker
cl us
200 3
00 3
Ġ19 50
ĠSt ra
":" +\
end er
11 7
Ġim plement
tern ative
wg Is
wg ULS
tical ly
Ġev ery
enc ed
Ġac cess
gorith ms
not her
ĠAl an
ĠAl pha
ĠTh ere
13 3
ĠV incent
Ġab br
Ġe qu
com mun
dis abled
ib ility
ib rary
Ġro bots
Ġinter pre
Ġinter action
Ġtechn ologies
":{" @
Ex p
Ġind ustry
Ġqu ick
ĠMedia Wiki
Ġob jects
Ġacc ount
Ġacc eler
ĠĠĠĠĠĠĠĠĠĠĠĠ Ċ
tiv es
St ep
St atistical
ax im
Ġpredic tion
elev ant
sub scription
Ġincre ase
Ġdisc overy
sp acing
Ġhow ever
ĠAmeric a
main t
Ġman ip
Tr ading
van chor
ĠSch udson
ww w
Ġsup port
Ġnum er
Ġarg ument
reg istration
Ġstat ement
vis ualEditor
Ġsec ond
Ġmem bers
":[" ","
Ġperson al
Ġelect ric
Ġconcern s
Ne ural
Ġsit uation
Article T
Ã¼ r
Ġbl ack
ĠBer kowitz
Ġresp ons
pag ation
pag anda
Media Wiki
Ġconn ection
wgR elevant
Ġpo ints
osh ua
Ġincreasing ly
ĠCre ation
plain list
central aut
Mc C
ĠAnal ysis
No tice
Ġcop y
irt ual
trans parent
Ġcorre ct
Evolution ary
Ġintro duced
Ġrecom mend
Ġasp ects
ativ ely
dimension al
2097 152
itche ll
":"+\ \"
. _
5 1
5 00
6 3
6 8
8 202
? "
B e
E lect
J uly
N or
P ubl
P ages
R C
R ev
R andom
S ome
S elf
S emantic
V is
W e
a M
a o
a Ã
a is
a im
c o
c ite
e g
e i
f low
h ib
l ar
l ab
m ost
n ov
o int
p at
r esent
s uch
s mall
v iew
w in
w ay
w rit
â µ
Ġ -
Ġ u
Ġ |
Ġ era
in i
in form
er ial
Ġt e
Ġt imes
ar ter
ar ian
he ad
es ents
Ġs ymb
Ġs election
Ġs epar
Ġo ur
it er
Ġc our
Ġc ulture
Ġc ategories
Ġin iti
ĠA ct
Ġf ar
Ġf it
Ġf am
Ġd er
Ġm ess
Ġm ap
Ġb ro
Ġb and
Ġb road
Ġw r
Ġw atch
ig ation
om as
Ġn odes
Ġto ol
ur d
ur k
ĠS c
ĠS p
ĠS erv
ĠS earle
ĠM ac
ĠM ethod
ĠM insky
ĠM agazine
ec ond
ĠT elevision
ĠT elegraph
ĠR is
ĠR adio
ĠC ognitive
Ġl ed
Ġl ik
Ġl ack
Ġh ardware
Ġh ypot
ad ient
iv acy
ac ist
od ay
ot es
19 50
ter nal
ly ing
Ġpro duc
Ġpro duction
Ġpro babilistic
Ġpro bability
ĠB as
ĠB rit
ĠB akker
Ġg raph
Ġle vel
ap e
ĠD esign
ĠIn ternet
os en
ĠW hat
ĠW estern
Ġcon tr
Ġcon ference
ĠH istor
ĠL og
bo oks
ĠF ran
Ġbe fore
Ġbe ginning
ĠE ast
Ġal ready
CITEREF F
ep ort
ub ha
Ġus age
Ġar chitect
lo ad
200 2
ĠU s
ĠU se
ble m
ef ul
pe ti
199 0
mar k
end a
Ġ3 3
ĠCh a
ĠCh ristop
ref erences
Ġch o
Ġev idence
ip p
ens or
ĠCom mons
Ġap ply
Ġk ey
14 6
Ġcomp any
cri pt
Ġgener ate
Ġsol ving
Ġpl aces
ra el
Ġinclud es
ee k
Ġrepr esents
Ġrec ord
Ġ200 1
Ġ200 7
ple te
Re inforcement
Ġcent ral
Ġrepresent ed
az on
Ġpower ful
lan tic
Ġup on
Ġam ount
Ġdef ined
Ġexpl ain
CITEREFM c
ves ti
Ġcap able
Ġman agement
ĠInd ia
Ġred uction
Ġneed ed
Ap plications
Ġse gment
ĠSch midhuber
Ġlab eled
Ġcor resp
Ġret rieval
Ġes tim
arr en
Ġact ually
ĠEngl and
erg y
Ġconcern ed
Ġsit uations
ĠEm p
ĠStud y
Ġappl ied
Ro bot
ĠGe orge
amb ig
Ġparticular ly
cer pt
Ġspe ed
Ġprod uct
Ġaud ience
Ġallow s
Ġmis information
Rel ated
ĠSam uel
ĠAppro ach
eli ef
ĠAfric a
omal y
ste in
adig m
ĠHav as
Ġcluster ing
Ġdatas ets
ĠLa Rose
Ġpri or
Ġbet ter
Ġquick ly
ĠBrit ain
ubha ar
/ &#
2 15
2 14
4 1
; /&#
= "
D ist
D igital
G a
G loss
H ardware
I nd
L og
N ilsson
S A
S up
S upervised
S cientific
U p
V ari
W ill
W att
a tics
e qi
f r
g al
g es
h i
i ol
i ri
m y
m achine
n ew
o ore
r ical
s our
u v
u x
v ari
y al
y le
× Ļ
Ġ ess
Ġ error
in s
in y
er X
Ġt reat
on se
Ġa id
ti f
en i
ar a
ar ly
al ter
ed u
es e
an on
re t
re et
re qu
re gl
Ġs om
Ġs ense
at o
at z
at ell
Ġp ages
ch ive
Ġc oun
Ġc ase
Ġc ross
Ġin ference
ic a
Ġf ew
Ġf low
Ġd ire
Ġm orph
ent ure
Ġw ide
Ġw ire
Ġn amed
Ġto ok
Ġto day
ĠS e
ĠS ol
ĠS um
ĠS cientific
ĠS outh
ĠM an
ĠM et
ĠM ind
ĠM emory
ec ause
ĠT o
ĠT w
ĠT er
ĠĠĠĠ ĠĠ
ĠC O
ĠC ite
16 3
il le
Ġl and
Ġl ast
ĠN et
st er
ev en
Ġre pl
Ġre main
ul us
ul ating
ist ers
Ġh ere
ad es
Ġth ous
Ġth ought
ĠP er
ĠP at
ĠP ost
ers e
ri x
un strip
19 91
ell ow
av ing
ow ler
âĢ ¦
th ing
th ur
ĠB ostrom
Ġg ood
Ġg ained
Ġle ast
ĠJ ordan
10 5
fic i
ci pl
ap iro
ĠD if
ĠD isc
ĠD evelopment
ĠD reyfus
um e
um p
ĠIn vention
ĠW at
ĠH ol
ĠH all
ĠL i
ĠL inguistics
CITEREF J
Ġv s
Ġv is
Ġst ep
and er
ov regl
ĠO b
ĠO p
ĠO ut
ĠO ther
if f
ĠU sing
ag s
ĠSt atistical
ĠSt arr
ĠSt reet
ill an
ĠK ar
end s
ĠCh allenge
Ġim g
Ġch ange
12 4
ign ment
ard s
Ġk ind
enti ally
Ġun til
Ġcont ents
Ġcont aining
ition al
ati ves
line ar
ys on
25 5
oun ts
Ġad op
Ġro bot
Ġhuman ity
Ġem otion
Ex pl
Ġ200 9
News pap
eman tics
Ġacc ording
Ġcent ers
St atistics
Ġmat erial
urr ed
tt ers
ĠĠĠĠĠĠĠĠĠĠĠĠĠĠĠĠ Ċ
orp us
Ġexp ress
Ġexp ected
ll er
Ġreal ity
Ġvari ety
Ġdisc ourse
sp ace
Ġstud ies
Cont ent
ah n
Ġcre ation
log s
Ġfound ed
Ġass ist
ĠEx per
ĠAp plications
Ġred uc
ey er
Ġoper ations
Th is
Ġse em
Ġse qu
Ġlab els
Ġarg ued
jec tivity
lap s
bab ly
Ġdesign ed
à¦ ¾
ĠX in
Ġsec urity
Ġsur vey
ĠDeep Mind
ĠNewspap ers
Ġsent ences
ĠGe offrey
Ġpriv ate
Ġwrit ten
ograph y
Ġperce ption
ĠMark ov
Ġread ers
imension ality
ĠFr ance
Ġevent ually
gress ive
ĠMor avec
ĠGener al
Techn ological
Ġmon th
Ġobjec tivity
Ġbo om
Se erX
Ġnecess ary
ĠCol le
Ġhap pen
Ġtrav el
achin ery
includ ing
Ġdatab ases
ĠChat GPT
Ab out
know n
Ġinstit utions
Ġfun ctions
ĠStra ubhaar
commun ications
Ġcopy right
ĠBas ic
Ġarchitect ure
ĠCha os
Ġsegment ation
eqi ad
Ġcoun try
Ġmorph ology
ĠCite SeerX
ovregl io
' :
' re
) "
1 20
1 93
2 16
2 19
2 11
3 00
3 18
4 00
5 85
6 1
7 4
A ugust
B S
C hat
C urrent
D avid
F rom
G lobal
M arch
N air
N ES
P S
P l
R ed
R ussell
R AM
S ub
S tr
U S
a ur
b or
c y
d d
d l
d es
e ed
f ile
g lobal
g reg
h ic
h old
i um
i ans
k i
k o
k ern
k eep
l ov
l ier
l iver
m outh
n g
n ers
p tr
r b
s pec
s izing
s isters
v ant
w s
Ġ ign
Ġ enc
in et
in ct
in ary
er ation
on ding
Ġa im
en ko
ar tificial
ar ily
al t
al mon
an e
ing h
ut h
Ġs w
Ġs ch
tion ary
Ġp ast
Ġp olic
Ġp hilosophy
Ġp sych
Ġp aper
it ch
it ness
Ġc are
Ġc ategory
Ġc itiz
Ġin tr
Ġof f
Ġf il
Ġf our
Ġf iction
Ġd eb
Ġd ivid
Ġd iagnos
Ġm ov
Ġm illion
Ġm ilitary
Ġm axim
Ġb el
Ġb ad
om er
Ġn or
Ġn ext
Ġn ames
Ġn ormal
as a
Ġto ken
Ġto wards
us tr
ĠS up
ĠS ha
ĠS afety
ĠM il
ec ast
ĠT im
16 5
16 7
il ding
Ġl ines
Ġl oss
Ġl ater
ĠN g
ev in
Ġre ach
ist ential
Ġh ard
Ġh arm
Ġh aving
Ġh dl
ad i
tic ip
ĠP ubl
ĠP ark
ĠP attern
ĠP ears
Ġon ce
ri ed
ri ch
od al
ot o
ell a
Ġ[ âĢ¦
Ġr ace
Ġr ange
Ġr andom
Ġr acist
10 9
10 80
pl atform
um b
ĠW ol
ĠW ith
Ġcon cept
Ġcon cepts
Ġcom e
Ġcom ment
ĠH arv
ĠG old
ĠG reg
ĠG PT
ĠF rom
ĠF orm
ĠF owler
ĠE ff
ĠE lect
ate keep
ort al
Ġst and
Ġst ates
ub e
Ġwh y
ov ering
Ġex act
Ġex clus
Ġus eful
qu e
qu ist
ĠO f
ĠO ne
port un
ech an
Ġ19 97
Ġdo c
ill a
11 45
pro pagation
Ġmodel ing
Ġch ann
Ġne uro
Ġac adem
fer ences
ite box
Ġag ree
Ġun empl
Ar g
ĠY ou
ĠAl l
art mouth
ys ical
ĠTh ink
13 5
13 9
14 3
ind ow
Ġcomp on
ĠV ol
ĠLe e
ons cious
Ġj ust
te gree
ower ed
ors hip
Ġcons ist
Ġpl ant
ra h
ra tic
oh r
ile y
Ġbec omes
22 9
ĠGo od
Ġunder lying
ier arch
Ġappro xim
Wik imedia
oy ment
ĠAn th
Re ad
Ġrepresent ations
Ġreg ul
Ġreg ard
Ġexper i
à¤ ¾
ĠĠĠĠĠĠĠĠĠĠĠĠĠĠĠĠ Ġ
Ġsc ale
ĠWik imedia
sp ired
Ġwork s
par ency
log ging
Ġdevelopment s
sh op
ĠInd uctive
ĠRev olution
ron ti
ĠAnd rew
Th ere
Ġde ploy
Ġcontrol led
sc ale
entific ation
hor ity
ĠRep ublic
ĠRep resent
Ġstat us
ĠMcC arthy
Ġmathema tics
Ġchang ed
Ġclassif y
áĢ ¬
Ġautom ation
Ġfin ding
ĠRo bots
Ġstruct ures
Ġbu ild
ĠCl ass
Ġaccur ate
ĠAssoci ated
bed ding
Ġwrit ing
Ġlay er
ĠBri an
ĠTrans actions
ĠGerm an
ĠGener ative
Techn ology
ĠRec ognition
Ġfollow ing
ĠJapan ese
Ġhealth care
Ø§ Ø±Ø
Ġassoci ated
Ġmeas ures
Ġphys ical
Ġpos ition
Ġdirect ly
ĠOpen AI
Ġprac tice
Ġcolle ction
Top ics
Ġdyn am
Dec ision
gener ated
Ġpop ular
ĠFound ation
Ġgrow th
Ġcorpor a
Ġbas is
ĠAutom ation
ĠÂ §
Ġperspec tive
nov ation
Ġu til
ĠServ ice
ĠEmp ire
sour ced
fici ency
ĠWat son
NES CO
sisters itebox
inet eenth
ĠPears on
Ġ[âĢ¦ ]
ĠEff ects
Ġunempl oyment
" }
" ),
" }.
' $
' +
' ".
( '
( /
( {"
, '
2 88
4 33
: //
= {"
> :
A N
A T
A nal
B y
B ut
B ased
C un
C ss
C ode
D own
E le
F unction
G P
H ints
I S
I BM
J une
J anuary
K nowledge
L ist
M E
M s
N av
N um
N ovember
N LP
O b
O p
S ci
S pecial
S ymbolic
S uggest
T able
U pload
V ersion
Z ero
[ ^
] +
^ |
_ {
a tically
c x
c all
c ount
d epth
f ig
f rom
f old
f ellow
g en
g ad
h ors
h ua
i Å
i á
j s
j qu
k top
m o
m ers
m ake
m atch
n ear
p ri
p ass
p ose
p ush
r c
r p
r u
r ase
s earch
s ymbolic
s cribunto
t z
t es
u ing
u ate
u ated
v ille
w an
w ell
w atch
w ays
w indow
z el
¡ Õ
» Î
Ä Į
Ð ³
Õ ¡Õ
Ö Ģ
Ù Ĭ
Ú ©
à ¸
Ġ \
Ġ ge
Ġ ve
Ġ ener
Ġ ens
Ġ ele
Ġ err
in ch
er b
Ġt emplate
Ġa ver
ti s
or ial
en ef
en ry
ar les
ar row
al ing
ed d
ed Edit
ut sk
re pr
re place
Ġs mar
Ġs ays
Ġs atell
at al
20 7
le in
le te
Ġp oss
it ter
ch a
Ġc ame
Ġc ause
Ġc ybernetics
Ġc ivil
Ġc orpus
Ġin vesti
Ġof fer
ic ate
el and
ĠA ss
ĠA nother
Ġf l
Ġf ul
Ġf alse
Ġd ed
Ġd est
Ġm er
Ġm et
Ġm id
Ġm edicine
Ġm illions
Ġb ody
Ġb illion
ig er
Ġn ature
et ting
Ġ1 00
Ġ1 80
ur a
ur ch
us k
us ic
us age
ol ti
ĠS ar
ĠS an
ĠS ci
ĠS elf
ĠS mith
ĠS almon
91 1
am m
am s
am ent
ĠM ining
ĠM ulti
ĠM achinery
\" ""
ĠT om
ĠT oday
ĠR ay
ĠR ich
ĠR oman
ĠC ri
ĠC loud
16 4
ĠN ic
st s
st art
im in
Ġh ouse
ad d
ĠP al
ĠP art
ĠP olitics
ĠP erse
ri an
ot ted
19 0
19 8
19 80
19 83
ell ed
av es
ow ski
Ġpro paganda
ab ilities
ay an
ay lor
ĠB ig
Ġg overn
Ġg enetic
ĠJ ack
10 6
10 8
Ġfor e
Ġfor ms
pl icit
ap id
op en
op tions
op ups
ĠD i
ĠD on
ĠD uring
ĠD artmouth
ĠIn telligent
ĠW eb
ĠW rit
Ġcon vers
Ġcon sequ
Ġcom es
Ġcom peti
ve ill
ĠG az
ĠL L
ĠAr thur
bo tic
ĠF ox
Ġal though
Ġal most
CITEREF Al
Ġv on
Ġv ers
Ġst ations
Ġst yle
ĉĉĉĉ ĉ
ĉĉĉĉ ĉĉĉĉĉĊ
Ġwh ite
202 5
ĠĠĠĠĠĠĠĠ ĠĠĊ
Ġby tes
Ġex hib
Ġit em
form ed
se y
Ġar t
bar chive
lo c
ak is
port ance
Ġtr uth
ack ets
ans ion
Ġ19 81
ĠSt ate
sk a
ill ed
ĠK ing
ĠK enn
11 2
11 3
11 8
ast y
Ġim portance
pro fit
pro gressive
Ġch un
Ġch allenges
Ġch osen
wg B
wg M
wg W
wg Media
wg User
wg GE
12 9
pr ise
ision Id
Ġac cept
15 3
15 4
15 8
Ġap pear
Ġun sourced
In ternet
now rap
18 3
18 5
18 911
ĠAl gorithms
tim ate
tim ization
13 2
13 6
14 4
Ġdis put
ĠV al
ĠV erge
ons ive
cri ptions
af f
26 1
26 2
com es
com plete
Ġcons tit
Ġdes cent
Ġsol ution
Ġdevelop ing
wik idata
wik ibase
play ing
Ġro ut
Ġinter nal
ĠPro blem
ck User
border ed
Ġinclud ed
erm an
Ġsub ject
ĠRe ading
86 87
Ġop pos
Ġop inion
Ġ6 0
ĠJournal ists
Ġem bedding
Ex ternal
ail s
Ġ200 4
Ġ200 8
Ġunder stand
ivers al
36 2
40 2
Al gorithm
En ter
Ġpar adigm
Wik ipedia
Wik ibase
Ġbi ology
Ġbi ased
Ġjournal ist
Comput ing
Ġ7 0
eng th
Ġmat ch
Ġmost ly
ĠEn cy
29 8
ĠZ hang
ĠMc Nair
Pro bably
à¤ °
Ġserv ed
ĠCon str
Ġexp anded
Ġrecogn ize
59 585
Ġlog ical
Edit able
min i
air s
Ġam ounts
Ġdef ine
Ġexpl an
br ackets
Cont ents
Cont act
Cont rol
Cont rib
Ġcre ate
Ġcol lect
Ġwe ap
Ġass ess
46 5
ful l
Ġpre m
ĠTechn ologies
Ap pearance
Page Name
Ġeff ective
page Language
Ġact ors
Ġrequ ired
ĠModel s
Ġlong er
Ġpartic ip
Ġchang ing
Ġmarket ing
Ref erences
Ref erence
Ġclassif ier
land s
Ġcirc ulation
ĠPet tegree
Ġautom ated
Ġfin ancial
ash ion
inter language
Ġbu ilt
Article Id
ĠCent ral
Im age
Ġdifficult y
htt p
0000 0
Ġfocus es
Pr int
}); });
ĠAm azon
ĠFr ench
wgR estric
View er
Ġpost al
Ġexist ential
Ġcontin ued
Ġatt empt
Ġadv ant
Ġplay ing
On line
Ġser ve
Ġser ies
Ġwid esp
ĠComp ression
gree k
Ġdev ices
ĠWh ite
Ġconstr uction
Ġanaly ze
Ġfe el
empt y
exp and
ĠWill iam
wgC anon
wgPage Content
central Notice
Ġmen u
Ġrece ived
ĠFin ancial
ĠEconom ist
resp onsive
Autom ated
To ols
cap tion
ĠCont rol
Ġdescrib ed
Ġdyn asty
ĠEv ents
Ġpresent ed
Col laps
Def ault
Open AI
à² ¨
Ġsuggest ed
Ġlarg er
Ġclos ely
Ġtransmit ted
aud e
Ġachiev e
Ġsynt hesis
ĠAt lantic
Ġfund ing
ĠHu ang
Ġchanges Upload
Don ate
Or ganization
Ġenti ties
Ġsum mar
Ġpropos ed
ÑĢÐ ¿
Ġdissemin ate
[] ).
dec oration
Ã¢ n
Ġsuf ficient
Ġdel iver
ĠFace book
Ġstrateg y
hilosoph ical
Transform Table
Dif fer
Names pace
bl att
curs or
|| []).
à± ģ
Ġtele communications
Ġfir ms
wgULS is
":[""," "],"
ArticleT arget
centralaut h
":"+\\" ,"
writ ten
inform atics
Ġsepar ate
ĠMethod s
Ġlik ely
Ġcontr ast
ĠHistor ian
ambig uation
Gloss ary
Ġthous ands
Ġadop ted
)" \
des ktop
global Css
spec ific
Ġnor ms
ĠHarv ard
Ġexclus ive
ronti er
Down load
Suggest edEdit
gad get
jqu ery
make Collaps
Ġve hic
Ġener gy
utsk ever
veill ance
wgMedia Viewer
8687 59585
ĠEncy clopedia
Probably Editable
wgRestric tion
Ġwidesp read
wgCanon ical
desktop ArticleTarget
globalCss Js
makeCollaps ible
" &#
1 91
3 20
6 40
7 1
7 20
A C
A m
A t
A z
A cc
B eat
B ah
D o
D an
E C
E l
F r
F in
F uture
F ei
G overnment
G raph
H all
H arv
J apan
L evel
L ocal
M od
M ay
M ental
O C
O ctober
P er
P ress
P art
R T
R esearch
R eport
S ystem
S eptember
S ecurity
T C
T ake
T ube
U ns
U nder
V incent
W h
a un
b s
b on
b as
c a
c an
c hed
c ise
d ef
f a
f n
f ace
f ession
g ate
h n
i able
k it
k ens
m ma
m illan
o em
o ice
p ir
p ubl
p owered
r or
r acy
s l
s er
s ch
s elf
s peech
t ation
t emplate
t man
u Ã
v al
v at
v ideo
x i
y a
y an
z ation
Ã ł
Ð ·
Ð ľ
Ñ ĭ
Ø ª
Ù ¾
á ±
á ŀ
ã ĥ
Ġt aking
on off
or a
or age
ar ely
he lp
es tic
ing ton
ut ral
re m
re ement
Ġs k
Ġs ear
Ġo ld
at ter
at ab
20 4
Ġp ati
Ġp references
Ġc ur
Ġc ity
Ġc ultural
Ġin her
Ġin duction
Ġin spired
ic z
el son
ĠA ge
ĠA tt
ĠA round
Ġf av
Ġd one
Ġd ates
Ġd ays
Ġd own
Ġm or
Ġm ove
Ġm iss
Ġm echan
Ġb an
Ġb ase
Ġb elief
Ġb enef
Ġw rap
om et
om sky
om onoff
et te
as ion
as ons
Ġ1 93
ur istic
ur der
ol es
ĠS ub
ĠS earch
ĠS ection
ĠS exual
ĠS utskever
ce ption
am i
ĠM el
ĠM itchell
ĠM oore
id ers
ĠT ext
ĠR ob
ĠR oad
ĠC o
ĠC ar
ĠC our
ĠC arl
ĠI f
Ġ" "
il s
Ġl ives
Ġl iter
ĠN ineteenth
st on
st ant
Ġre ve
Ġre cent
Ġre ally
Ġre volution
Ġre view
im ization
ist ry
Ġh our
ad a
ad ers
tic ism
iv al
iv ely
ĠP it
ĠP hil
ĠP aul
ac tive
ri a
ri end
od er
ot t
ot str
ot ograph
19 23
19 65
av en
ow icz
ĠB i
ĠB ern
ĠB ecause
Ġg ather
Ġr un
Ġr est
Ġr are
Ġr estric
ĠJ on
ĠJ an
ĠJ osh
10 1
10 3
10 17
fic e
Ġfor ecast
ion e
ir y
pl ied
ap s
ap ter
ĠD ep
ain ts
um ar
Ġnews worth
ĠIn t
os ed
os ion
os ep
ĠG ro
ĠG eni
ĠL at
ĠF ree
ĠF lor
ĠE r
ĠE ach
Ġal ignment
CITEREF Ch
ang ers
Ġv ide
Ġv ersion
Ġv irtual
Ġv iol
Ġst orage
Ġwh ose
ations hip
Ġus er
up ta
ĠO CL
ure au
Ġtr ad
cl imit
if er
ĠU K
ag o
ag ed
ĠSt anford
ef f
ef erence
ĠK evin
end ing
11 26
11 77
Ġ3 5
Ġpr im
ĠCh omsky
per ial
pro file
Ġev er
Ġev acuation
gr ic
to ken
Ġne gative
Ġres olution
Ġres ources
Ġac qu
Ġac com
15 0
15 6
15 9
oc racy
Ġag enda
Ġag greg
gro w
In ternational
eth ing
Ġ5 4
18 4
ĠY oshua
Ġat tention
ĠNor th
art ment
ys ics
13 0
13 4
ĠUn supervised
Ġcomp ress
Ġdis e
Ġdis cre
ĠV enture
17 4
17 8
25 4
25 6
25 9
Ġgener ally
io informatics
Ġ4 5
Ġen ough
Com mun
ĠNew quist
ann o
Ġro om
Ġsh if
Ġsh ared
Ġout comes
Ġtrans parency
ile i
ĠRe inforcement
33 5
33 7
Ġ6 6
onom y
30 6
Ex istential
Ġ200 3
uct ure
uct ured
Ġreport ers
36 3
cont ext
Ġtext books
Al pha
Al though
Ġqu an
Ġqu ality
Ġpar ties
oy al
Ġhe ad
Ġob t
Ġbi ological
ular ly
Ġset s
Re ason
Ġsim pl
ĠIt alian
ĠEn ergy
38 1
38 7
iqu es
iqu ote
ĠZ h
ĠZ hao
Ġpredic tive
Pro ject
Pro gramming
à¤ ¨
Ġef ficiency
ĠCon vers
Ġover fitting
Ġsc ene
ĠAs h
Ġdet ect
sub tle
Ġprov ing
fl ix
39 5
Ġexpl osion
Ġid entification
Ġwe ight
Ġcap t
Ġthrough out
ris is
An notated
hen omen
Ġimp ossible
Ġimp acts
35 6
Ġred uce
Ġneed s
Ġneed ing
Ġoper ational
Ġoper ating
Ap pro
Ġlab elling
197 9
ĠSh apiro
Ð°Ñ Ī
Ð°Ñ ı
Ġdom ain
Ġarg ues
Ġprint ing
volution al
Ġidentif ied
Ġav oid
Ġsee k
Aut hority
vis ible
enn ett
ĠModel ing
Ġcommon ly
ÑģÐº Ð°Ñı
Ref list
Ġsur veillance
Ġed uc
ash ington
Ġsimilar ity
ĠStep hen
Ã¼ ller
Ġter rit
Ġbl urred
ĠSim ilar
ograph ic
aut hor
Ġgr adient
Ġcri ers
Ġrele vant
ĠEd ward
Ġ197 0
ĠReg ulation
ĠQu arter
ĠComp any
Ġinc orpor
Ġlead ers
Ġobserv ed
Ġobserv ations
orph ic
Ġobjec tive
Ð¾ Ð½
Ġmeas ure
Ġphys ics
cap s
med i
Ð» Ð°ÑĢ
Ġint ended
Ġdescrib es
Fran k
Journal ism
Ġche ss
Ġche ck
Ġdem onstr
Ġnecess arily
Ġhistor ical
Ġhistor ically
Ġproper ties
Ġeval uation
Ġdomin ated
ĠReport ing
Ġprevious ly
Ðµ Ð»Ð°ÑĢ
Ġide a
Ġlarg est
Ġeas y
uzz y
Ġintegr ation
Ġlist en
ultim edia
ultim odal
Ðĳ ÐµÐ»Ð°ÑĢ
Ñĥ ÑģÐºÐ°Ñı
ĠAcc ording
Ġframework s
ĠSur vey
Ġthink ing
Ġevolution ary
Ġadvan ced
Ġindepend ence
Ġcalc ulus
ĠSil ver
amet er
Step hen
Ġsecond s
McC arthy
Elect ronic
Ġder ived
Ġwatch ing
ĠMac millan
ĠRis k
ĠChristop her
Ġcho ose
Ġsom ething
ĠSum mit
ĠTw o
ĠXin hua
Ġmonth s
ĠPubl ishing
ĠGreg ory
Ġacadem ic
onscious ness
ru ff
Ġerr ors
Ġaver age
Ġfore ign
Ġexplan ation
Bah asa
Uns upervised
oem aker
vat ski
Ġsear ches
Ġhour s
otstr ap
ĠDep artment
osep h
ĠOCL C
ĠVenture Beat
ĠQuarter ly
ÐĳÐµÐ»Ð°ÑĢ ÑĥÑģÐºÐ°Ñı
! --
' )
) &#
) ".
* ="
0 85
1 19
2 10
2 12
3 93
3 19
3 23
5 0000
9 97
: &#
< !--
= =
A ction
A ss
A tt
A pril
A ctive
B r
B ad
B engio
C C
C re
C ybernetics
D D
D ocument
E urope
F R
F eature
F anno
G ro
G enetic
H igh
H idden
L I
L ab
M O
M an
M any
M icrosoft
M obile
M usic
N at
O ut
O ver
O ne
P rev
P aul
R A
S c
S ol
S ynt
T im
T uring
V M
V ideo
W orld
a q
a ug
b ing
b urg
c ome
d e
d r
d ress
e ad
f am
f are
g ation
h ood
h avior
h idden
i u
i pl
i ant
j us
l am
l ay
l tr
m m
m ol
m ov
m box
n o
o on
o le
p p
p an
p ay
r g
r en
r av
r idge
s ha
s rc
t ected
u y
u rom
v ent
v ement
w ide
w ami
z ech
z we
~ .
µ Õ¥
Ã ¨
Ð ¹
Ð ł
Ñ Ĥ
Ñ ĩ
Ñ Į
Õ ¶
Ø ©
Ø ¬
Ù Ħ
Ù Ĩ
à ©
à ·
à º
ã Ĥ
Ġ ill
Ġ ency
Ĳ áĥ
ł áĥ
in ical
in ction
in telligent
er ed
er intelligence
Ġt arg
Ġt urn
or ate
en z
en ess
ar is
ar ry
an i
an o
an chor
Ġthe or
Ġthe ories
Ġs u
Ġs ound
Ġs een
Ġs ym
Ġs ix
Ġs cientific
Ġs kin
le er
Ġp urs
Ġp ict
Ġp ione
it tle
it arian
Ġc ut
Ġc hem
Ġc ust
Ġc aus
Ġc ode
Ġc ategor
Ġc loud
Ġc risis
ic ens
ic ago
el a
el p
el ing
ĠA P
ĠA c
ĠA fter
Ġf all
Ġf ast
Ġf ake
Ġf ashion
Ġd iv
Ġd igital
Ġm obile
Ġb ul
Ġb reak
Ġb ench
Ġw arn
Ġw ays
Ġw inter
Ġw omen
ig it
ig owski
Ġn ation
Ġn ear
as tic
em por
Ġ1 13
Ġ1 86
ur ies
ur zwe
us e
ol yn
ĠS upervised
ĠS ince
ĠS econd
am ella
ĠM L
ĠM ax
ĠM anning
id el
id ent
id ation
out ledge
ĠT V
ĠR el
ĠR ussian
ĠC ong
ĠC oh
ĠC ategory
ĠC BS
ĠI an
ĠI ts
ĠI ra
Ġ" ;
16 2
il es
il iar
Ġl ive
Ġl ook
ĠN ations
ĠN ick
ĠN BC
ĠN RC
st an
st at
st ood
Ġre ly
Ġre ven
Ġre ward
Ġre ader
im al
ul lo
ul ner
ul igowski
Ġh old
Ġh ope
Ġh ierarch
Ġth reat
ĠP ap
ĠP eople
ac tic
Ġon es
ri k
ri al
ot s
19 55
19 82
ly a
), &#
og er
Ġpro te
Ġpro ject
ach er
ĠB l
ĠB ureau
Ġr apid
Ġr arely
ĠJ ul
ĠJ ob
10 2
10 00000
ir a
ci ent
ĠD iss
ĠD ictionary
os u
ĠW ashington
Ġcon vey
Ġcon stant
ĠH or
ĠH and
ĠH aw
ĠH enry
ĠThe ir
ĠG ame
ĠF und
ĠF irst
ĠE le
ĠE ric
ĠE volution
iz es
Ġal one
Ġal ways
CITEREF N
CITEREF T
CITEREF Z
Ġv ulner
ort ug
Ġst ation
Ġst ock
amp a
ub le
our th
ik ol
ik akis
Ġex cer
ĠO liver
ud io
ant um
ak rav
Ġtr a
Ġtr ust
ack ing
ug ment
if y
if ies
ĠU nder
ĠU NESCO
ag er
ag al
ag ged
ational ism
Ġ19 93
ĠSt ev
ĠK e
ĠK l
ĠK en
ĠK arl
Ġ3 8
Ġ3 9
Ġpr ed
ĠCh apter
Ġim plications
Ġim plicit
Ġch amp
gr ay
gr ave
ern el
12 1
12 3
to climit
ign s
ens ity
Ġres pec
ĠCom ing
Ġac tiv
tr ained
ual ism
ore ign
enti ce
Ġun its
Ġun known
Ġcl aim
Ġcont ained
In telligence
ult ures
18 0
18 1
18 7
ĠAl i
Ġnot ably
art ty
ĠTh at
ĠTh ird
14 2
14 8
ind ent
one y
Ġcomp et
Ġcomp let
Ġcomp ared
ust ers
ust rial
23 4
23 6
23 8
ĠLe Cun
17 3
ver y
24 8
26 0
Ġad ap
Ġad versarial
ild ren
Ġen g
Ġen gine
Ġen ables
Ġrel atively
Com mons
978 0
act or
ff ective
Ġsol ved
Ġpl atform
Ġdec lar
Ġdec ades
Ġdevelop ers
ann y
ish ers
ish op
27 2
ĠPro fession
Ġprogram med
Ġtrans mission
erm in
Ġbec oming
Ġsub field
ert ation
Ġop tical
Ġop portun
22 8
Ġem o
30 4
aw a
Ex per
ail y
Ġ200 2
Ġunder stood
ĠMar c
Al ternative
Ġpar ti
Wik tionary
Wik iquote
ĠAn n
Ġob ject
hed ul
ĠSoci ology
Re qu
Ġ7 5
Ġcent uries
eng ers
Ġmat ter
Ġmat rix
ĠEn gineering
Ġworld wide
Ġform ed
Ġform at
Ġalgorithm ic
"] {
à¤ ª
Ġlearn s
Ġlearn er
Ġexp ect
Ġexp ression
Ġy ield
crib ers
Ġsc hedul
ĠPr ac
ĠPr entice
Ġris e
Edit View
Ġ8 2
erson al
-- >
Ġdef ining
Ġdisc over
igh th
Ðº Ðµ
Ġwork ing
Ġcre ating
Ġcol on
ĠAmeric ans
Ġext ended
Ġperform ing
Ġdist ingu
Ġdist ributed
Ġdist inct
Ġman if
82 11
ĠEx amples
epend ent
ron ics
ĠAnd re
Ġred irect
Ġsubs id
Qu ery
Ġph rase
han cements
ious ly
ĠSh oemaker
Ġdom ains
Ġdom estic
Ġloc ation
Ġarg ue
áĥ Ĳáĥ
Aut o
avi our
Ġbeh aviour
ĠMcC ullo
49 4
vis ited
Ġrequ ires
Ġany thing
dition al
Ġet c
att le
Ġhand le
Ġhand written
ph as
ix ed
ĠX ilei
Ġmajor ity
Le arn
Ġsur pass
ĠAd van
Ġclassif iers
áĢ Ļ
Ġed ition
Ġlimit ations
Ġelect ronic
Ġelect rical
Ġinvol ving
Ġway back
ĠIs rael
Ne uro
Ġeconom ics
Ġpot entially
ĠAut onomous
ĠCent ury
orn ell
Ġback propagation
ĠPar is
ĠPar ticip
Ġresp onse
ĠMark et
Ġneur on
Ġques tions
Pr ivacy
con n
Ġspe aking
emin i
Ġconn ec
Ġconn ected
Ġprovid es
Ġpo int
Ġrele ase
Ġadv ance
Ġshow ed
ĠQu est
Ġaud io
Ġmon it
ĠIm age
agaz ines
plain able
ĠHe alth
toc level
How ever
ma tical
Ġsignal s
Ġfe ed
Ġfollow ed
ĠArab ic
Ġtransform er
Rel ationship
Ø§ ÙĦ
ĠEconom ic
ĠStr ateg
127 494
eder ated
Ġdr ug
Ġocc ur
Ġofficial s
Ġuncertain ty
Ġassum ption
And erson
Ġgu ess
ĠFound ations
Ġcharacter istic
Bi as
human ism
ĠNo am
Ġansw ers
Ġver b
Ġver ification
Ġemerg ed
Ġspecial ized
Ġmaint ained
Em bedded
Sim ple
iar amella
mod ity
Ñĥ Ñģ
Ġenti re
Ġpass ed
Ġref ers
CITEREFV incent
Reg ression
Ġexperim ent
Ġexperim ental
Ġexplicit ly
524 288
oz in
Ġsci ences
Ġsenti ment
Ġbroadcast ers
ĠDem ocracy
Ġcond uct
Ġprinci ples
Mathema tical
Ġpur pose
Ġbound aries
Ġarr ang
Ġrecommend ation
Nor sk
Publ ished
aÃ ±
Ġcour t
Ġbro ught
Ġband ire
Ġwr ite
Ġhypot hesis
eek ly
Ġcorresp ond
vari ant
yal on
×Ļ ×
Ġess ential
tif y
ĠTer ms
ĠNet flix
ĠDif fusion
ĠOut line
Newspap ers
ahn eman
Ġreduc ing
ĠColle ge
Chat GPT
Red irect
Ġcitiz ens
Ġmaxim ize
Ġbel iev
ĠMil ner
Ġexact ly
Ġchann els
Ġneuro science
ĠYou Tube
ĠAnth ony
Read EditView
Ġexperi enced
Ġdynam ic
Num ber
Õ¡Õ µÕ¥
ÖĢ Õ¥
repr esent
Ġsatell ite
ĠSar ikakis
ĠRich ard
ĠGaz ette
Ġchun k
Ġaccept ed
Ġdisput es
Ġadvant age
Ġvehic les
Dan iel
bas eline
ĠPit ts
riend ly
Ġrestric ted
ĠGeni ets
ĠLat in
Ġvide os
grow th
Commun ity
Appro aches
Ġeduc ation
50000 00
MO D
Nat ur
lay er
mol ik
urom orphic
Ðł ÑĥÑģ
Ñĩ Ð°
Ġency clopedia
Ġtarg ets
urzwe il
ĠCoh en
Ġreven ue
ĠDiss ertation
Ġexcer pts
akrav artty
ÐºÐµ Ð
ĠParticip ation
Ø§ÙĦ Ø
524288 00
" ).
% !
% }
' .
) [
0 12
2 20
2 18
2 13
2 17
2 27
3 10
3 24
3 45
5 59
8 90
? :
A A
A GE
A udio
B er
B ro
B ig
B usiness
B ayesian
C itation
C ognition
D es
D evelop
D isc
D evelopment
D imensionality
E O
E p
E s
E mer
E conom
E arly
F orm
F old
F low
F ebruary
F ourth
G I
G en
G reen
H F
H ar
I G
I P
J ump
K in
K DD
L ex
L arge
L ovreglio
M M
M P
M e
M al
N A
N E
N on
O R
O S
O cc
P R
P re
P ol
P os
P ost
P eople
R es
R esp
S o
S u
S oft
S epar
S etting
T ime
T elevision
T ask
T Ã¼r
U C
U L
U se
V e
V al
V irtual
a it
b i
c is
c il
c od
c anny
d a
d f
d o
d in
d ependent
e ut
e ties
f ri
f ind
g er
g upta
h os
h ud
h ard
i y
i us
j ust
k h
k l
l a
l ua
m f
m odel
n am
n ik
n ect
n ull
p al
p ing
p ost
p son
r f
r un
r ucture
s pl
s ense
s emantics
t al
t un
t ot
t ology
t ection
u ating
u ilding
v ec
v id
w a
w all
w ick
w rap
y b
y ers
y ak
y ond
y rian
z o
z ed
z adeh
£ áĥ
¥ æ
° âµ
´ °âµ
Ã ¡
Ã ¶
Ð ¡
â ´°âµ
æ ĸ
æ Ĺ
Ġ z
Ġ 80
ļ áĥ
ľ ¬
in c
in cre
in son
er bert
Ġt al
Ġt im
Ġt akes
on io
Ġa way
ti ality
or re
or atory
en a
en al
en ed
ar ing
he t
he y
al f
al le
al per
al mers
ed ro
es i
an p
an atory
an notated
is ing
is ition
ing e
ut ch
ut her
ut orial
re aking
Ġs al
Ġs ite
Ġs yn
Ġo vers
20 3
20 8
le arn
le ts
le tters
Ġp ut
Ġp ie
Ġp olitics
Ġp uzz
Ġp hilosophical
Ġp enal
it le
it ous
ch orm
ro id
ro vers
ro oms
Ġc ars
Ġc od
Ġc ov
Ġc ore
Ġc ite
Ġc art
Ġc lear
Ġc off
Ġc ities
Ġc ultures
Ġin str
Ġin novation
ic ated
el t
ĠA yalon
Ġf ine
Ġf ear
Ġf ull
Ġd epth
Ġd my
Ġd ipl
Ġm ed
Ġm ental
Ġm urder
ent ence
Ġb al
Ġb ure
Ġb ran
Ġb elow
Ġb ox
Ġb illions
Ġb attle
Ġw elf
Ġw ider
om a
om i
om ent
om ial
om atic
om pson
Ġn ame
Ġn oun
Ġn ode
et ary
et ection
as c
as ure
as gupta
em pts
Ġ1 24
Ġ1 85
Ġto wn
ol as
ĠS H
ĠS T
ĠS er
ĠS he
ĠS uch
ĠS yn
ĠS oftware
ĠS ignal
ĠS pace
ĠS parse
Ġ20 00
ĠM u
ĠM er
ĠM aking
ĠM edical
ĠM aster
ĠM edicine
id a
id ential
ĠT ime
ĠT yp
ĠT ensor
ĠR od
ĠR ight
ĠR uss
ĠR ugg
ĠR outledge
ĠR oger
ĠC al
ĠC ur
ĠC ond
ĠC urrent
ĠC ivil
ĠC EO
Ġ" [
16 1
16 8
il ver
Ġl aun
ĠN ow
ĠN uclear
ĠN otes
ĠN ils
Ġre asons
Ġre mov
im pl
im ate
im ages
Ġh und
Ġth ough
Ġth ird
tic es
tic ians
ĠP erspec
ac cess
ge o
un a
19 87
19 67
av a
av ily
th rop
Ġpro cl
Ġpro gress
ab et
ab lo
ach ing
ĠB ar
ĠB ozin
Ġg or
Ġg ives
Ġg rew
Ġg atekeep
Ġr a
Ġr ate
Ġr ational
Ġr ates
Ġle g
Ġle gal
Ġle tters
ĠJ oy
ĠJ enn
ĠJ ones
ĠJ ST
ĠJ oseph
10 4
10 99
": []
ir ing
pl ication
op h
op eration
ĠD el
ĠD ocument
ĠD etection
ain t
ain ment
um a
ĠW est
ĠW ong
ĠW arren
ĠW eekly
Ġcon ver
Ġcon gl
Ġcon ven
Ġcon ferences
ĠH an
ĠH as
ĠH op
ĠH ans
ĠH ere
ĠH ong
ĠH ey
ĠG ates
ĠG overn
ĠG overnment
ĠL ist
ĠL arge
ĠL ife
ĠL ibrary
ĠL ovreglio
ĠAr s
ĠAr t
ĠF ive
ĠF ire
ĠF urther
ĠF ramework
ĠF rontier
ĠF osu
Ġbe yond
ĠE ven
iz ational
CITEREF Y
ang ley
Ġan ti
Ġan omaly
Ġan cient
Ġv an
and berg
ov a
ov ski
Ġex am
Ġex ec
ect ors
igin s
ĠO ur
ĠO EC
ud d
ud e
ud kow
port s
Ġtr y
Ġtr end
Ġtr ade
if th
ĠU p
ag h
ag ent
ag ging
uc tions
ech o
Ġ19 99
ef init
ill er
ill as
ĠK im
ĠK ri
ĠK au
ĠK atz
ĠK umar
11 1
Ġ3 4
Ġ3 6
ast ructure
ĠCh allenges
ĠCh arles
ĠCh akravartty
Ġim perial
ous ly
Ġch ance
12 6
12 8
Ġne igh
ĠCom mission
enc oder
Ġac tive
Ġac tivity
Ġsystem atic
oc he
oc ratic
Ġag reed
Ġag reement
Ġcomput e
The ory
Ġk eep
enti able
Ġun it
Ġcl usters
Ġcont ain
Ġ5 9
18 2
ĠY u
ati ble
ati zation
ĠAl so
ĠTh rough
ĠTh omas
13 7
14 7
ĠUn like
ĠUn iversal
Ġcomp ens
uman n
Ġdis ag
Ġdis cipl
Ġdis ambiguation
ust in
Ġsp an
Ġsp ons
Ġsp aces
23 0
23 7
23 9
ĠV ision
ĠV ox
17 0
17 7
17 00
25 2
25 8
cri be
Ġgener ator
oun cil
Ġj ud
Ġj oint
24 0
26 3
26 8
26 9
ok e
lob in
Ġ4 0
Ġ4 3
Ġen orm
Ġen abled
Ġen abl
Ġrel ative
com put
dis cipl
Ġknow s
88 0
Ġsol d
ra ft
ĠNew ell
ann on
ann ed
Ġro les
Ġro ugh
27 5
27 6
27 9
Ġsh are
ĠPro cess
ĠPro gramming
Ġanal og
Ġout per
Ġout lier
Ġtechn ological
Ġaut hors
hes ion
ĠRe ich
33 90
Ġrec urrent
22 2
Ġem phas
Ġ200 5
ier o
uct ural
36 4
36 5
ĠMar vin
40 6
Ġtext ual
Al an
Ġind ex
Ġind efinit
En gl
En tity
Ġqu ot
Ġqu oted
Ġpar amet
Wik idata
rit er
yp es
ĠAn g
Ġhe ld
Ġhe avily
Ġjournal istic
Ġset ting
Ġ7 3
Ġsim ply
Ġsim ulate
St ate
St uart
rev iew
38 4
29 4
iqu itous
Ġrepresent ative
ĠZ andberg
ĠZ lobin
Ġpublic ation
Ġreg ister
Ġreg ularly
ĠMc G
Ġ17 5
ĠCon vention
Ġrecogn ized
Ġrecogn izing
ram matical
ĠFor est
Ġsc en
Ġsc ruff
Ġcall ing
Ġlog ics
ĠPr ivacy
min istration
Ġreal ism
28 1
Ġdef end
67 4
ou y
Ġ15 6
ingu istic
soci ation
ĠAg ence
par ed
par tiality
Ġcommun ity
ĠTr ust
Ġext ensive
ski S
Ġcap abilities
Ġmark ets
ĠInd ian
ĠInd ustry
An omaly
ĠTechn ica
ĠEx pl
ĠAnd erson
Ġsubs cribers
Ġph otograph
197 2
Ġinterest ed
Ġinterest ing
Ð°Ñ Ĥ
Con c
Con cepts
Ġthere fore
Ġthere by
Cl ass
Cl uster
Cl aude
arr ative
Ġact s
ĠMe aning
istor ical
Ġbeh ind
flu ence
Ġpubl ishing
"; ".
ph one
Ġtest s
Ġpart ners
wh ere
... ]
Ġinflu enced
Is rael
Ġcirc um
Ġcirc ulated
Ġcirc uit
Ġlimit s
Ġautom atic
Ġoptim al
66 8
Ġco hesion
Ġinvol ved
urs ive
red ible
Ġterm in
ĠCl ark
ĠEm bedded
Ro botics
Ro botic
Ġfact or
Ġfact ors
ĠCent er
Ġconsum ers
max imization
Ġown ed
Ġown ers
amb ria
ĠBer lin
ĠGu ide
Ġperce ptr
As sociation
Un ited
ĠPl ant
ĠPl atform
Ġgr id
CITEREFR ussell
ĠTrans l
Ġfocus ing
cept ual
ĠOr gan
ĠOr der
ĠOr ganization
ĠOr igins
uf ficient
ĠAlex ander
ĠMor gan
Ġrele ased
Ġ197 8
tegr ated
ĠReg ression
Ġallow ed
Ġresult ing
Ġent ertain
Ġsing ularity
Ġdev i
Ġdepend ent
Ġrefer ences
Ġrefer red
Ġsignific ance
CM L
Ġedit ed
Ġedit ors
Ġsens ational
Ġsens ors
Ġinst ance
Ġinst ances
Ad versarial
ĠAnal y
Ġrece ive
Ġassoci ation
ĠOn line
He alth
eder al
Ġpos itive
Ġint ent
ĠCont in
Ġcomb ined
Ġcomb ination
ĠEl iz
Ġcolle ctive
Ġextr act
ĠAppro aches
Journal ists
Rec ent
por tion
Ġproper ty
ĠAlgorithm ic
Ġassum ptions
Dec ember
Ġel ites
Ġide as
ĠAb out
Ġhap p
Ġstart ed
Ġeas ily
Ġgrow ing
Ġinvest ment
Ġaff airs
Ġsynt ax
Ġfac ilit
Ġnov el
ĠInter pre
ĠInter action
Ġansw ering
Ev ans
ST A
set ting
sol ving
Ġfr ont
Ġref lect
Ġemploy ed
ĠĠĠĠĠĠĠĠĠĠĠĠĠĠĠĠĠĠĠĠĠĠĠĠĠĠĠĠĠĠĠĠ ĠĠĠĠĠĠĠĠĠĠĠĠĠĠĠĠ
ba um
Ġsuf fer
Ġfail ed
Ġcond itions
Ġprinci pal
Ġchat bots
Ġindepend ent
Ġstrateg ies
hilosoph ers
Ġsuper intelligence
Ġprofession al
Ġprofession als
Lat v
Lat ent
Mathema tics
Ã§ e
Ġimplement ed
Ġacceler ation
Ġacceler ated
Ġmanip ulation
Ġmanip ulate
Ġnumer ical
Ġelectric ity
Ġrespons ible
Ġcorrect ly
Vis ual
We barchive
pat hy
Ġsymb ol
Ġsymb ols
Ġiniti al
Ġbroad ly
Ġwr ong
Ġlevel s
CITEREFMc C
Ġcorresp onding
Dist ributed
Log ic
Sup port
fr astructure
Ġdire ctions
ĠMet z
ĠDisc overy
ĠOp timization
Ġkind s
Expl anatory
Ġassist ants
ĠExper ts
Ġsequ ence
Ġsequ ences
Ġsw arm
Ġsch ol
Ġpolic ies
Ġpsych ology
Ġfil ter
ĠWol ff
Ġdoc ument
Arg uments
Ġcompon ent
ĠGood fellow
Nav igation
pri etary
Ġens ure
inch illa
Ġful ly
Ġdest ro
Ġmer ch
ĠSelf ridge
ĠCri tics
ĠWrit ing
ĠConstr uction
Ġweap on
Ġprem ises
Ġsummar ization
Differ entiable
System s
atab ase
Ġpati ents
Ġmor al
Ġgather ing
Ġforecast ing
Ġviol ence
ĠConvers ation
Ġterrit ories
medi ate
Ġdemonstr ated
dr iving
pay din
rg ba
olyn omial
Ġprote in
ĠHand book
ĠHaw king
Ġchamp ion
Ġcomplet ely
Ġengine ers
Exper im
ighth ill
áĥĲáĥ łáĥ
ĠMcCullo ch
Kin sey
Lex ical
MP AS
TÃ¼r k
vid ia
¥æ ľ¬
æĹ ¥æľ¬
alle l
Ġpie ce
chorm an
Ġcart el
Ġcoff ee
Ġwelf are
ĠRuss ia
ĠRugg iero
ĠCond uct
Ġprocl am
ĠBozin ovski
ĠJST OR
":[] ,"
Ġcongl omer
ĠOEC D
udkow sky
Ġneigh bor
Ġenorm ous
Ġenabl ing
Ġrough ly
Ġindefinit ely
Engl ish
Ġparamet ers
" }}
$ )
$ ,
$ |
% }}.
' -
' ).
' ),
' );
' ""
' "}.
( )
( [^
( ^|
( ?:
( $,
) /
* "],"
+ (
+ '$
+ $|
+ '-
- \
- \\
- ]+
. ","
0 11
0 23
0 24
0 30
0 21
0 362
2 97
2 23
2 24
2 80
2 90
2 86
3 12
3 88
3 21
4 88
4 85
4 60
4 67
4 89
5 21
: ":
: ")
; (
; }
; Â
; ]+
; });});
= ["
= ([^
? ",
A c
A g
A ctions
A CL
A LL
A nother
A ugment
A fri
B E
B re
C V
C mw
C ac
C ell
C ym
C yber
C revier
C ookie
C ategories
C atal
C zech
D iv
D ir
D ate
D ans
D ream
D igit
D eut
D atabase
E A
E ach
E sp
E usk
F i
F ield
F ive
F allback
F Dis
F ederated
F riendly
G O
G r
G al
G et
G ale
G ES
G rammar
H u
H y
H or
H om
H ol
H ost
H elp
H istorical
I an
I TEREF
J ames
J ones
L oad
L ogg
L inks
L iet
L ength
M u
M ar
M et
M ag
M ode
M ove
M atch
M ichael
M ackworth
M ES
M eta
M ultimedia
N F
N eder
O M
O N
O per
O vers
P Us
P sych
P opups
P erman
P ortug
P ersonal
Q ues
R om
R etrieved
R LP
R adio
R NN
R una
S ens
S enti
S cience
S ha
S elect
S ession
S emi
S ources
S emantics
S lov
S fn
T M
T or
T om
T ow
T alk
T iá
T itle
U K
U TC
V ision
V ector
W hen
W rap
W arren
W alter
] "}.
] ;});});
a ith
a uc
a iley
b it
b ig
b itness
b rah
b iquitous
c p
c ing
c it
c ust
c hema
c isc
c acher
c ampa
d c
d om
d eep
d my
d otted
e or
e al
e et
e ace
e Å¡
e Report
f b
f i
f ake
f ound
f air
f akes
f red
f mann
g h
g Ã
g ence
g ap
g reen
h ow
h ma
i K
i h
i at
i ents
i ences
i ÐłÑĥÑģ
j ection
j ee
j Query
k ol
k ele
l as
l ight
l ines
l arge
l hu
l Ã¢
m al
m em
m ore
m ology
m oh
m ode
m ath
m obile
n us
n odes
n tz
o ×
o os
o botics
p o
p on
p el
p ub
p attern
p oint
p ng
p opups
r d
r ad
r iv
r ay
r ated
r ules
s is
s tic
s ame
s En
s worth
s Par
s bor
t ers
t ter
t ag
t hem
t echn
t ina
t ask
t ags
u i
u in
u id
u tive
u time
w ar
w ork
w ire
w ns
w ood
w mf
y es
y th
z d
z i
z en
z anp
} )
} ;
} ];});});
¡ áĥ
¢ ×
£ Ðº
¤ à®
¥ áĥĲáĥłáĥ
¨ ÙĬ
¨ ×Ļ×
© å
ª s
¬ Esp
® à¤°
¯ į
¯ ÛĮ
² µ
² Ð°ÑĤ
³ į
³ ÛĮ
´ Õ
µ Ń
· Î
¸ Ń
¹ Î
¹ Ħ
¹ Ø±Ø
º ¿
º Î
» ĩ
¼ à¬
½ Î
Â ®
Ã ²
Ä ĥ
É Ļ
Î ķ
Î »Î
Ð £Ðº
Ñ ħ
Ñ Ĭ
× ¨×Ļ×
Ù ģ
Ú ļ
Û ĩ
à ¶
à ¯į
à ³į
à ¹Ħ
ä ¸Ń
ç ²µ
é ĸ
ê µŃ
ì ĸ
í ķ
ĉ ĠĊ
Ġ q
Ġ x
Ġ er
Ġ ir
Ġ ep
Ġ 90
Ġ Ñģ
Ġ election
Ġ -->
Ġ ]"}.
Ģ Õ¡ÕµÕ¥
į Ĺ
į sl
ĳ ×¨×Ļ×
ĵ à¬
ķ à²¨
Ĺ áĥ
Ĺ Ð½
Ĺ à¸
ľ êµŃ
in er
in en
in ent
in od
in ations
in itions
er on
er em
er Function
er jee
Ġt en
Ġt ended
Ġt ries
Ġt agging
on th
Ġa st
Ġa ge
Ġa bo
ti tion
or f
or ia
or igin
or gan
or row
or Em
en st
en wiki
en ska
en hancements
en baum
ar on
ar ti
ar es
ar win
ar ayan
he v
he st
he tical
he ading
he ckUser
ed y
ed iam
es ize
an cies
an erjee
is ms
is her
is ource
is information
Ġthe ms
ing Up
ing profile
re me
Ġs he
Ġs us
Ġs end
Ġs oft
Ġs uperv
Ġs low
Ġs emi
Ġs parse
Ġs rp
at s
at ar
20 6
20 9
le ction
Ġp ig
Ġp un
Ġp ick
Ġp ath
Ġp ortal
Ġp olynomial
it an
it ext
it ors
ch er
ro om
Ġc ens
Ġc ou
Ġc ounter
Ġc ookie
Ġc riter
Ġin form
Ġin duc
Ġin complete
ic ard
ic ons
ic ense
Ġ( ";
el ist
el ves
el Publ
ĠA ustr
Ġf ace
Ġf aster
Ġf requ
Ġf ederal
Ġd en
Ġd ig
Ġd ang
Ġd ict
Ġd raw
Ġd oll
Ġd imensionality
Ġd otted
Ġm ar
Ġm ut
Ġm ist
Ġm iti
Ġm icro
Ġm iddle
Ġm agazine
Ġm ultimodal
Ġm agazines
Ġm oment
ent y
ent in
ent ed
Ġb ar
Ġb ir
Ġb reaking
Ġw on
Ġw or
ig al
ig ure
ig ious
om ed
om mend
Ġn av
Ġn ations
Ġn orm
Ġn ever
et ect
em a
em er
em ble
em ming
em Id
Ġ1 29
Ġto ward
Ġto tal
Ġto wns
ur an
ur ism
ur ance
ur Rev
us ed
us ing
ol f
ol y
ol bar
ol Es
put Enabled
ĠS o
ĠS y
ĠS ing
ĠS us
ĠS ex
ĠS un
ĠS ue
ĠS peech
ĠS election
ĠS emantic
ĠS ecurity
ĠS lov
ĠS ingh
ce ptr
ew hat
am ing
am ental
am ela
ĠM A
ĠM ad
ĠM od
ĠM ich
ĠM ore
ĠM ile
ĠM att
ĠM athema
ĠM eta
ĠM usk
ĠM Ã¼ller
ĠM yers
ec tively
id ura
out er
ĠT e
ĠT an
ĠT ang
ĠT urk
ĠT aylor
ĠĠĠĠ Ċ
ĠĠĠĠ ĠĠĊ
ĠR ed
ĠR em
ĠR aj
ĠR edd
ĠR FR
ĠR oche
ars on
ars ons
ĠC he
ĠC are
ĠC ons
ĠC yn
ĠC urr
ĠC ran
ĠC ade
ĠC ybernetics
ĠC ouncil
ĠC ITEREF
ĠI I
ĠI Q
ĠI ss
ĠI lya
16 6
16 9
il a
il m
Ġl ight
Ġl ost
Ġl ibrary
Ġl ittle
ĠN vidia
st ate
st atic
ev isionId
mw clientpref
Ġre v
Ġre form
Ġre pe
Ġre pro
Ġre por
im g
im ov
im pro
im ize
im ination
im ager
im ediam
ul ates
ul tiv
ist em
ist ant
Ġh ar
Ġh om
Ġh tt
Ġh alf
ad ox
ad ditional
iv ic
iv ef
ex port
ĠP re
ĠP ri
ĠP os
ĠP DF
ĠP aper
ĠP edro
ĠP amela
ĠP arsons
ac ial
ess ages
Ġon go
ri y
od d
ot os
19 4
19 40
19 85
19 59
19 81
ly n
ell s
av ailable
th ia
th ical
og y
og pub
ab is
ab eth
ab br
ay can
Ġ[ ...]
ĠB ur
ĠB erg
ĠB Ã¢n
ĠB ishop
Ġg en
Ġg ain
ĠJ un
ĠJ eff
10 00
Ġfor est
ir ror
pl o
pl ed
pl icated
ap pearance
op y
ĠD evelop
ĠD igital
ĠD omin
ĠD angers
ĠD ALL
ain able
ain ato
um per
Ġnews letters
Ġnews rooms
ĠIn ste
ĠIn novation
"," @
ĠW in
ĠW il
ĠW ide
ĠW alter
for ward
for Each
age SuggestedEdit
Ġcon f
Ġcon fl
Ġcon vention
Ġcom m
Ġcom mit
Ġcom mons
Ġcom plicated
ĠH o
ĠH ass
ĠH ern
ĠH ard
ĠH art
ĠH orn
ĠH ouse
ĠG ar
ĠG iven
ĠG iff
ĠG atekeep
ĠG emini
ĠL u
ĠL amp
ĠL ak
ĠL ong
ĠL ocal
ĠL icense
ĠAr g
bo otstrap
ial og
ĠF l
ĠF ang
ĠF ord
ĠF ast
ĠF unction
ĠF usion
ĠF oreign
Ġbe at
Ġbe ings
ĠE f
ĠE nd
ĠE tt
ĠE hud
ĠE state
iz enbaum
Ġal tern
Ġal ternative
Ġal loc
ct ors
CITEREF I
CITEREF Ed
CITEREF Th
CITEREF Nilsson
ang ing
Ġv ar
Ġv ectors
Ġst ore
Ġst ream
Ġst aff
amp ton
ep ageSuggestedEdit
202 50
ik a
Ġ2 55
ĠĠĠĠĠĠĠĠ ĠĠĠ
und ro
Ġex cerpt
box text
ear able
ect ure
qu ick
qu otes
Ġit er
form at
se en
lo ading
lo ader
ant a
ant o
ant ed
ant Fallback
ak en
Ġtr adem
ord on
ord ance
cl aim
ack s
ack end
ug hey
est s
est amp
est Id
ĠU RL
ag ing
ag ue
ag hi
uc ination
00 99
ated ly
Ġ19 91
Ġ19 88
Ġ19 49
Ġ19 96
Ġ19 56
nav igation
ĠSt even
ble ms
ere ira
sk ohr
cess or
yst ery
Ġdo or
Ġdo uble
":" ","
olog in
olog ist
ĠK now
ĠK urzweil
so lete
Ġ3 7
Ġ3 29
able Topics
Ġpr ices
ast ers
ast ava
ĠCh en
ĠCh ange
ĠCh icago
per anto
Ġim m
pro tected
Ġch arge
Ġch alleng
Ġch allenge
wg Edit
wg Cite
wg Fl
wg Notice
wg Vis
wg Wikibase
wg ArticleId
wg Default
wg Namespace
wg Action
wg Requ
wg Separ
wg Digit
wg GES
wg Host
wg Popups
wg Title
wg Vector
ip s
12 97
to ols
to olti
to kens
to olbar
ign ed
ens ivef
Ġres ol
Ġres ource
ĠCom mercial
enc ing
tr uctured
her lands
15 1
15 5
15 7
led ged
are Al
The se
Ġk ill
Ġk ernel
enti st
enti sts
Ġun ivers
Ġun lab
Ġun seen
Ġcl ar
Ġcl ose
Ġcl ients
Ġcont ains
Ġcont rovers
In He
In fluence
In tegrated
In putEnabled
not ation
eth ics
ober ts
Ġ5 0
Ġ5 1
Ġ5 5
Ġ5 7
ame zanp
ient content
ient Hints
18 6
18 9
ĠY an
ĠY our
ĠY ann
ĠAl though
ĠAl tman
Ġnot es
tim ingprofile
tim estamp
ys es
ĠTh us
ĠTh ree
13 8
14 1
14 9
ind ex
Ġcomp lete
Ġcomp aris
Ġdis play
ust ainable
Ġsp here
23 3
ĠV en
ĠV iá
17 1
17 6
pt y
pt oms
Ġab str
25 7
ian n
af e
Ġgener ated
Ġgener ating
io tics
Ġj us
ver t
24 3
24 5
24 7
26 5
26 7
Ġad dress
Ġad just
te enth
Ġ4 4
Ġen em
Ġen tity
Ġrel ies
Ġrel iable
eat s
com p
com be
act Links
Ġcons iders
Ġdes ired
Ġdes cribe
read th
{" @
Ġpl an
Ġpl ural
Ġpl aced
Ġdec re
ra eg
wik itext
wik imediam
ann a
ann er
play Wikibase
Ġro ots
ari os
27 0
27 1
27 3
27 4
27 7
Ġinter conn
ĠPro ject
ck man
ten ance
client Hints
Ġanal yses
oh an
Ġout side
Ġout come
Ġout lets
Ġinformation Cite
mer ce
duc ational
90 8
Ġclass ical
Ġclass Name
Ġsub stan
ert zel
Ġ6 2
Ġmethod ology
Ġrec onstr
Ġem p
Ġem ulate
Ġem bedded
30 5
30 7
}} },"
}} });});
Ġdif fer
Ġdif ference
Ġdif fusion
old id
Ex cerpt
ink er
ier ahn
uct ed
36 0
ĠMar co
cont ain
ty p
ty mology
Al gorithms
yn am
Ġpar ts
Wik isource
arg uments
ob serv
rit zel
ric k
ression al
str onomy
ne utral
Ġhe uristic
Ġacc ordance
Ġno tions
ular ization
unction count
ĠComput ation
ĠComput ers
Re al
Re jection
ie Å¡
St anford
38 9
Ġsoci eties
29 6
29 9
Ġrepresent ing
az e
ĠZ adeh
Ġreg ulation
ĠMc Kinsey
Ġpredic ates
Ġpredic ting
Ġevents Random
Pro jects
Pro gress
Pro prietary
tt l
Ġexper t
"] ;
"] },"
à¤ ¦
à¤ ¹
à¤ ¿
à¤ ł
à¤ Ń
à¤ ®à¤°
rol Token
ĠCon nect
Ġexp and
Ġexp ansion
Ġexp iry
Ġspec ified
Ġ10 3
Ġ10 8
Ġy et
Ġy our
Ġy ear
ĠYork er
59 6
cs rf
Ġsc ope
ĠAs ia
Ġlog ged
Edit Att
Ġ8 1
Ġ9 8
Ġreal ized
28 4
Ġam big
Ġvari able
Ġdisc overing
hilosop her
ou is
sp an
vers e
39 4
39 6
Ġgro und
br ands
Ðº Ð°
Ġgeneral ization
ĠAg enda
Ġwork shop
37 9
Cont ribut
ah d
ah l
par ameter
Ġorgan ized
Ġcommun ities
cc f
Ñģ ÑĮ
ĠTr ends
Ġext inction
Ġarticle About
ski Portug
99 5
Ġcap ac
Ġmark ed
oth ers
Ġass ign
li est
main Entity
res et
ĠInd ex
ĠInd ones
An im
mit But
Ġtyp ical
Ġpre pared
ĠTechn ological
ĠTechn iques
ital ic
ĠNe ed
ĠNe iger
iss inger
ĠAp ple
Qu antum
Ġoper ate
Ġoper ates
ugg le
Ap i
Ap plication
Page Is
Page Length
pos itional
Ġse ems
Ġde al
Ġde ce
Ġde ad
ĠSch uster
Ġlab eling
197 6
197 7
sc hema
Ð°Ñ ĹÐ½
Ġeff ectively
Con str
Con volutional
Ġear liest
Ġsup pl
Ġsup ply
Ġcor eference
ĠSystem atic
Ġloc ations
Ġret urn
CITEREFS ch
Ġprint ed
Ġspecific ally
Cl ick
Cl ientHints
page Vari
inn er
Ġsee king
Ch ristop
Language Select
Language InHe
Ġact ual
vis i
Ġpubl ishers
Sh areAl
enn achin
reak Fr
Ġpress es
hu i
ph p
ph ones
utions Talk
Ġtest ing
Ġmain tenance
:" [
:" \"""
RL CO
RL HF
RL STA
Text InputEnabled
wh ich
à¦ ¬
à¦ ²
à¦ Ĥ
oole Mackworth
ÑģÐº Ð¾
Ġsur v
Ġinflu ences
ĠAd ap
ĠAd ministration
":[" *"],"
Ġval ley
Ġclassif ied
Is i
CITEREFB ro
Ġautom atically
ton Lab
Ġco ord
Ġco ined
ash aghi
url Short
ĠIs land
wikimedia Ev
wikimedia Bad
Ne uromorphic
ai wan
che ck
che ckUser
à¥ ģ
à¥ į
inter est
inter face
Ġterm ed
Ġsit es
Ġbu ilding
ĠCl inical
Ġview ers
Ġindividual s
ĠWikipedia Contact
Ġeconom y
Ro bots
Ġbr ing
ĠCent ers
Ġhigh ly
Ġhigh light
Im pro
ze er
Ġmind s
ĠSim iÐłÑĥÑģ
Ġimpro ved
Ġresp onding
Ġperce ive
Ġdescription Short
Un strip
Un canny
arch itect
level s
Ġbusiness es
ĠPl ot
Ġgr ad
Pr edic
con fig
}); }
ator TransformTable
ĠAm ong
Ġfair ly
ĠWe izenbaum
CITEREFG old
CITEREFG ood
wgR evisionId
Ġestabl ish
View Language
Ġpost ed
Ġprev ent
Ġcri er
Ġcri tical
ĠAlex and
Ġrele ases
ĠEd wards
Ġexist ing
Ġ197 9
Ġcontin ent
Ġcontin uing
Ġatt empts
Ġadv ent
Ġplay er
Ġshort ened
ĠReg Exp
On Click
sw itch
Ġser ious
ĠCre ate
ĠCre ative
ĠIm p
ÑĢ Ð°ÑĹÐ½
Ġent ails
Ġinc redible
Ġintelligent ly
Ġfind s
Ġconstr aints
Ġanaly tics
Ġobserv ation
GE Hom
Soci ology
go ogpub
à¬ Ĩ
à¬ ¼à¬
à¬ ĵà¬
Ġedit Community
empt Step
exp ansion
exp ensivef
wgC ategories
wgC heckUser
wgC urRev
wgPage Name
wgPage Pars
wgPage ViewLanguage
Ġtransform ers
Enabled For
Enabled By
Ad d
It alian
It emId
Ð¾ Ð»
Ø§ Ø
ĠQ R
ĠPh D
ĠPh ysical
ĠStr uggle
time usage
Autom atic
ÑģÐºÐ¸ Ð¹
.) &#
He aders
Model s
Par allel
To olti
kin s
nos cript
Ð» Ð³
Ġtend ency
Ġdr iven
Ġdr iving
ĠRober ts
Ġlink ed
Ġlink Page
ung ar
ĠWood head
Ġexch ang
Ġprac tical
Fran Ã§
Journal s
Rec urrent
Rec ursive
target Load
Ġsmall er
Ġcop ies
Ġdem and
trans ientcontent
Inter pre
Ġdomin ant
Ø±Ø ¯ÛĮ
ĠAfric an
à® ´
à® ¿
à® ¤à®
à² ¡áĥ
à² ķà²¨
Ġel ab
Ġel imin
entity access
Ġsuggest s
Ġpop ulation
Ġins ufficient
ĠBro oks
sequ ently
Ġclos ed
Ġeas ier
All Exp
Ġinvest ed
Ġinvest ing
Ġsignificant ly
DA TE
Ph ysics
get AllExp
lin son
me ans
Ġaff ect
reed om
Ġpage Contents
Ġpage Get
Ġintegr ated
Ġfac ial
adig ms
Ġgreat ly
Ġansw er
Ġemerg ing
Ġdiscuss ion
Ð°ÑĢ ÑģÐºÐ¸
Ġmaint ain
Ġdatas et
Pars erFunction
mod ule
sol id
Ðĳ ÑĬ
Ġ) '+
includ esize
Ġwar fare
ĠCan ada
ĠWork shop
Ġpres ence
Comp actLinks
Ġemploy ment
Ġstrong er
Ġdatab ase
Ġsuccessful ly
ÑĢÐ ²Ð°ÑĤ
415 86
Cent er
Cent ury
Fl ags
dec imal
date Mod
date Published
document Ele
iews Active
ka ans
och er
och astic
ĠÂ ·
Ġsenti ence
Ġselect ed
event eenth
event logging
event Logg
ĠHill s
anded Arguments
Ġchat bot
Ġadvan ces
hao Lovreglio
Transform er
Ġannoun ces
Ġannoun ced
Dis claim
Js Api
gy pt
journal ism
men u
uous ly
ÙĪ Ø±Ø¯ÛĮ
à° ¤
à° ²
à° Ĺ
à± Ĩ
Ġfir m
Ġmin imize
Ġbound ary
ĠMat the
ĠMoh amm
ĠBen j
CITEREFP ooleMackworth
Ġimplement ation
wgIs Article
wgIs ProbablyEditable
wgIs Redirect
wgULS Pos
Ġevery day
Ġequ al
Ġinterpre tation
Ġnumer ous
ArticleT alk
Ã¼r gen
wgRelevant PageName
wgRelevant ArticleId
wgRelevant PageIs
centralaut ologin
":"+\\" });
Nor vig
Rev sPar
pat rolToken
âµ ľ
Ġ| $)
Ġte ams
head line
Ġmess age
Ġmess engers
Ġgraph ics
Ġrecord s
Ġestim ated
Ġproduct s
Ga ussian
Ga ughey
Sup erintelligence
Will iam
uv iÅ
vari ance
iny als
onse Time
ara Ùģ
ret urn
requ ire
Ġcross bar
Ġdire ction
ĠSe an
ĠSol omonoff
ĠMan agement
ĠCO MPAS
ĠNet herlands
Ġhere Related
ĠDif ferent
ĠOb serv
ĠKar pathy
Newspap er
Ġexpress ed
à¦¾ à¦Ĥ
ĠColle ctive
Ġcopyright ed
Pl anning
Sub mitBut
dd f
rb aycan
Ġign ored
Ġenc our
Ġaim s
Ġsch ool
Ġintr act
Ġdivid ed
Ġdiagnos is
ĠSup port
ĠTim eline
oto journalism
platform Version
Ġcomment ators
Ġstand ard
Ġdoc uments
Arg ument
Ġcompon ents
Ġconsist ently
Ġregul atory
Ġregard ing
Ġdeploy ed
Ġdeploy ment
ĠClass ification
Ø§Ø±Ø ³ÛĮ
Topics Match
Ġutil ity
"} ;
(' %
(' (^|
(/ -
(/ (?:
,' ')
433 1
Anal y
GP Us
IS BN
ME PageLength
Ob ject
Special PageName
Version List
[^ \
^| ;
call ed
call ParserFunction
near est
near by
rp skohr
watch list
watch Token
»Î ·Î
ÄĮ eÅ¡
Ð³ Ð¾Ð»
Ú© ÙĪØ±Ø¯ÛĮ
à¸ Ĺà¸
Ġsmar t
Ġposs ibility
ĠSci ences
\""" '""
ĠNic olas
start Up
Ġhouse hold
ĠPal grave
ĠPart y
Ġgovern ance
ĠDon ald
Ġconsequ ence
Ġcompeti tion
ĠKenn eth
wgB ackend
wgB reakFr
wgM FDis
wgM onth
wgW MES
wgW MEPageLength
wgUser Name
wgUser Gro
wgGE Level
wgGE TopicsMatch
Ġoppos ed
Algorithm ic
Enter prise
Contrib ute
Contrib utionsTalk
Ġcollect ed
full VersionList
pageLanguage Code
pageLanguage Dir
Ġparticip ants
Reference Prev
Reference Toolti
Image Object
Print able
expand includesize
wgPageContent Language
wgPageContent Model
à²¨ à²¡áĥ
ÑĢÐ¿ ÑģÐºÐ¸
ÑĢÐ¿ ÑģÐºÐ¾
Ã¢n Äĥ
Ġsufficient ly
wgULSis LanguageSelect
wgULSis CompactLinks
SuggestedEdit Session
wgMediaViewer OnClick
wgMediaViewer EnabledBy
wgRestriction Edit
wgRestriction Move
wgCanonical Namespace
wgCanonical SpecialPageName
At tention
Az ÉĻ
Graph ics
def ined
publ isher
self link
template arguments
uÃ ªs
val idation
Ðľ Ð¾Ð½
Øª ÙĪ
Ù¾ Úļ
rem ely
Ġsk ep
Ġinher ently
ĠAtt ribution
Ġfav or
Ġmiss ing
Ġbenef its
omet ry
ĠCour ville
Ġreve al
Ġrecent ly
ĠPhil ip
aven port
ĠBern ard
ĠJon athan
Ġnewsworth iness
ĠGro up
Ġtrad itional
Ġprim ary
ĠChomsky an
gric ulture
Ġacqu isition
Ġdise ases
259 2000
Ġshif t
Ġobt aining
Reason TextInputEnabled
Ġcapt ure
ĠSilver blatt
Cre ate
Europe an
Over fitting
Synt actic
Tim ing
aug eland
jus tify
mm v
pp visited
Õ¶ à¤¹
enz lhu
Ġsym ptoms
Ġchem istry
Ġcust omer
icens ing
Ġbench mark
empor ary
ĠIra q
Ġlook ing
stat us
Ġrapid ly
ĠJob s
ĠFund ing
agged RevsPar
ĠProfession alism
Ġopportun ity
Ġemo tions
ĠMarc us
Ġcolon ial
Ġmanif old
Ġconnec tions
ĠStrateg ies
aÃ± olEs
Ġbeliev e
ÖĢÕ¥ Õ¶à¤¹
growth Experim
MOD UL
Ø§ÙĦØ ¹Ø±Ø
AGE MODUL
Des criptions
Develop ers
Form at
Pol skiPortug
Resp onseTime
Su omi
Task Rejection
cod ex
do ors
post expandincludesize
spl it
tot al
wall time
yak h
£áĥ ļáĥ
Ð¡ ÑĢÐ¿ÑģÐºÐ¸
æĸ ĩ
incre ment
uther AI
Ġdipl omatic
ĠSer ies
ĠTyp ically
ĠTensor Flow
ĠRod ney
Ġlaun ched
geo IP
ablo id
Ġra ised
ĠJenn ifer
Ġconven ient
ĠHop field
ĠHey d
ĠKau fmann
Ġspons orship
discipl inary
Ġregister ed
ĠMcG raw
Ġscen arios
skiS rpskohr
Cluster ing
CITEREFRussell Norvig
ĠEliz abeth
Ġhapp ens
ĠInterpre table
Latv ieÅ¡
Ã§e Ð£Ðº
CITEREFMcC arthy
æĹ¥æľ¬ èªŀ
Ġproclam ations
"}} ,"
'), '$
'); });}
() );
)/ );
+$| [^\
-]+ /
:") ";
;} ());
;Â ·
;]+ )/);
=([^ ;]+)/);
Afri kaans
Cym raeg
Catal Ãł
Date Format
Dans k
Deut sch
Eusk araÙģ
Gale go
Help Learn
Liet uviÅ
Mode Enabled
Neder lands
Overs ample
Perman ent
Ques tion
Rom Ã¢nÄĥ
RLP AGEMODUL
Senti ment
Tiá º¿
Wrap per
auc ratic
brah im
cp utime
cust om
chema EditAtt
cisc o
cacher eport
campa igns
gÃ º
lÃ¢ m
mem usage
moh undro
o× ¢×
riv astava
stic ky
same As
sEn ableTopics
sbor ne
tag line
tina Cymraeg
¥áĥĲáĥłáĥ Ĺáĥ
¨ÙĬ Ø©
©å įĹ
¬Esp aÃ±olEs
¹Î ºÎ
»ĩ t
½Î ¹ÎºÎ
Îķ Î»Î
Ñħ ÑĢÐ²Ð°ÑĤ
à¹Ħ à¸Ĺà¸
ä¸Ń æĸĩ
ç²µ èªŀ
éĸ ©åįĹ
íķ ľêµŃ
ĠÑģ ÑĢÐ¿ÑģÐºÐ¾
ĢÕ¡ÕµÕ¥ ÖĢÕ¥Õ¶à¤¹
įsl enska
ĳ×¨×Ļ× ª
Ġast hma
Ġabo ve
orEm pty
enwiki mwclientpref
arayan an
Ġthems elves
ingUp EnabledFor
Ġsrp skiSrpskohr
Ġportal Recent
Ġcou pled
elPubl ish
Ġdang er
Ġdoll ars
Ġbir th
ĠCyn thia
Ġrepor ter
impro vement
imager ight
ĠPri ze
ĠPDF Printable
Ġongo ing
ĠInste ad
Ġcommons ense
ĠHass abis
ĠGiff ard
ĠGatekeep ing
epageSuggestedEdit sEnableTopics
antFallback s
Ġtradem ark
ĠURL Download
navigation Timing
wgEdit SubmitBut
wgCite ReferencePrev
wgFl aggedRevsPar
wgNotice Project
wgVis ualEditor
wgWikibase ItemId
wgDefault DateFormat
wgNamespace Number
wgRequ estId
wgSepar atorTransformTable
wgDigit TransformTable
wgGES tructured
wgHost name
wgPopups Flags
toolti p
Ġunlab eled
amezanp our
Ġcomparis on
ĠViá »ĩt
wikimediam essages
playWikibase Descriptions
Ġinterconn ected
ĠConnect ing
csrf Token
Contribut ors
ÑģÑĮ ÐºÐ°
ĠIndones ia
ClientHints Headers
pageVari antFallbacks
LanguageInHe ader
ShareAl ike
:"\""" \"""'""
RLCO NF
RLSTA TE
tonLab elPublish
urlShort ener
wikimediaEv ents
wikimediaBad ges
architect ure
switch er
ÑĢÐ°ÑĹÐ½ ÑģÑĮÐºÐ°
GEHom epageSuggestedEditsEnableTopics
à¬¼à¬ ¿
à¬ĵà¬ ¡
emptStep Oversample
expansion depth
expensivef unctioncount
wgCheckUser ClientHintsHeaders
wgCurRev isionId
wgPagePars eReport
Italian o×¢×
Ð»Ð³ Ð°ÑĢÑģÐºÐ¸
FranÃ§ ais
targetLoad er
à®¤à® ®
entityaccess count
getAllExp andedArguments
ĠpageContents Current
ÐĳÑĬ Ð»Ð³Ð°ÑĢÑģÐºÐ¸
dateMod ified
documentEle ment
eventLogg ing
Disclaim ers
wgULSPos ition
wgRelevantPageIs ProbablyEditable
Ġ|$) '),'$
rbaycan ca
(/(?: ^|;
,'') +'-
»Î·Î ½Î¹ÎºÎ
ÄĮeÅ¡ tinaCymraeg
Ú©ÙĪØ±Ø¯ÛĮ Ð¡ÑĢÐ¿ÑģÐºÐ¸
wgBackend ResponseTime
wgBreakFr ames
wgMFDis playWikibaseDescriptions
wgMonth Names
wgWMES chemaEditAtt
wgUserGro ups
wgGELevel ingUpEnabledFor
wgGETopicsMatch ModeEnabled
ReferenceToolti ps
à²¨à²¡áĥ ¥áĥĲáĥłáĥĹáĥ
wgULSisLanguageSelect orEmpty
wgULSisCompactLinks Enabled
wgMediaViewerEnabledBy Default
AzÉĻ rbaycanca
templatearguments ize
ÐľÐ¾Ð½ Ð³Ð¾Ð»
Ù¾Úļ ØªÙĪ
ppvisited nodes
enzlhu emer
growthExperim ents
Ø§ÙĦØ¹Ø±Ø ¨ÙĬØ©
PolskiPortug uÃªs
TaskRejection ReasonTextInputEnabled
£áĥļáĥ ĺ
LatvieÅ¡ u
Ã§eÐ£Ðº ÑĢÐ°ÑĹÐ½ÑģÑĮÐºÐ°
EuskaraÙģ Ø§Ø±Ø³ÛĮ
LietuviÅ ³
RomÃ¢nÄĥ Runa
RLPAGEMODUL ES
Tiáº¿ ng
¬EspaÃ±olEs peranto
ÎķÎ»Î »Î·Î½Î¹ÎºÎ
ÑħÑĢÐ²Ð°ÑĤ ÑģÐºÐ¸
à¹Ħà¸Ĺà¸ ¢
éĸ©åįĹ èªŀ
íķľêµŃ ìĸ
ĠÑģÑĢÐ¿ÑģÐºÐ¾ ÑħÑĢÐ²Ð°ÑĤÑģÐºÐ¸
įslenska Italiano×¢×
enwikimwclientpref erences
ĠsrpskiSrpskohr vatski
wgEditSubmitBut tonLabelPublish
wgCiteReferencePrev iewsActive
wgFlaggedRevsPar ams
wgGEStructured TaskRejectionReasonTextInputEnabled
:"\"""\"""'"" '"}.
wgCheckUserClientHintsHeaders JsApi
ÄĮeÅ¡tinaCymraeg Dansk
wgWMESchemaEditAtt emptStepOversample
wgGELevelingUpEnabledFor User
à²¨à²¡áĥ¥áĥĲáĥłáĥĹáĥ £áĥļáĥĺ
ÎķÎ»Î»Î·Î½Î¹ÎºÎ ¬EspaÃ±olEsperanto
įslenskaItaliano×¢× ĳ×¨×Ļ×ª
! \"]
% }}
' ,
) ","
) âĢĶ
. :
. [
0 16
0 19
0 261
2 93
2 91
2 25
2 85
2 87
3 17
3 27
3 80
3 86
3 22
3 40
3 59
3 116
4 20
4 24
5 50
5 83
6 50
6 42
7 86
7 55
9 93
9 91
9 90
: .
; )
; ~
A B
A L
A P
A AI
A meric
B o
B os
B ack
B roadcast
B ook
B atch
B ostrom
B ecause
B ioinformatics
C E
C s
C ar
C an
C ri
C our
C hem
C AI
C ross
C NN
C ategory
C loud
C itiz
C onsciousness
C opy
D L
D et
D em
D omingos
D reyfus
E r
E es
E thical
E ducational
E tymology
F el
F ace
F ree
F act
F alse
F ramework
F itness
G D
G R
G u
G lo
G old
G ood
G AN
H r
I J
I R
I PS
I ME
J ordan
J awa
K arl
K uligowski
L G
L ong
L aM
M T
M a
M y
M ad
M ost
M oh
M ajor
M edical
M amb
M arv
M orph
M insky
M artin
M edicine
M ilitary
M itchell
M isinformation
N G
N T
N LL
O A
O Ê
O liver
P U
P at
P rom
P oole
P olitics
P MM
P hilosophers
Q ara
R ep
R ich
R ule
R ise
R oman
R SA
R oyal
S V
S w
S it
S ep
S ection
S ven
S ince
S everal
S pace
S earle
S parse
S econd
S molik
S entence
S ilver
T ype
T oday
T agal
T ypes
U rb
U NESCO
U biquitous
V A
V i
V il
V ID
W al
W il
W here
X I
Y oshua
Z A
Z ul
Z hang
a ive
a ish
a ule
a ussian
b es
b od
b les
b ust
c r
c u
c ision
c ons
c tively
d am
d og
d inary
d ahl
e a
e z
e il
e arn
e qu
e ons
f c
f el
f ir
f ather
g ar
g un
g est
g overnment
g ments
h ad
h ill
h all
h one
h ran
h ry
h ouse
h aps
i j
i or
i for
j a
j n
j o
j our
j ug
k le
k os
k nowledge
k cha
l ad
l ers
l ies
l Norsk
m p
m Ã
m ond
m oli
m aa
n b
n ar
n ist
n ia
n atural
n ature
n template
n cit
o T
p tive
p hy
p ossible
p ai
p ster
p aq
p df
q al
q ip
r Ã
r as
r ence
r um
r ill
r edit
r ics
r ule
r eds
r ath
r igal
s m
s he
s ection
s yn
s cientific
s ites
s aur
t x
t az
t elegraph
t ainment
u o
u able
u ition
u ates
u cial
u its
u bert
v a
v ision
v ements
v iously
w en
w hat
w ski
w ise
w hether
w alk
w hel
y e
y r
y er
y ar
y cl
y bers
z er
z be
z hone
¥ lNorsk
¨ ÛĮ
¯ Ń
¯ ve
¯ ÙĪ
± Ðµ
² Ñ
´ è
´ Ð¾Ð½
» zbe
Ã ½
Ä į
Ð ¢
Ð ±Ðµ
Ñ Ĩ
Ñ ŀ
Ù ħ
Ù ĩ
Û Ĩ
ã ģ
å Ĳ
Ġ +
Ġ ,
Ġ 91
Ġ ri
Ġ els
Ġ ÄĮ
Ġ Ñŀ
ĸ ÑĨ
ľ à¤ª
in ions
er l
er tion
er as
er ve
er til
Ġt em
Ġt ri
Ġt alk
Ġt aken
on ed
on ic
on ies
on ite
on ics
Ġa f
Ġa ir
Ġa kin
Ġa xi
ti a
ti e
ti le
ti que
ti ÎķÎ»Î»Î·Î½Î¹ÎºÎ¬EspaÃ±olEsperanto
ti kos
or sk
or ative
or obotics
en K
en at
en tion
en ri
en amed
he less
al y
al ence
al so
al uation
al ities
al uating
al walk
ed est
es tim
an an
an ia
an ish
an king
is k
is p
is ner
ing en
ut er
ut ter
ut nam
re al
re le
re ely
Ġs m
Ġs on
Ġs em
Ġs ter
Ġs ay
Ġs ure
Ġs ection
Ġs atis
Ġs ample
Ġs exual
Ġs udd
Ġs eventeenth
at as
at ast
at ches
20 5
20 50
20 41
le ks
le ll
Ġp e
Ġp ers
Ġp ap
Ġp ref
Ġp ix
Ġp oll
Ġp henomen
Ġp edest
it a
it or
it ate
it ations
it ative
it ten
it ney
it elist
ch at
ch ley
ro c
ro ot
ro bot
Ġc and
Ġc able
Ġc ognition
Ġc erem
Ġc ells
Ġc itations
Ġin f
Ġin ev
Ġin troduction
Ġin frastructure
Ġof fice
ic i
ic o
ic ism
ic ks
ic ting
ic iant
el h
el ines
el lect
el rath
ĠA re
ĠA gr
ĠA BC
ĠA NN
ĠA CL
ĠA ffective
ĠA AAI
ĠA leks
Ġf ive
Ġf ra
Ġf usion
Ġf ilt
Ġf uzzy
Ġd on
Ġd ress
Ġd eat
Ġd ra
Ġd ile
Ġd iversity
Ġd ensity
Ġd aily
Ġm o
Ġm y
Ġm od
Ġm ember
Ġm ale
Ġm outh
Ġm orn
Ġm eta
Ġm anner
ent ral
ent land
Ġb om
Ġb ok
Ġb roadc
Ġb log
Ġb ooks
Ġb urd
Ġw ent
Ġw ave
Ġw ild
Ġw inn
ig m
ig or
ig an
ig hest
om put
om son
om edical
Ġn et
Ġn yn
Ġn arr
Ġn arrow
et z
et ts
as i
as y
as per
as ks
as kow
em m
em ale
em pel
Ġ1 91
Ġ1 10
Ġ1 18
Ġ1 880
Ġto ld
Ġto get
Ġto kens
ur ate
ur nal
ur af
ur ric
ur acy
ur phy
us ive
us cript
us etts
ol ation
ĠS ach
ĠS and
ĠS qu
ĠS ens
ĠS ector
ĠS oft
ĠS pec
ĠS ays
ĠS ymbolic
ĠS ynt
ĠS till
ĠS urg
ĠS hel
ĠS iri
ĠS VM
ĠS molik
ĠS IG
ĠS rivastava
ce ptions
ew here
93 6
am d
am iz
am ie
ĠM on
ĠM ing
ĠM as
ĠM ak
ĠM ary
ĠM akes
ĠM ilitary
ĠM axim
ĠM aur
ĠM irror
ec kl
id iv
id ering
id jour
ĠT a
ĠT i
ĠT u
ĠT est
ĠT ian
ĠT own
ĠT ool
ĠT utorial
ĠT urism
ĠT aiwan
ĠR es
ĠR ef
ĠR ome
ĠR eb
ĠR ace
ĠR ule
ĠR acter
ĠR andom
ĠR osen
ĠR itter
ĠR yan
ĠR oyal
ĠR ena
ĠC ell
ĠC op
ĠC ity
ĠC ase
ĠC irc
ĠC orpor
ĠC onsciousness
ĠC iaramella
ĠC AA
ĠI sh
ĠI brahim
16 10
il ot
il omet
Ġl at
Ġl ot
Ġl ap
Ġl ower
Ġl aid
Ġl atter
Ġl inguistic
ĠN Y
ĠN on
ĠN ot
ĠN ort
ĠN ear
ĠN eats
st ell
st ep
st ances
st anford
ev ert
Ġre b
Ġre p
Ġre ass
Ġre vol
Ġre ject
Ġre infor
Ġre open
im s
im ent
im bo
ul a
ul f
ul g
ist ed
ist ance
ist ral
Ġh im
Ġh ack
Ġh ired
Ġh omes
ad ic
Ġth res
iv ial
iv ate
iv ery
ex cerpt
ĠP ol
ĠP ort
ĠP lo
ĠP eng
ĠP ension
ĠP ortal
ĠP KDD
ĠP yth
ac le
ac ement
ess ing
Ġon tology
un s
un t
od ec
ot a
ot ing
ot ers
ot onic
19 2
19 5
19 6
19 66
19 56
ter ed
ell ati
av el
ow e
ow l
ow ers
Ġor dinary
th en
th is
th rough
og ram
og rad
og à®¤à®®
Ġpro to
Ġpro sp
Ġpro of
Ġpro babil
Ġpro pagation
Ġpro portion
ay u
ach usetts
ĠB u
ĠB ac
ĠB ab
ĠB ack
ĠB ill
ĠB ra
ĠB ert
ĠB ob
ĠB road
ĠB log
ĠB oth
ĠB ayes
ĠB let
ĠB reed
ĠB urk
Ġg aining
Ġg ender
Ġr ank
Ġr ais
Ġr enamed
ĠJ a
ĠJ o
ĠJ er
ĠJ ess
ĠJ ill
ĠJ aze
ĠJ amie
10 56
Ġfor ce
Ġfor mer
ir ani
ci a
Ġ[\" !\"]
pl an
pl aced
ap ed
op er
op es
ber al
ber to
ia i
ĠD e
ĠD u
ĠD es
ĠD ist
ĠD av
ĠD ow
ĠD ay
ĠD ud
ĠD ef
ĠD eb
ĠD eng
ĠD ick
ĠD iagnos
ĠD yson
ĠD ayan
ĠD aily
ĠD asgupta
ain maa
ĠIn tellig
ĠIn form
ĠIn tr
ĠIn tro
ĠIn tegr
ĠIn vent
os ing
os ki
os wami
ĠW s
ĠW as
ĠW id
ĠW ang
ĠW ack
ĠW ired
ĠW iley
ĠW erb
ĠW enzlhuemer
Ġcon ce
Ġcon vin
Ġcon fig
Ġcom modity
ĠH eb
ĠH ale
ĠG O
ĠG ary
ĠG lob
ĠG ran
ĠG enetic
ĠG loss
ĠG rah
ĠG rammatical
ĠG aussian
ĠG ulf
ĠAI s
ĠL in
ĠL im
ĠL uc
ĠL inn
ĠL ett
ĠL iter
ĠL ighthill
ĠL ecture
ĠF ail
ĠF eature
ĠF air
ĠF ormal
ĠF eder
ĠF eed
ĠF leer
ĠF actor
Ġbe gun
ĠE U
ĠE X
ĠE ss
ĠE ra
ĠE yal
ĠE LI
ĠE rik
ĠE gypt
iz able
CITEREF O
CITEREF Le
CITEREF Anderson
Ġan throp
Ġv oc
Ġv iews
Ġst ress
Ġst ated
Ġst akes
Ġst rik
ub ious
ik ing
and y
and al
and ez
Ġ2 11
und ancies
Ġex ha
Ġex empl
Ġex ists
Ġex ceed
Ġex ternal
ect ation
Ġus Special
up erman
qu es
qu ity
qu iry
form ance
ĠO ld
ĠO ver
ĠO sborne
se q
Ġar ms
Ġorigin ated
ud eyer
ant ing
ak ar
ak ash
Ġtr ack
Ġtr uly
Ġtr ying
Ġtr ends
ight eenth
cl ose
cl usion
if iers
ĠU P
ĠU l
uc ed
uc inations
00 4
00 8
00 36
ĠNews room
ans ki
Ġ19 86
Ġ19 66
Ġ19 95
Ġ19 94
Ġ19 64
Ġ19 98
col ogy
ĠSt e
ĠSt ar
ĠSt able
ĠSt atistics
ĠSt au
ere f
yst s
yst op
Ġdo ing
ill s
pe ed
pe ars
mar t
mar ks
ĠK el
ĠK am
ĠK os
ĠK ore
ĠK urd
ĠK lein
ĠK uligowski
end all
end ering
end orf
Ġ3 20
Ġ3 00
Ġ3 05
ĠCh am
ĠCh rist
ĠCh alleng
ĠCh urch
ĠCh aff
ĠCh almers
ĠCh inchilla
per or
per parameter
Ġim pre
Ġim partiality
Ġim mediate
ref ly
ous es
Ġch pts
Ġch ildren
Ġcan cer
uss els
ass isted
ass ellati
Ġev ol
Ġev ac
ip arti
ern or
ern an
12 2
12 75
Ġne gation
pr ises
tit ative
ĠCom mon
ĠCom plete
enc er
ue en
ost amiz
uch anan
ard y
97 2
hem es
hem ical
15 72
ding s
oc a
Ġap pears
iel us
iel iÅ
Ġk illed
Ġk ilomet
Ġun c
Ġun less
Ġun related
Ġun ifies
Ġun bi
Ġcl ip
Ġcl aus
Ġcl imate
Ar chitect
In telligent
In stitute
Ġ5 3
Ġ5 96
ult ane
ĠY ang
ĠY ah
ĠY uv
ĠY udkowsky
ĠY uran
ĠAl ice
ĠAl paydin
Ġnot ed
Ġnot ations
edit section
ĠTh ings
13 1
ĠUn certain
Ġcomp il
Ġdis playing
Ġsp end
Ġsp oken
23 1
23 5
23 91
ĠV an
ĠV ideo
ĠV iet
ĠV iol
ĠV oice
ĠV inge
ĠV inod
ĠLe gal
17 2
17 5
17 9
Ġab s
25 3
25 39
cri pts
cri ptive
af i
af fic
af fe
ific ations
ver tical
24 1
24 2
24 6
26 4
gram s
te e
te o
Ġe ighteenth
imit ations
Ġ4 1
Ġ4 2
Ġ4 6
Ġ4 7
Ġen able
Ġen gines
Ġrel i
Ġrel ate
clud e
eat her
act ers
cre te
dis on
dis ambiguation
Ġper haps
Ġcons ol
Ġcons ists
Ġdes ire
Ġdes criptions
88 5
Ġdec entral
ra eli
Ġdevelop s
cent ury
ib ly
ib sh
ib bs
int ended
ann en
Ġro ad
Ġro bust
27 8
Ġsh ut
Ġsh ape
Ġinter act
Ġinter disciplinary
Ġli beral
ĠPro log
ĠPro babilistic
ĠPro Public
80 5
oh avi
edic tion
.. ..
ection ism
Ġprogram mers
Ġtrans l
Ġtrans formation
erm a
90 3
Ġaut onomy
Ġsub jectivity
ĠRe ality
86 7
33 3
33 4
Ġ6 1
Ġ6 8
Ġ6 9
Ġnew ness
Ġem ail
Ġem pir
Ġem plo
30 1
30 2
30 3
30 77
aw i
aw al
aw linson
}} "
iti v
ĠGo ertzel
ail ment
ail ability
ink ing
ĠDec lar
36 1
36 6
36 167
40 4
40 7
News worth
Ġtext s
Ġind icate
En vironment
En ergy
100 5
Ġappro pri
Ġappro val
Wik iversity
ob ielus
align ed
ĠAn chorman
ĠAn notation
Ġob solete
Ġob viously
Ġacc um
Ġno tion
Ġno ise
eop ardy
Ed ward
Ġsim ulation
Ġsim ulating
St ar
rev or
ĠEn vironment
38 2050
Ð° ÐºÐµÐ
urr ency
29 2
29 5
ax man
Ġrepresent atives
az i
aus ible
ĠZ ierahn
Ġreg ime
Ġpredic ted
60 8
LP AC
Pro babilistic
Pro bability
à¤ ²
à¤ ľà¤ª
Ġserv es
Ġ17 92
87 7
87 8
ĠCon f
ĠCon ceptual
ĠCon stell
Ġexp ensive
Ġ10 5
Ġ10 9
ount ries
ram m
Ġover all
Ġover whel
ĠFor bes
Ġsc oring
Ġsc andal
ĠAs imov
ĠPr es
ĠPr inci
Ġris ing
ues tions
ven tions
Ġ9 5
the tic
org enst
28 2
28 3
28 9
45 7
Ġup d
Ġincre ment
Ġincre ases
Ġdef ault
Ġdef initions
Ġprov ider
Ġdisc our
67 2
67 6
vers ary
vers ky
ick i
39 9
Ġ16 9
Ġ16 00
Ġexpl o
Ġexpl oratory
br id
ry hill
Ðº ÑĩÐ°
Ġ18 00
idd endorf
Ġstud ied
ĠAg es
ĠAg ents
37 4
37 7
par ing
with out
Ġso on
Ġso ught
Ġcol lab
Ġcommun icate
Ġfound er
Ġfound ation
Ġfound ations
Ġwhat ever
34 3
34 9
Ġext ension
Ġext remely
Ġwho le
Ġperform ed
sh in
oth man
Ġdifferent ly
46 2
46 50
li ament
res h
Ġdist ant
Ġman uscript
ĠInd eed
ĠInd ustrial
arget ing
mit ted
Ġpre cise
ĠEx plainable
Ġimp ression
Ġtw enty
ĠNe o
ĠNe umann
iss ance
ĠAp p
Ġred undancies
Ġsubs ets
Qu illan
Ġoper ation
Ġph one
ugg ing
44 2
44 9
Th ree
Th omas
pos ition
pos ium
Ġde gree
Ġde aling
ĠSch ool
Ġlab elled
197 1
197 3
197 8
atch dog
ĠSh annon
Ġsup plied
CITEREFS im
CITEREFS un
Ġarg uments
Computational ism
Cl iff
Ch inese
Ch arles
ĠMe hry
Ġbeh ave
jec tive
Ġpubl ications
irect orate
Sh apiro
Sh qip
ph of
ph ysical
Ġtest ed
Ġmain ly
ock rill
96 60
wh oles
wh itelist
ĠX ia
ĠX AI
Ġsec tions
Ġsec ret
Ġsuc c
Ġmarket ed
Ref end
Ref begin
Ġval uable
Ġclassif ying
áĢ º
áĢ ¼
áĢ Ķ
áĢ ĺ
áĢ ŀ
Ġed ges
arm a
CITEREFB er
CITEREFB ostrom
Ġconsider able
Ġco operation
Ġfin ite
Ġfin ance
ĠRo bot
ĠIs raeli
own ed
Ġsimilar ly
à¥ ĩ
à¥ ĭ
inter active
Ġbu z
ĠCl aude
ĠEm ploy
Ext ended
Ġsuccess es
iev al
Ġfact ual
Ġidentify ing
Im plement
Ø± Ú©
orn iai
ath s
Ġwrit es
ĠBer kele
Ġresp ect
Ġperce ived
69 4
Un iversity
Un iversal
Ġsect ors
ĠPl ans
CITEREFH ar
CITEREFR oberts
soft ware
ribution al
Ġfocus ed
Search ing
Ġspe ak
ĠAm eet
Ġprof ess
Ġprof ound
ĠWe barchive
Ġprovid ing
ĠDaniel a
Ġestabl ishing
116 60
Ġtake over
itz ski
Ġcri tic
ĠAlex a
ĠMor ingen
Ġatt ributed
Ġadv ice
Ġshow ing
ĠReg ul
Techn iques
ĠQu oted
Ġaud iences
ĠRec ommend
ĠIm pro
ĠComp atible
Ġent ered
Ġprom oted
Ġprom ises
ĠAf shin
Ġdepend s
Ġdepend ency
ĠBe gin
ĠBe havior
ĠBr ain
ĠBr yson
ĠBr ussels
ĠWh ile
ĠWh itney
antan e
Ġanaly zed
Trans humanism
Ġbehavior al
76 19
Ġedit orial
Ġinst ant
Ġinst ead
Ġinst antane
Ġfollow s
Ġvol ume
Ġobjec tives
mid t
ĠQ uestions
let ins
Ġbo ard
Ġrece ives
ĠPh otos
ĠFin ance
Ġchar acters
127 36167
Ġmeas ured
Autom ata
Model ing
Se q
Ã© s
Ð» Ð°
Ġtend encies
esp ite
Ġpos es
ĠCont ent
Ġcomb ine
Ġcomb ining
Ġdescrib ing
Ġcolle ctively
LS TM
Ġocc up
Ġocc asion
Ġcar ried
Ġcar bon
Ġdem ocratic
irt z
ĠEv ans
ĠEv acuation
Ġann ual
Ġpresent ation
Ġeval uate
Ġeval uated
Inter action
Inter active
Ġreported ly
Ġassum e
Ġcorre ction
Ġdomin ate
Ġdomin ance
ĠReport s
And re
And rew
Def inition
gener ating
ĠBro ckman
Ġgu ide
Ġstart ups
Ġtrav elled
Ġtransmit ting
Ġautonomous ly
Ġcapital ization
Ġachiev ed
Ġachiev ing
ĠAt ari
Ġfac ult
Ġfund amental
Ġbas ic
ĠNo ah
Ġgreat er
ires an
ĠHu bert
ĠHav ing
Ġauthor ity
Ġauthor itarian
Ġdiscuss ed
Ġdiscuss ions
Ð°ÑĢ Ð°ÑĪ
General ization
Don ald
Em pir
Pars ing
Sch midhuber
uit en
uit able
Ġcr ime
Ġcr imin
Ġcr ucial
Ġfr ame
Ġfr ames
ĠSur ge
ĠMass achusetts
ĠDo es
Comp anies
Ġefficient ly
Ġdissemin ating
oz a
Ġsci entists
rop ic
Ġcost s
Ġdel ivery
Ġweb site
Ġweb sites
ush wick
ĠDem pster
ĠHar per
ĠHar ari
ĠHar ris
Ġchat ter
Ġannoun cements
Alex Net
Dif fusion
Ge offrey
Ge ography
LL Ms
Sp anning
bl ack
curs ors
à¨ ª
à¨ ¬
à¨ ¾
à¨ ľ
Ġtele phone
Ġpur ch
Ġperspec tives
Ġfile Permanent
Ġmin or
ĠMat rix
ĠMat teo
ĠMoh am
ĠLaw rence
Ġarr ay
Ġarr ived
ĠAlpha Fold
Ġequ ival
Ġinterpre t
Ġinterpre table
Ġconnection ist
Ġrecommend ations
Be fore
Be havior
aÃ ¯ve
lab orative
inform ed
Ġte am
ĠAct a
Ġfit ted
Ġfam ous
Ġfam ily
Ġfam iliar
Ġmess ages
Ġmap s
Ġmap ping
ĠSc ott
ĠSp anish
ĠRis ks
Ġhypot hes
Ġproduc es
Ġproduc ing
ĠLog ic
ĠLog ical
ĠFran cisco
ĠChristop he
Ġcho ices
Ġcentral ized
Ġestim ation
Ġprior ity
Dist ributional
Ind uctive
SA RSA
Vari ous
Ġtreat y
Ġtreat ments
Ġsom ewhat
ato es
atz ky
ĠSe oul
ĠSol oski
ĠSum mer
ĠTw itter
ĠTer ry
Ġrepl aced
Ġremain s
ĠPer ceptr
ĠPost al
Ġgood s
ump ed
CITEREFJ ordan
Ġvis ual
Ġstep s
ĠOb jectivity
ĠOp portun
Ġassist ance
Ġreduc ed
eyer er
Ġhappen ed
Ġtravel ers
Str uctural
Ġign or
Ġenc od
Ġintr usion
Ġdeb ate
Ġdeb ates
Ġdivid es
Ġdiagnos tics
Ġmov ie
Ġbel ong
ĠSha w
ĠSha zeer
Ġloss less
Ġharm ful
ĠPark inson
ried man
ĠGold man
ĠElect ric
Ġstand ing
ĠOf ficial
ĠOf fice
Ġchann el
Ġapproxim ation
Ġapproxim ate
Ġapproxim ately
ĠAnth ropic
Ġregul ations
ĠRepublic Israel
ĠRepresent ing
ĠRepresent ations
Ġfinding s
Ø§Ø±Ø ¯ÙĪ
Ġdynam ics
Anal ysis
Function al
Nav box
Ob jectivity
Op tical
Op inion
Ġge ographic
Ġens emble
Ġele ctions
inch combe
Ġsmar ter
cha e
Ġcivil ization
Ġinvesti g
ĠAss yrian
Ġful f
Ġded uction
Ġded uce
Ġdest r
Ġmer ely
urch in
ĠSan j
ament ally
add le
add ell
ĠPal mer
ĠDi abet
Ġconsequ ences
Ġcompeti tive
ĠLL aM
ĠLL Ms
Ġvers ati
Ġvers ions
Ġexhib it
Ġexhib ited
ska Tagal
ĠKing dom
ĠKenn edy
ĠVal ley
Ġconstit u
Ġconstit ute
Ġrout es
Ġrout ine
Ġoppos ition
Enter tainment
Ġmatch ing
ĠConstr aints
Ġweap ons
Ġassess ment
Ġsummar ies
Ġdeliver ed
Am azon
Acc ording
Fin ance
Fin ancial
Hall ucination
Japan Czech
OC R
Wh ite
publ ished
uÃ įslenskaItaliano×¢×ĳ×¨×Ļ×ª
Ð· Ð±Ðµ
Ðľ Ð°ÐºÐµÐ
Øª ÛĨ
Ù¾ ÙĨ
Ġcur ve
Ġmechan ism
Ġmechan isms
Ġban king
Ġbelief s
Ġbenef it
ĠMel ayu
ĠCo NLL
ĠCar ol
ĠCour t
Ġliter ary
ĠBi as
Ġrun ners
aps es
Ġnewsworth y
ĠFlor ence
Ġtrad ition
gric ultural
Ġaccom pl
Ġaggreg ation
184 82
Ġdise ase
306 42
Alpha Go
Reason ing
ĠZh ong
Ġoperational ization
ĠSimilar ly
Ġincorpor ate
Ġcheck ers
ÐĳÐµÐ»Ð°ÑĢÑĥÑģÐºÐ°Ñı ÐĳÐµÐ»Ð°ÑĢÑĥÑģÐºÐ°Ñı
997 7
Br ide
Out line
fam ily
lam a
ÑĤ Ð°ÑĢÐ°ÑĪ
Ø¬ Ø§Ø
Ø¬ Ùĩ
à© °
à© Ģ
Ġill usion
Ġill ustr
Ġtheor em
Ġsu ited
Ġsix teenth
Ġpurs ued
Ġpict ure
Ġpict ures
Ġpione er
Ġpione ers
Ġcut ting
Ġcaus ed
Ġfall s
Ġfast est
Ġbul k
Ġbul letins
Ġ186 3
ĠMax well
ĠCong ress
ĠCong ressional
Ġhierarch ical
ĠPap ert
ĠBl ack
ĠJul ia
Ġconstant ly
ĠEle utherAI
ĠEric a
Ġvulner abilities
ikol ov
Ġtra its
ĠUnder standing
agal lo
ĠStev e
Ġpred omin
Ġimplicit ly
Ġrespec tive
Ġrespec tively
Ġactiv ities
Ġclaim ed
Ġcompet ed
Ġcompet ing
9780 26
Ġdeclar ation
Ġdeclar ations
Ġparti al
ĠPrac tice
Ġredirect s
Ġsubsid i
Auto encoder
ĠAdvan ces
Ġmonit ored
Ġfeed back
127494 2014
127494 1297
Ġentire ly
Ġarrang ed
Ġcorrespond ence
represent ed
ÐºÐµÐ ²Ñ
012 43
Disc ourse
Development al
Econom ics
NE T
Occ itan
hos la
run ch
tun ed
yb enko
Ã¡ Å¡
Ã¶ ller
utch ins
Ġsal es
Ġsyn apses
Ġpuzz le
roid s
Ġinstr uctions
Ġbal ance
Ġbure aucratic
Ġbran ch
ĠSH AP
ĠSyn ced
ĠRight s
ĠCal ifor
Ġhund reds
ĠPerspec tives
Ġgor illas
Ġgatekeep ers
Ġleg i
ĠJoy ce
Ġconver gence
ĠGovern ing
Ġtrade off
Ġdiscipl ines
comput er
Ġanalog ous
Ġoutper formed
Ġindex ing
Ġquot ation
ĠAng win
Ġscruff ies
Ġdefend ants
ouy et
Ġcircum stances
Ġtermin ology
Ġperceptr on
Ġentertain ment
Ġdevi ations
ĠAnaly tics
Health care
ĠContin ue
Ġfacilit ate
Ġfilter ing
Ġdestro y
Ġmerch ants
TÃ¼rk Ã§eÐ£ÐºÑĢÐ°ÑĹÐ½ÑģÑĮÐºÐ°
Ġconglomer ates
BE RT
Bre zhone
Fi refly
Gr adient
Hu ang
Hol land
Mu Zero
Met eor
Mag yar
Sens ationalism
Slov en
Tow ards
found er
pon ent
pattern s
Ã² l
organ ized
Ġpig eons
Ġcens orship
Ġinduc tive
ĠAustr alian
Ġfrequ ently
Ġdig its
Ġmut ual
Ġmiti gate
etect able
ĠSing ularity
ĠSus an
ĠTurk ish
ĠRoche ster
ĠCurr ents
istem ology
Ġhar ms
Ġhom og
Ġhtt ps
ĠPos itive
ĠBerg er
Ġconvention al
ĠLak off
ialog ue
ĠEtt ema
Ġchalleng ing
Ġunivers ities
Ġcontrovers y
Ġabstr act
Ġenem y
Ġsubstan ti
Ġreconstr uction
typ ically
389 26
Ġambig uous
ahd awi
Christop her
Isi Zul
check ing
Ġhighlight ed
Impro ving
ĠPlot kin
ĠAlexand ra
Ġexchang es
ĠMatthe w
ĠMohamm adi
Analy tic
Ġskep ticism
Ġreveal ed
Suomi Sven
Deutsch Ees
Ġdanger ous
AzÉĻrbaycanca ØªÛĨ
ÐľÐ¾Ð½Ð³Ð¾Ð» áĢĻ
Ù¾ÚļØªÙĪ P
PolskiPortuguÃªs Qara
LatvieÅ¡u LietuviÅ³
EuskaraÙģØ§Ø±Ø³ÛĮ FranÃ§ais
Americ an
Bos anski
Back propagation
Cour ville
Citiz en
Fel iciant
GR U
Glo Ve
Hr vatski
Jawa à²ķà²¨
LaM DA
Mamb a
Marv in
Morph ological
OÊ »zbe
Sw arm
Sep po
aule y
bod ied
hran i
mÃ ¥lNorsk
moli ar
nar ticle
ncit eref
paq sha
qal paqsha
tx t
taz zo
´è ¯Ń
´Ð¾Ð½ ÑģÐºÐ¸
Äį ina
åĲ ´è¯Ń
Ġels ewhere
ĠÑŀ Ð·Ð±Ðµ
ĸÑĨ Ð°
Ġtri um
orsk Occitan
alwalk ar
Ġsatis f
Ġsudd en
atas ets
lell and
Ġpap ers
Ġphenomen a
Ġpedest rian
Ġcand id
Ġcerem onies
Ġinev it
icks on
ellect ual
Ġfra ud
Ġfilt ers
Ġdeat h
Ġdra wn
Ġmorn ing
Ġbom bing
Ġbok mÃ¥lNorsk
Ġbroadc aster
Ġburd en
Ġwinn ing
omput ing
Ġnyn orskOccitan
Ġnarr atives
asper owicz
askow ski
Ġtoget her
uraf sky
ĠSqu are
idjour ney
ĠTurism o
ĠRosen blatt
ĠRena issance
ĠNort on
evert heless
Ġreject ed
Ġthres hold
ĠPlo eckl
ĠPeng uin
ĠPension s
ĠPyth on
Ġproto col
Ġprosp ects
Ġprobabil ities
ĠBlet chley
ĠJaze era
ĠDud a
ĠInvent ing
ĠWack man
ĠWerb os
Ġconvin ced
Ġconfig ur
ĠHeb b
ĠGlob e
ĠGrah am
ĠLinn ainmaa
ĠLett ers
ĠELI ZA
Ġvoc ab
Ġexempl ified
ĠStau ber
ĠKore a
ĠChalleng er
ĠChaff ee
iparti to
1275 382050
ostamiz adeh
ieliÅ Ħ
Ġunbi ased
ĠYah oo
ĠYuv al
ibsh irani
ĠProPublic a
Ġemplo ys
ĠDeclar ation
Newsworth iness
Ġappropri ately
Wikiversity Wikidata
ĠConstell ation
orgenst ern
ÐºÑĩÐ° à¨ª
ĠMehry ar
wholes ale
ĠEmploy ment
Ø±Ú© Ø¬Ùĩ
ĠBerkele y
12736167 26
ĠPerceptr ons
ĠOpportun ities
ĠDiabet es
skaTagal ogà®¤à®®
ÐľÐ°ÐºÐµÐ ´Ð¾Ð½ÑģÐºÐ¸
Ù¾ÙĨ Ø¬Ø§Ø
ÑĤÐ°ÑĢÐ°ÑĪ ÐºÐµÐ²Ñ
ĠCalifor nia
Brezhone g
IsiZul uÃįslenskaItaliano×¢×ĳ×¨×Ļ×ª
SuomiSven skaTagalogà®¤à®®
DeutschEes tiÎķÎ»Î»Î·Î½Î¹ÎºÎ¬EspaÃ±olEsperanto
AzÉĻrbaycancaØªÛĨ Ø±Ú©Ø¬Ùĩ
PolskiPortuguÃªsQara qalpaqsha
Feliciant onio
OÊ»zbe kcha
ĠÑŀÐ·Ð±Ðµ ÐºÑĩÐ°à¨ª
ĠnynorskOccitan à¬ĵà¬¡
Ù¾ÙĨØ¬Ø§Ø ¨ÛĮ
ÑĤÐ°ÑĢÐ°ÑĪÐºÐµÐ²Ñ ĸÑĨÐ°
AzÉĻrbaycancaØªÛĨØ±Ú©Ø¬Ùĩ à¦¬
) }
) \"]
. '
. -
0 20
0 13
0 14
0 88
0 38
0 60
0 59
0 39
0 99
0 190
1 197
2 26
2 139
3 91
3 16
3 11
3 97
3 15
3 13
3 14
3 25
3 90
3 50
3 85
3 55
4 16
4 13
4 14
4 17
4 26
4 90
4 86
4 21
4 87
4 99
4 35
5 23
5 29
5 34
5 89
5 402
5 805
6 93
6 12
6 27
6 80
6 86
6 45
6 82
6 245
7 16
7 90
7 38
7 87
7 69
7 114
7 139
7 449
8 201
8 00
8 11
8 50
8 37
8 99
8 49
9 87
9 83
9 81
9 56
9 43
; ),
? ,
? ","
A O
A R
A v
A re
A ur
A st
A sk
A fter
A tom
A ffective
A GI
A stronomy
A griculture
B L
B O
B l
B ar
B ol
B ri
B ab
B ill
B ern
B log
B ank
B elief
B logging
B ikol
B anerjee
B uchanan
C F
C W
C o
C or
C ast
C ulture
C ry
C hen
C ognitive
C ultural
C arl
C ivil
C ornell
C iaramella
C raft
C ambria
C ivic
C PU
C runch
D E
D P
D i
D ed
D el
D om
D uring
D epend
D omin
D yson
D ennett
D CC
D arwin
D ynam
D espite
D atasets
E ch
E ven
E arth
E CML
E them
F A
F E
F P
F ar
F ol
F ang
F ake
F ID
F ather
F ox
F red
F emin
F ollow
F ashion
F uzzy
F idel
F oreign
F ifth
F acial
F reedom
G on
G od
G ate
G ated
G ame
G ive
G ames
G ating
G ran
G reg
G ael
G ene
G NN
G As
G round
G arry
G emini
G rammatical
G ordon
G iann
H W
H um
H ard
H ail
H aus
H orn
H inton
H igher
H ypot
H erbert
H enri
H ighest
I N
I V
I f
I g
I on
I ch
I lo
I LP
I ll
I mit
I EEE
I CL
I CA
I lya
I CML
I CE
I oT
J a
J in
J an
J ason
J oseph
J Ã¼rgen
J CAI
K a
K ar
K al
K is
K ism
K han
K ling
K evin
K umar
K ahneman
K ernan
L M
L o
L in
L im
L ot
L amp
L ud
L ack
L ee
L aw
L oss
L inguistics
L ibrary
L AC
L TC
L igure
L arson
L ouis
L AB
L emm
L imitations
L lama
M A
M em
M ill
M ore
M arg
M LP
M odern
M anning
M ath
M iddle
M emory
M oore
M ixed
M agazines
M orrow
M ultiv
M IR
M idjourney
N R
N ed
N an
N ot
N TE
N eat
N ormal
N ick
N aj
N ote
N ature
N amed
N athan
N arrow
N arrative
N MT
O O
O OM
P F
P M
P P
P a
P i
P al
P an
P und
P ower
P ink
P lan
P olicy
P CA
P ortal
P owered
P henomen
P OS
P eace
P ereira
P ritzel
P CF
P GAs
Q ian
Q wen
Q ueen
R G
R P
R is
R ay
R TE
R ud
R ational
R ober
R itter
R OC
R oles
R FR
R MM
R DL
R endering
S am
S un
S ide
S erv
S to
S ize
S top
S ense
S mith
S exual
S ensor
S ora
S VM
S ports
S GD
S igm
S peed
S mart
T V
T ech
T one
T ax
T emplate
T imes
T ensor
T aylor
T RA
T ermin
T abloid
T revor
U M
U d
V C
V Ã
V as
V ery
W F
W in
W ar
W ith
W ork
W ave
W rit
W ood
W estern
W eek
W iley
W eather
W atchdog
X XI
Y ann
Y ou
Y ellow
Z az
Z haoLovreglio
[ ["
] ","
] },"
_ (
a Õ
a en
a ol
a ac
a ik
a ure
b an
b ut
b ro
b um
b ag
b ign
b one
b ra
b ie
b ining
b lp
b uilding
b agh
b iotics
c el
c ell
c ity
c urrent
c ognitive
c raft
d ic
d et
d if
d ata
d ue
d uct
d ric
d sky
d own
d ai
d uce
d raw
d istance
e es
e ess
e ot
e av
e ated
e ogram
f in
f ot
f und
f ect
f ra
f ires
f ixed
f ledged
g ent
g em
g ers
g ov
g ant
g ue
g one
g ian
g ib
g ression
g ood
g sub
g ender
g uid
g elh
g bag
h ur
h ol
h am
h ap
h our
h ance
h igh
h iann
h ouses
i i
i ang
i form
i ef
i per
i ates
i ert
i ants
i emi
j i
j it
j ews
j un
j rc
k e
k m
k is
k ci
k op
k ra
k enn
k me
k rah
k ano
l u
l x
l en
l im
l av
l ity
l ik
l ak
l iel
m c
m i
m u
m ap
m und
m ak
m ind
m ount
m achines
m ended
m aster
m iddle
m ersion
n et
n em
n st
n ational
n orm
n ose
n ings
n ugg
n table
n arrow
n no
n ih
o e
o j
o is
o el
o ot
o op
o ud
o ever
o ples
p ti
p ic
p ur
p ite
p are
p art
p stein
r m
r n
r s
r z
r ing
r ut
r up
r ant
r ace
r ally
r ash
r ze
r uz
r ives
s g
s en
s ur
s id
s un
s ay
s ci
s um
s ip
s ens
s ignal
s econd
t p
t ac
t ect
t est
t ologies
t ze
t asks
t amd
u ec
u itive
u erg
u Av
v ary
v erv
v ern
v oc
v ind
v visi
v ii
w al
w ig
w as
w ill
w ass
w yn
w ne
w ah
w ined
w ald
w eek
w iy
y un
y ram
y ou
y ler
y uan
y win
y dd
y gh
z em
z ap
z os
z gin
z li
z hev
{ \
} ,
} {
¡ Ð¾
¥ àº
¦ Ûĩ
§ Ó
§ Ģ
§ Lat
§ Õ¶
© ç²µèªŀ
¬ Ø©
® à´
¯ Ø§Ø±Ø
° Õ¡ÕµÕ¥
± ÖĢÕ¥
² à´
² Ð°ÑĪ
² àº
³ ble
³ Ñĭ
³ ÙĨ
´ Haus
µ ro
µ Ø±
· Ð¸
¸ à¦
º ½
º è
º Ûĩ
¼ ĭ
¼ à¦¾
½ Simple
¿ Õ¡Õ
Ã «
Ä ±
Å ©
Å Ĥ
Î £
Ð ļ
Ð §Ó
Ð ²Ð°ÑĪ
Ñ Ī
Ò ļ
Ò Ľ
Ò ¡Ð¾
Ò ·Ð¸
Ó £
Ô ±ÖĢÕ¥
Õ ´Õ
Õ §Õ¶
Ö ´
Ö Ĥ
× ĵ
Ø ¦Ûĩ
Ø ³ÙĨ
Ø µØ±
Ø ºÛĩ
Ù ī
Ú Ĩ
Ú Į
Û ķ
Ü Ĳ
à §Ģ
à ¼ĭ
á Ī
á Ĭ
á Ł
á º½
è ¨
ï ¼
Ġ ?
Ġ }
Ġ â
Ġ 93
Ġ âĢ
Ġ edic
Ġ 85
Ġ âĢĶ
Ġ eds
Ġ roman
Ġ icon
Ĥ Bosanski
Ħ à¶
ħ à¦
ĳ Ð²Ð°ÑĪ
Ĵ à¶
Ł á±
in ate
in ik
in ated
in cess
in ces
in ator
in ctive
in rich
in spired
in burg
er re
er ic
er os
er ov
er ical
er stand
er ald
er enko
er ior
er kle
Ġt ro
Ġt om
Ġt ac
Ġt ies
Ġt ens
Ġt ax
Ġt error
Ġt eled
on i
on ia
on oun
on entially
on fir
Ġa ro
Ġa ware
Ġa ston
Ġa war
Ġa stronomy
Ġa griculture
ti p
ti z
ti se
ti zation
or tion
or pe
or ich
or able
or avec
or adic
or jit
en in
en ing
en tive
en ous
en tical
ar c
ar et
ar ev
ar ow
ar ative
ar aj
ar Xiv
ar eness
he on
al an
al van
al gorithm
al ta
al uated
ed ge
ed ik
es h
es ter
es ley
es pecially
es timate
an or
an op
an io
an ie
an az
an athan
an men
an owicz
an cing
is a
is y
is on
is ation
is ory
is per
is ra
is hes
is emantic
is dic
Ġthe sis
ing d
ut a
ut ed
re c
re com
re ements
re bro
Ġs id
Ġs pars
Ġs ex
Ġs ell
Ġs ort
Ġs pr
Ġs ector
Ġs ects
Ġs ie
Ġs amples
Ġs lower
Ġs cript
Ġs oph
Ġs ports
Ġs ustainable
Ġs afe
Ġs cripts
Ġs uitable
Ġs tip
Ġo wne
at on
at en
at eman
at ories
at ner
at lantic
at anio
20 78
le an
le ber
le ading
le ted
le mma
le asure
Ġp ay
Ġp ort
Ġp amp
Ġp our
Ġp and
Ġp ack
Ġp ip
Ġp ace
Ġp ok
Ġp ose
Ġp ne
Ġp ension
Ġp ao
Ġp df
Ġp hilosophers
Ġp owers
Ġp yram
Ġp ortion
it em
it ory
it ual
ch af
ch ange
ch astic
ro tia
Ġc am
Ġc yber
Ġc yberne
nd etectable
Ġin ac
Ġin ef
Ġin ferences
Ġin formed
Ġin visible
ic he
ic as
ic ants
ic ators
el on
el es
el ov
el ix
el ites
el zadeh
ĠA z
ĠA ff
ĠA ctive
ĠA way
ĠA ustin
ĠA aron
ĠA LPAC
ĠA vvisi
Ġf u
Ġf ly
Ġf lock
Ġf als
Ġf ears
Ġf illed
Ġf rontier
Ġf ifth
Ġf aith
Ġf ertil
Ġf reely
Ġf resh
Ġd u
Ġd ep
Ġd edic
Ġd ail
Ġd ivers
Ġd ram
Ġd iam
Ġd ying
Ġd iag
Ġd uk
Ġd angers
Ġd ualism
Ġd ystop
Ġm w
Ġm al
Ġm im
Ġm ir
Ġm os
Ġm ag
Ġm edic
Ġm orp
Ġm achinery
Ġm oles
Ġm ole
Ġm oney
Ġm ystery
ent on
ent zos
Ġb us
Ġb ord
Ġb lock
Ġb ene
Ġb row
Ġb acter
Ġb logs
Ġb inary
Ġb logging
Ġb loc
Ġb atter
Ġb ioinformatics
Ġb anned
Ġb readth
Ġw in
Ġw ik
Ġw arr
Ġw ater
Ġw estern
Ġw earable
Ġw anted
Ġw atches
ig a
ig ion
ig ue
ig uro
ig with
ig gers
om ason
om aa
om otion
om position
Ġn orth
Ġn ineteenth
Ġn aÃ¯ve
Ġn evertheless
et on
et ing
et ail
et sky
et ta
as er
as so
as ible
as hed
as par
as co
as cha
as chaf
as rotia
em ar
em ont
em otion
em iotics
em bles
Ġ1 20
Ġ1 11
Ġ1 23
Ġ1 17
Ġ1 25
Ġ1 27
Ġ1 40
Ġ1 60
Ġ1 34
Ġto ler
ur ts
ur ian
ur ns
ur man
ur istics
ur che
ur IPS
ur isdic
us z
us ar
us se
us tive
us ual
us ker
us lim
ol a
ol ia
ol ated
ol ding
ĠS I
ĠS a
ĠS w
ĠS om
ĠS av
ĠS lo
ĠS ee
ĠS aw
ĠS ample
ĠS ymb
ĠS pecial
ĠS ix
ĠS ource
ĠS aid
ĠS ister
ĠS aud
ĠS ky
ĠS emi
ĠS AS
ĠS atell
ĠS fn
ĠS uy
ĠS wami
ĠS ainato
ĠS ocher
ĠS addle
ĠS ascha
ce eds
ce pti
ew art
ew ise
93 53
Ġ20 6
91 0
91 3
am a
am ation
am ir
am ian
am ining
am uel
am oto
am owski
am kis
ĠM a
ĠM al
ĠM ed
ĠM ec
ĠM un
ĠM ot
ĠM ach
ĠM ate
ĠM ont
ĠM ag
ĠM ember
ĠM ost
ĠM ake
ĠM ah
ĠM icro
ĠM ath
ĠM ental
ĠM illion
ĠM AT
ĠM urder
ĠM ultimedia
ĠM ultimodal
ĠM oon
ĠM iner
ĠM idura
ĠM ystery
ĠM ashaghi
ĠM urphy
ĠM istral
ĠM iddendorf
ĠM ikolov
ĠM Ã¶ller
ĠM uslim
ec utive
id i
id ed
id ing
id ual
id ya
out s
ĠT op
ĠT ra
ĠT ake
ĠT rib
ĠT ask
ĠT versky
ĠT orniai
ĠT urchin
ĠT alwalkar
ĠT ibshirani
ĠT asso
ĠR on
ĠR en
ĠR us
ĠR ain
ĠR ug
ĠR ele
ĠR ose
ĠR oss
ĠR ules
ĠR iver
ĠR esp
ĠR CA
ĠR ampton
ĠR amezanpour
ĠR andy
ĠR ostamizadeh
ĠR hiann
ars hall
ĠC A
ĠC or
ĠC arn
ĠC ain
ĠC able
ĠC ost
ĠC ra
ĠC aus
ĠC BC
ĠC orn
ĠC Ã©
ĠC hel
ĠC arter
ĠC atal
ĠC zech
ĠC ornell
ĠC NA
ĠC orre
ĠC ambria
ĠC ivic
ĠC ybers
ĠC hemical
ĠC ountries
ĠC LTC
ĠI RE
ĠI ran
ĠI PS
ĠI de
ĠI EA
ĠI JCAI
16 402
il er
il ary
il ies
il ner
il iates
Ġl a
Ġl oad
Ġl ength
Ġl oos
Ġl ui
Ġl icensing
ĠN ext
ĠN our
ĠN ou
ĠN eta
ĠN athan
ĠN arrative
ĠN arayanan
ĠN aser
st a
st op
st ream
ev y
ev es
ev acuation
Ġre in
Ġre ac
Ġre ference
Ġre aches
Ġre pos
Ġre action
Ġre actor
Ġre visited
Ġre organized
im a
im er
im an
im als
ul z
ul er
ul um
ul ik
ul ations
ul ary
ul tit
ul ative
ul man
ul ler
ul let
ul pan
ul ius
ist on
ist ingu
Ġh y
Ġh or
Ġh os
Ġh ub
Ġh ost
Ġh ors
Ġh arv
Ġh iring
Ġh oly
Ġh opes
Ġh urts
ad av
ad ian
ad te
Ġth ing
tic a
tic ulated
tic ularly
iv a
iv aj
ĠP ew
ĠP rom
ĠP op
ĠP ant
ĠP all
ĠP ast
ĠP ric
ĠP lan
ĠP erson
ĠP iet
ĠP uzz
ĠP sych
ĠP oll
ĠP BS
ĠP itch
ĠP hilosophical
ĠP ortug
ĠP asc
ĠP iat
ĠP ereira
ĠP ritzel
ĠP hilosopher
ĠP ennachin
ĠP utnam
ĠP entland
ĠP aths
ĠP agallo
ĠP aol
ers ey
ac ific
ess ment
ess ler
Ġon Artificial
Ġon tologies
ge bra
ri er
ri ol
un es
un supervised
un bordered
un iy
un observ
od a
od or
od ge
). "
160 5
ot og
ot hy
19 00
19 60
19 08
19 57
19 69
19 62
19 51
19 263
ter prise
ine ar
ly ss
ly ea
ly mp
ly usar
ell es
ell ion
av in
av is
av est
av aid
av uk
ow ed
ow ell
arn ad
arn ia
arn off
ith ium
Ġ202 6
Ġ202 50
Ġor al
Ġor ient
th n
th al
th at
th read
th ony
th ouse
th ird
th inking
og un
og lu
Ġpro ceedings
Ġpro bably
Ġpro tected
Ġpro tection
ab h
ab ral
ab adi
ab bagh
ay a
ay ev
ĠB C
ĠB o
ĠB ia
ĠB ass
ĠB ible
ĠB etween
ĠB ran
ĠB roadcast
ĠB ox
ĠB ench
ĠB ites
ĠB urg
ĠB aker
ĠB ank
ĠB ao
ĠB elief
ĠB atter
ĠB ioinformatics
ĠB uilding
ĠB ailey
ĠB anerjee
ĠB imbo
ĠB ulg
Ġg if
Ġg ave
Ġg one
Ġg ive
Ġg reen
Ġg aming
Ġg ramm
Ġg iants
Ġg wiy
Ġis olation
Ġr ad
Ġr aw
Ġr ail
Ġr adi
Ġr iders
Ġr ival
Ġr anking
Ġr igor
Ġr Star
Ġr uler
Ġle ver
Ġle aves
Ġle mma
Ġle tter
Ġle thal
ĠJ ac
ĠJ ens
ĠJ oh
ĠJ aw
ĠJ ason
ĠJ oint
ĠJ ude
ĠJ ustin
ĠJ Ã¼rgen
ĠJ eopardy
ĠJ urafsky
ĠJ MIR
ĠJ ersey
arning s
10 23
10 86
10 59
10 28
10 39
10 694
Ġ= ==
fic ulti
": [["
Ġfor th
Ġfor um
ion en
ion al
ion we
ir k
ir on
ir ical
ir able
ir aud
ir mal
ir zli
pl ika
ap a
ap pl
ap nik
ap point
op el
op ol
ber stein
ĠD is
ĠD at
ĠD ue
ĠD ian
ĠD ark
ĠD epend
ĠD ream
ĠD uan
ĠD atab
ĠD ennett
ĠD ead
ĠD utch
ĠD arwin
ĠD ynam
ĠD avenport
ĠD rum
ĠD irectorate
ĠD amian
um er
um nist
um onia
Ġnews she
ĠIn tell
ĠIn stit
ĠIn formed
ĠIn frastructure
ĠIn quiry
os ure
os cience
os oda
ĠW on
ĠW el
ĠW ord
ĠW end
ĠW ard
ĠW ild
ĠW right
ĠW hy
ĠW ants
ĠW inter
ĠW ald
ĠW earable
ĠW anta
ĠW rÃ
ĠW itten
ĠW eyerer
Ġas k
Ġcon v
Ġcon cent
Ġcon dition
Ġcon clus
Ġcon fr
Ġcon ditional
Ġcom ments
Ġcom prises
ĠH is
ĠH el
ĠH ad
ĠH ay
ĠH ap
ĠH ug
ĠH end
ĠH ave
ĠH uss
ĠH ann
ĠH igh
ĠH els
ĠH ardware
ĠH ung
ĠH ypot
ĠH ipp
ĠH ume
ĠH elp
ĠH alper
ĠH augeland
ĠH empel
ĠH utchins
ĠH inrich
ĠH erald
ĠH usse
ĠThe m
ĠG en
ĠG ree
ĠG ross
ĠG reen
ĠG iro
ĠG ender
ĠG eyer
ĠG PUs
ĠG ordon
ĠG avin
ĠL Z
ĠL ab
ĠL ight
ĠL ind
ĠL eb
ĠL oss
ĠL arg
ĠL az
ĠL ock
ĠL ater
ĠL ux
ĠL CC
ĠL ittle
ĠL angley
ĠL icensing
ĠL yakh
ĠL IME
ĠL isp
ĠL XXI
ĠL enin
ĠL ithium
ĠAr ntz
ĠAr vind
bo ken
ial ly
ĠF re
ĠF am
ĠF ab
ĠF our
ĠF ear
ĠF all
ĠF ame
ĠF ind
ĠF rey
ĠF red
ĠF ull
ĠF requ
ĠF riedman
ĠF PGAs
ĠF elix
ĠF uller
ĠF irzli
Ġbe gin
ĠE s
ĠE w
ĠE ight
ĠE ug
ĠE mer
ĠE uro
ĠE ll
ĠE van
ĠE arly
ĠE them
ĠE yes
ĠE pstein
ĠE thn
iz ons
iz uk
iz zi
Ġal ert
Ġal igned
Ġal tered
Ġal gebra
Ġlearning See
ct uation
CITEREF Re
CITEREF St
CITEREF New
CITEREF Urb
Ġan t
Ġan ym
Ġan omal
Ġan ticip
Ġan xi
Ġan imal
Ġan imals
Ġv ary
Ġv est
Ġv ill
Ġv enture
Ġv ague
Ġv oting
ort es
Ġst ar
Ġst ay
Ġst op
Ġst age
Ġst ance
Ġst ake
Ġst ric
Ġst ochastic
Ġst umped
amp uz
ub t
ub ai
our agh
Ġwh om
Ġwh ites
ik s
and oned
and master
and ola
ide b
ov an
ov ing
ov ers
ov ert
ov ani
Ġwith draw
Ġ2 10
Ġ2 33
Ġ2 30
Ġ2 59
Ġ2 35
Ġ2 75
ations Audio
und erstand
Ġex clude
ived ha
ear ched
ect ator
Ġus ual
tific ation
up tion
up le
up id
qu in
qu ence
qu ality
qu oted
qu dai
qu ially
Ġit eration
form al
ĠO ft
ĠO tt
ĠO wn
ĠO kl
ĠO mohundro
ĠO riol
ĠO lymp
ment ary
ment ator
se ud
Ġar en
Ġorigin ating
bar a
lo quially
ud in
ant os
ant onio
ant ovani
ak i
ak s
ak ly
ak ura
ak kol
ak ota
port ed
Ġtr ick
Ġtr acking
Ġtr ivial
Ġoriginal ly
cl es
cl if
ug las
ug liel
if ying
if iable
ĠU ber
ĠU top
ĠU go
ĠU rb
ĠU bit
ĠU kra
ĠU ygh
ĠU lyss
ag m
ag en
ag ar
ag ers
ag ments
ag asy
uc lein
00 2
00 7
00 15
00 18
00 22
00 75
ans both
nal s
Ġ19 2
Ġ19 5
Ġ19 6
Ġ19 9
Ġ19 20
Ġ19 26
Ġ19 40
Ġ19 85
Ġ19 87
Ġ19 59
Ġ19 45
Ġ19 89
Ġ19 65
Ġ19 75
Ġ19 77
Ġ19 04
Ġ19 69
Ġ19 92
Ġ19 48
Ġ19 68
col lar
ĠSt art
ĠSt ories
ĠSt ock
ĠSt urg
ĠSt ochastic
ĠSt inchcombe
ere k
ef ined
ef owicz
ef zadeh
cess ibility
Ġdo ctors
Ġdo ubt
ill ian
ill iam
ill mann
all a
all ach
all ionen
ĠK o
ĠK u
ĠK y
ĠK al
ĠK eep
ĠK aw
ĠK han
ĠK ai
ĠK ath
ĠK ahneman
ĠK issinger
ĠK endall
ĠK ohavi
ĠK hosla
ĠK aspar
ĠK allionen
end erson
erv ous
11 24
11 86
11 55
so on
so ba
Ġ3 2
Ġ3 33
Ġ3 85
Ġ3 45
Ġ3 37
Ġ3 49
Ġpr inces
ast e
ĠCh s
ĠCh an
ĠCh ip
ĠCh ann
ĠCh ung
ĠCh ildren
ĠCh anging
Ġim pl
Ġim itate
ous tic
pro at
pro babilistic
pro portion
pro blems
pro cessor
tern oon
Ġch ose
Ġch ances
Ġch ains
uss ed
uss ion
ip her
ern er
ern ock
ern andez
Ġdata Wrapper
ĠIS TE
to z
Ġne at
Ġne go
Ġne ither
Ġne utral
Ġne uromorphic
pr int
pr esent
ens on
Ġres earched
ĠCom mit
ost on
Ġac tively
Ġac know
Ġac ycl
uch arm
fer ing
fer red
tr a
tr aining
tr usion
tr onics
ard i
ard ner
97 0
97 4
Ġsystem ic
ual ity
15 24
15 33
15 58
oc onfir
ore z
ore tic
ore gression
Ġag ain
Ġag gress
Ġag reements
Ġcomput ed
The ories
The oretical
enti eth
enti ves
enti sm
Ġun z
Ġun ch
Ġun able
Ġun iqu
Ġun pre
Ġun like
Ġun sol
Ġun fam
Ġun fair
Ġun intended
Ġun usual
Ġcl ient
Ġcont ributed
Ar t
Ar ts
Ar thur
Ar ntz
Ar chae
In t
In str
In vesti
In verse
In fot
In trusion
Ġ5 2
Ġ5 6
Ġ5 8
Ġ5 11
Ġ5 29
Ġ5 83
ame h
18 8
18 09
18 524
18 63
18 74
ĠY ing
ĠY et
ĠY un
ĠY ale
ĠY ears
ĠY osh
Ġat tit
ati o
ĠAl ready
ĠAl bert
ĠAl berto
Ġnot able
edit ed
tim eline
ys ÅĤ
ĠTh en
ĠTh urn
ĠTh ompson
ĠTh omson
13 46
14 12
ind hu
ĠUn til
ĠISBN s
Ġcomp re
Ġcomp ly
Ġcomp act
Ġcomp arative
Ġcomp leted
Ġdis par
Ġdis aster
Ġdis information
Ġdis till
Ġdis ambig
Ġdis asters
Ġdis placed
Ġdis appoint
ust ries
Ġsp in
Ġsp oke
23 2
23 18
23 23
23 27
23 34
23 07
ĠV er
ĠV is
ĠV ari
ĠV inyals
ĠV aish
ĠV lad
ĠV iking
ĠV ernor
ĠLe one
ĠLe igh
ĠLe aders
17 85
pt ography
Ġab duction
Ġab ilities
Ġab andoned
25 0
25 1
25 38
25 05
25 46
ian ism
pap er
af ou
af abadi
Ġgener ates
oun g
Ġj urisdic
24 4
24 9
24 00
24 07
24 273
26 6
26 58
26 880
26 9353
26 18524
Ġad d
Ġad vis
Ġad jus
Ġad equ
ok as
te acher
oul os
ss rn
Ġ4 8
Ġ4 9
Ġ4 00
Ġ4 60
Ġen hancements
Ġen vision
Ġen hance
Ġrel ay
Ġrel ied
Ġrel igious
Ġrel igion
clud ed
Com ics
Com plications
Com mon
Com bs
Com modity
com mit
com merce
com mentator
ogn izing
be an
be ing
Ġother wise
act ability
cre asing
dis c
Ġper man
ĠPress e
Ġcons idering
ire ments
Ġdes ert
Ġdes pite
88 8
ff rey
Ġsol vent
Ġpl ans
Ġpl ants
Ġpl ausible
Ġdec l
Ġdec ide
Ġdec omposition
ution al
order ed
ib m
ib ilities
ish am
ish able
ish orjit
Ġro ot
Ġro se
ari ate
ari ance
ari ties
ari ampuz
27 34
27 75
Ġsh all
Ġsh own
Ġsh aring
Ġinter vention
Ġinter actions
Ġinter face
Ġinter medi
Ġinter dependent
Ġli ability
ĠPro c
ĠPro gram
ĠPro duction
ĠPro ced
ĠPro paganda
ĠPro file
ĠPro tection
ha ideb
ase kh
Ġanal ysts
80 7
80 99
80 75
Ġtrans action
Ġtrans istor
Ġresearch ing
duc ing
Ġund es
Ġclass es
Ġclass ic
Ġsub sequ
Ġsub task
Ġsub mitted
Ġsub jective
ĠRe es
ĠRe ad
ĠRe ason
ĠRe open
ĠRe asons
ĠRe uter
86 0
ert ini
Ġop ens
Ġop inions
Ġop ponent
33 1
33 2
33 6
33 8
33 9
33 89
Ġ6 7
Ġrec urs
Ġrec idiv
Ġsome one
Ġnew ly
Ġnew ydd
22 1
22 12
30 8
30 9
30 44
aw ed
aw areness
}} :
}} \
old sworth
aph or
aph ora
ĠGo als
ĠGo ffrey
Ex plain
Ex plainable
ail ed
ink i
ink ler
display style
Ġunder pinn
ier ing
uct ures
36 7
36 8
50 5
ĠMar io
40 1
40 8
40 9
40 73
News wire
cont rol
Ġtext Articles
Ġtext book
Al tman
Al fred
yn e
Ġind irect
Ġind eed
Ġind ustrial
Ġind icators
Ġind istingu
Ġind ustries
En code
En gineering
Ġqu i
Ġqu al
Ġqu ite
Ġqu antum
Ġpar adox
Ġpar adigms
Ġappro ved
ob itzski
oy le
ric ia
ime k
yp se
str ong
Ġhe ar
Ġhe ight
Ġhe gem
Ġacc ents
Ġacc ounts
Ġacc ident
ond e
Ġno tice
Ġno uv
ĠSoci ological
Comput ability
85 6
Re uters
Ġ7 8
tiv ation
Ed wards
ie zer
ie gelh
Ġsim ulated
Ġsim ultane
ĠIt aly
St able
St emming
ym our
rev ision
Ġmat h
Ġmat ches
Ġmat ters
ĠEn terprise
38 3
hil iK
Ð° Ð·
Ð° Kis
Ð° ÒĽ
(. )
ĠZ D
ĠZ a
ĠZ eal
ĠZ akar
Ġpublic ly
Ġreg ions
Ġreg ulate
Ġreg ularization
ĠMc Quillan
ĠMc Combs
Ġform ulated
Ġform alism
Ġform ula
Ġpredic ts
60 2
Pro cess
Pro paganda
Pro blem
Pro cessor
Pro positional
"] ]},"
Ġserv er
Ġstr ength
Ġ17 0
Ġ17 7
Ġ17 9
87 6
87 60
87 42
ĠCon cern
ĠCon volutional
ĠCon sequently
Ġexp osed
Ġexp onentially
Ġexp osure
Ġrecogn ise
ove y
ount ability
ĠFor ces
ĠFor ecast
crib ed
Ġsc oop
ĠAs ian
ets anop
Ġlog istics
ĠPr inc
ĠPr ivate
ĠPr ediction
ĠPr zem
ĠPr incess
ĠPr imer
ĠCommun ist
ll a
ues e
ven Lab
Ġ8 00
Ġ9 2
Ġ9 269353
Ġreal m
Ġgovernment al
Ġdet ails
ĠWik ibase
45 8
ran k
Ġup per
Ġup gr
Ġup date
Ġdef ines
Ġdef eated
Ġme an
Ġprov ably
Ġvari ed
Ġdisc overs
67 0
67 72
ou x
sp ect
sp jrc
fl ation
ming ly
ale h
ale y
Ġall ied
39 2
39 8
mon otonic
istic ated
Ġ14 1
Ġ15 2
Ġ15 3
Ġ15 7
Ġ16 3
Ġgro wn
Ġexpl ained
Ġexpl aining
Ġexpl oration
Ðº Ó£
Ġ18 9
Ġ18 90
Ġ18 50
Ġ18 40
Ġ18 35
Ġ18 49
Ġgo es
ument al
Ġstud ent
Ġstud ents
elect ronic
elect ronics
Ġgeneral ize
aj pai
Ġwork ed
Ġwork ers
37 1
37 6
55 00
ah oma
field s
off end
Ġid entity
Ġid entical
Ġcre ates
Ġcol l
Ġcol ony
Ġcol loquially
Ġnatural ly
Ġorgan oid
Ġorgan izational
log her
Ñģ Ð°
ĠTr ade
ĠTr aining
ĠTr acking
ĠTr appl
Ġdevelopment al
34 1
34 4
34 2658
Ġext ending
Ġext reme
Ġscience Note
Ġwe akly
CITEREFM ad
CITEREFM insky
CITEREFM itchell
CITEREFM Ã¼ller
CITEREFM etz
over flow
99 4
sh ik
sh adte
Ġcap ability
Ġmark ing
Ġass ass
Ġass igns
Ġass ertion
res well
res istant
ris tian
Ġsearch ing
Ġdist rib
Ġdist ances
Ġdist inction
Ġman uf
Ġman agers
ĠInformation Week
An g
An y
An chor
An throp
An thony
err in
Ġpre processing
Ġpre cis
Ġpre pare
Ġpre training
ĠEx hib
ĠEx istential
ĠEx cel
ĠEx elon
ĠEx amining
Ġimp ly
Ġimp osed
35 2
35 3
35 7
Ġtw entieth
Ġwell being
ĠRev enge
ĠRev iews
ĠNe gative
Tr aining
Tr affic
Tr uec
ron i
iction aries
ĠAp plied
ĠAnd riy
ĠAnd roids
2018 258
Ġsubs et
Ġsubs cription
09 26
Qu asi
ey rich
vel ar
Ġthem es
Ġoper ator
Ġoper ators
Ġph ase
Ġph ones
Ġwhere in
Ġwhere as
44 4
44 8
89 47
Ap ple
Ap plied
Th ompson
han e
pos al
pos es
van enko
Ġde als
Ġdeep fakes
Ġ13 1
Ġ13 2
Ġtop ony
ĠSch Ã¼
ĠSch midt
ĠSch ulman
Ġlab s
Ġlab el
197 0
197 4
Ġeven ing
center ed
ced ented
sc ape
ĠSh i
ĠSh iv
ĠSh ould
ĠSh ape
") &#
Con ference
Con volution
Con vention
Con cept
Con ferences
Con vert
Con jug
Ġear lier
Ġcor rel
Ġcor oll
Ġnum bers
Ġret ail
ĠDan a
CITEREFS c
CITEREFS ample
CITEREFS earle
CITEREFS ingh
CITEREFS ocher
CITEREFS amuel
uction ism
Ġspecific ity
Ġidentif ies
Cl one
Cl ark
Cl imate
Ġav visi
Ġav ailability
arr asco
Ġsee ing
Aut oregression
Ch inchilla
Ch urnal
Ġact ed
Ġact ing
ĠMe g
ĠMe ier
ĠMe asure
ĠStates JapanCzech
ĠMcC lelland
float left
float right
02 1056
02 26880
65 6
75 7
vis ual
vir ate
Ġrequ est
Ġrequ iring
Ġrequ ests
Ġany one
Ġany where
Sh ared
enn a
enn ie
enn ox
att erson
Ġpress ure
Ġpress ures
ĠModel er
Ġhand led
Ġstudy Computational
07 40
32 118
77 0
77 74
83 1
83 80
Us ing
fus ions
hu ang
ph abet
alth ough
Ġpart ly
Ġmain stream
Ġimportant ly
Ġdesign ers
42 256
42 936
96 8
der ick
wh o
à¦ ¯
à¦ ¼à¦¾
à¦ ħà¦
ĠX u
ĠX ues
Ġec ology
Ġnon linear
Ġnon stop
Ġcommon alities
ÑģÐº Ñĭ
Deep See
Deep fake
Le gal
Le hn
Ref n
ps os
Ġeth ically
Ġinflu ential
Ġinflu encing
ĠAd am
ĠAd verti
Ġfunction al
Ġfunction alism
Ġmem orable
ired o
Ġval id
Ġval ued
Id o
Id eogram
Is aac
Ġed ge
Ġed itions
arm ouyet
Ġcirc ular
Ġlimit ation
ĠPet ers
Ġiss uing
CITEREFB ut
Ġconsider ation
Ġelect or
Ġco uple
Ġcover ed
Ġinternational ly
Ġinvol ve
Ġfin ally
Ġmulti ling
Ġmulti dimensional
ĠRo le
Ġlinks Articles
Ġstruct ured
Ne umann
Ne urIPS
che gian
rap her
sing ularity
Ġbu y
Ġbu ys
ĠEm peror
Ġview ed
Ġview ing
Ġ24 8
Ġappl icants
vention ism
Ġeconom ists
Ġsuccess ive
au x
ĠAut hority
ĠAut hors
Ġfact ory
ĠCent re
ĠNetwork ed
uck er
uck ley
Ġpriv ately
Ġpriv atization
Ġconsum er
Ġaccur ately
ĠAssoci ates
Im mersion
Im agen
Ø± ÚĨ
Ġbl ue
Ġbl ind
Ġback ground
Ġback doors
Ġwrit ers
amb iar
ĠPar enti
ĠPar adigm
ĠPar liament
ĠPar ticularly
ĠBer nd
ĠBer elson
ĠGu y
ĠGu ha
Ġimpro ves
Ġimpro ving
Ġperce ptions
69 40
As ia
As ada
aut con
aut oconfir
Ġread s
Ġread able
ĠPl ay
Ġgr av
Ġgr anting
Ġgr andmaster
CITEREFH u
CITEREFH or
CITEREFH alper
class ification
Ġspace craft
Ġopen ed
Ġopen ing
ĠTrans fer
ĠTrans parency
ĠTrans humanism
ĠEnglish Ø³ÙĨ
Go als
Go ebel
Pr inted
con str
con ference
Ġspe eds
ĠAm anda
Ġprof its
ĠWe ber
ĠFr ont
ĠFr ame
ĠFr iston
CITEREFG ar
CITEREFG rant
ĠOr en
Ġdoes n
Ġenvironment s
Ġenvironment al
ribut es
Ġsource View
116 2
116 4
47 0
92 91
uf fering
word s
Ð¸ Ð½
Ġpo or
Ġpo ol
Ġpars e
Ġpars er
Ġpars es
Ġpost erior
Ġprev alence
itz gib
Ġcri ticism
Ġcri tique
ĠAlex is
ĠAlex Net
ĠMor itz
osh i
ĠGener ation
ĠEd itions
ĠEd itors
ĠEd inburg
Ġexist ence
Ġ197 3
Ġcontin ue
Ġcontin uous
Ġatt acks
Ġplay ed
Ġshow s
ĠReg ister
Ġmathematical ly
On tology
sw ald
Ġser iously
Ġfeat s
ĠRec ent
ĠRec ord
ĠRec urrent
ĠIm perial
ĠIm ieliÅĦ
Ġallow ing
Ġresult ed
ĠComp lex
Ġcomputational ly
ÑĢ ÑĤ
Ġent er
Ġent ailment
report ers
Ġsing ular
Ġprom in
Ġprom ote
Ġprom pts
Ġprom inent
Ġprom oters
Ġinc ome
Ġinc orre
Ġinc entive
Ġinc entives
Ġinv asion
Ġinv ented
Ġdev ised
Ġdev oted
Ġdev ising
Ġdepend ed
Ġdepend ing
Ġmis use
Ġmis leading
Ġrefer ring
ĠBe ing
ĠBe ginning
ĠBr ad
Ġlead s
ĠWh o
ĠWh ig
ĠWh ere
Ġconstr uct
Ġconstr aint
Ġconstr ucted
ĠHe ad
ĠHe idel
CITEREFL ee
CITEREFL angley
Ġanaly z
Ġanaly se
Ġanaly tical
Trans lation
76 1
76 8
vte Artificial
vte Computer
vte Philosophy
Ġedit or
Ġsens or
Ġsens es
Ġsens itive
Ġsens itiv
Ġfe eds
ĠCam era
ĠCam eron
exp ected
ĠWar wick
ĠArab ia
CITEREFC o
CITEREFC al
CITEREFK ahneman
Ġperiod s
Ġperiod ic
Ġperiod ical
Ġtransform ed
Ġtransform ations
Ġauto encoder
"],[" [
Editor ial
54 1
84 15
Ad ap
Ad versary
Ad voc
Mc Gaughey
Rel ational
miss ing
miss ions
Ð¾ Ò·Ð¸
ĠQ ian
ĠQ atar
ench ik
Ġmen tion
Ġbo otstrap
Ġrece iving
istr ust
ĠPh ysics
Ġassoci ations
Ġassoci ates
ĠFin ch
ĠFin dings
ĠEconom y
ĠEconom ics
CITEREFD omingos
CITEREFD reyfus
CITEREFD avenport
CITEREFW ang
CITEREFW ong
CITEREFW illiam
ĠStr ucture
ĠStr uctural
ĠStr uctures
Ġphys ically
Autom ation
53 86
He in
No Wiki
New ness
New ton
New PP
Par ameter
Par adigms
Se quence
Se ymour
To ews
cap able
Ġtend s
Ġint ellectual
Ġdr ivers
Ġdirect or
Ġdirect ed
urn a
ĠSome times
ĠInc ome
ĠEl on
ĠEl ad
ĠEl gar
ĠUS A
Ġprac tices
Ġprac tition
Ġimpact ful
ĠAppro xim
Fran cis
Fran zen
Rec tif
Top ic
Top ological
por ns
Ġocc urr
Ġocc urred
Ġcar eful
Ġche ap
eli hood
Ġdem ands
Ġbig gest
ĠCol vin
ĠCol umb
irt ually
ĠGr and
ĠGr ant
ĠGr aves
ĠGr avest
ĠGr isham
ĠEv aluation
Ġpresent er
Ġeval uations
Inter ling
Inter ventionism
Ġassum ed
ĠAfric ans
Col laborative
Col umnist
Dec omputing
Def ining
Def amation
Network s
Å¡ icki
Å¡ Äįina
Ġide ologies
Ġend eav
Ġtarget ed
Ġtarget ing
Ġpop ularity
Ġins ight
Ġins urance
eler ator
ĠAb d
ĠAb use
ĠBro wn
ĠBro derick
Ġgu idel
Ġget ting
ope k
ĠHuman ity
Ġstart ing
Ġtrav ers
140 202
All en
Ġcapital ized
Ġcharacter ized
Ġcharacter istics
98 19263
Bi ology
Bi ological
Bi orobotics
Bi omedical
DA LL
Ph ysical
Ph otograph
Ph otojournalism
Ph otog
fe el
fe ifer
lin ski
Ġtelegraph y
Ġtelegraph ic
Ġaff ects
Ġaff ective
Ġaff iliates
Ġcorpor ation
Ġcorpor ate
Ġcorpor ations
Ġintegr ate
Ġfund amentally
Ġbas ically
Ġnov a
Ġlist ener
adem y
Ġver ifiable
Ġauthor ized
Ġauthor ities
Ġemerg ence
Ġformal ization
Ġstatements Articles
ĠSimon ite
ĠGermany United
Don ovan
Ev idence
Ev aluating
Or gan
Or acle
Pars ed
ST AT
Sch udson
Sch olia
Sim on
Sim ply
Token ization
mod ate
Ðĳ Ð°ÑĪ
Ġsum mit
Ġpass ing
Ġcr edited
ĠAcc ountability
ĠAcc elerator
Ġfr agments
Ġmass ive
ĠTech T
ĠTech Crunch
Ġrecom mended
Ġpropos al
Ġpropos itions
ĠBut ler
ĠDo ctors
ĠDo uglas
ĠWork ing
ĠWork place
CITEREFV al
Ġpres idential
Ġpres erve
ocal ypse
ativ ity
Comp ound
Comp iler
Ġemploy ing
Reg ular
Reg ulation
Reg ularization
Ġexperim ents
Ġstrong ly
ĠĠĠĠĠĠĠĠĠĠĠĠĠĠĠĠĠĠĠĠĠĠĠĠĠĠĠĠĠĠĠĠ ĠĠĠĠĠĠĠĠĠ
ĠAutom ate
ĠAutom ated
ÑĢÐ ³Ñĭ
Ġdissemin ated
415 7
524 2
Cent re
Cent ered
Fl ux
mann ed
oz ur
oz efowicz
och izuk
Ġsci kit
Ġsenti ent
Ġsize able
Ġselect s
Ġselect ing
rop he
Ġdel ay
ĠDem is
ĠDem and
ĠWall ach
ĠHill er
ĠLa ur
Ġprinci ple
Ġadvan cements
raw ford
ĠDecision s
Ġhelp ed
ĠWikidata Articles
Ġsuper mark
Ġsuper intelligent
Ġprofession alism
AS S
Alex ey
Alex ander
Dis crete
Ge ographic
Multi processing
Multi layer
Multi thread
Sp ain
news paper
à´ ³
à´ ¾
à´ Ĥ
à´ ®à´
à½ ¡
à½ ²
à½ ¼
à½ ĳ
à½ ĸ
à½ ĤBosanski
hel m
Ġpur poses
Ġcalc ulation
Ġcalc ulated
Ġmin imization
Ġbound s
ĠSil icon
ĠMoh ri
ĠBen edik
Ġvast ly
Ġimplement ations
Ġevery one
Ġaccess ed
ĠAlpha Go
Ġequ ipp
commun ication
Ġinterpre ting
Exp ensive
Exp ectation
Ġacceler ate
Ġmanip ulating
Ġnumer ic
Ġargument ative
Ġblack s
Ġrespons es
Ġrespons ibility
Ġrespons ibilities
McC orduck
Elect ric
Random ized
Vis ible
We ight
ais wal
eg ev
eg ie
ei jn
small caps
writ ers
Ġte aching
Ġsepar ated
Ġcour ts
Ġcour ier
Ġiniti ally
Ġiniti atives
Ġfit ting
Ġfam ilies
Ġbro wn
Ġbro ken
Ġband itor
urd a
ĠSc ale
ĠServ ices
ĠMethod ologies
Ġlik elihood
Ġhypot hetical
Ġproduc ers
Ġgraph ical
ape k
Ġcontr ad
ĠFran Ã§
ĠFran zen
ĠUs ers
ipp i
ipp ing
ĠCommons Wikiquote
Ġapply ing
Ġrecord ed
Ġcentral ization
Ġexplain able
Ġexplain ability
Ġestim ate
Ġestim ates
ĠEmp irical
Ġprior i
Ġprior ities
215 8
215 021056
214 140202
Ga eil
Gloss aries
Ind ex
Ind ustry
SA GE
Vari ational
×Ļ ×Ļ
Ġess ay
ato is
Ġcross es
ĠTo ols
ĠCO VID
ĠCO NTE
Ġland ing
Ġland mark
Ġland scape
Ġrepl aces
Ġrepl acement
Ġremain ed
Ġthous and
ĠPer formance
ĠPat el
ĠPat erson
ĠPat rick
unstrip NoWiki
ĠDisc ourse
ĠDisc overing
ĠDevelopment al
ĠHol y
ĠHol land
ĠHol oca
ĠLi ber
CITEREFJ umper
Ġvis ited
Ġvis ually
iff s
ĠKar en
ĠKar el
Ġemotion al
Expl oring
Ġmaterial s
Ġmaterial ism
ĠExper t
ĠExper iment
Ġseem ed
Ġhappen ing
193 6
216 52
219 6
Chat bot
Red uced
Sub fields
Str uctured
Ġign ore
ingh ini
Ġpolic ing
Ġcitiz en
Ġoff ers
Ġoff ensive
Ġfil ms
Ġdivid ing
Ġmov ed
Ġmov ement
Ġmaxim um
Ġnormal ized
Ġtoken ized
ustr ation
ĠSup erintelligence
ĠMil mo
ĠTim othy
ĠNg uy
ĠPubl ishers
ĠWol fe
Ġcomment ary
ĠGold berg
ĠElect ronic
ĠElect rical
ĠElect ronics
Ġstand ards
que z
Ġacadem ics
ĠAll en
ĠThink ing
ĠVol ume
ohr er
ierarch ical
Read View
Ġregard ed
Ġexperi ences
ĠRepresent ation
Ġbuild s
Decision al
ĠÂ§ &#
Ġutil ization
Ġutil ize
ĠWatson x
Ele venLab
GP U
Num erical
Op timization
fellow Bengio
tz akis
ÖĢ Õ§Õ¶
ÙĬ ØºÛĩ
Ġ\ {\
Ġge ometry
Ġele ments
Ġele gant
erb ayev
edd y
Ġsatell ites
Ġposs ess
Ġposs ibly
Ġcivil izations
Ġinvesti gate
Ġinvesti gation
Ġoffer ed
Ġoffer ing
ĠAss essment
Ġded uctions
Ġmet aphor
ĠSci entist
amm ond
ĠMulti linear
ĠTom Ã¡Å¡
ĠCri tical
Ġgovern ed
ĠJack son
ĠDi urna
ĠWrit er
Ġconvers ation
Ġconvers ion
Ġconvers ations
ĠGaz a
CITEREFAl an
CITEREFAl paydin
Ġvers us
154 18
Ġappear ed
Ġappear ances
Ġdisput ed
ĠVal entin
Ġrout in
298 50
Ġcollect ing
Ġassess ments
Ġprem ise
Ġparticip ation
Ġparticip ate
ĠCentral ÐĳÑĬÐ»Ð³Ð°ÑĢÑģÐºÐ¸
Ġadvant ages
Ġfeel ings
ĠWilliam s
Differ ential
Ġvehic le
Acc uracy
Do uble
EC RAM
El on
Fr ame
Government s
Harv txt
Mod elling
Per ception
Per ipher
Press e
Research ers
Take over
Under ground
Under standing
Wh isper
def inition
hn ke
sl ime
ser if
sch affe
Ð· ÑĩÐ°
Ñĭ ÑĢÐ³Ñĭ
á± Łá±
áŀ ¶
ãĥ ¼
ãĥ ĩ
Ġpati ent
Ġcur ated
Ġinher ent
Ġmor ality
Ġmiss ion
Ġ193 7
ĠMel anie
ĠRob ust
ĠRoad s
Ġliter ally
Ġreve als
ĠPhil ipp
ĠBi ology
Ġgather ed
ĠJosh i
103 140
1017 9
Ġforecast s
ĠInt ers
ĠFlor ida
ĠEr l
ĠEr ror
Ġprim arily
Ġacqu ire
Ġaccom modate
Ġaggreg ated
Ġcompress or
Ġcompress ed
Ġdiscre te
Ġdiscre pan
Ġshif ted
Alpha Zero
Alpha Fold
Ġquan titative
Ġobt ained
Ġsimpl est
Ġsimpl ification
Ġsimpl ifies
ĠZh ou
ĠZh ouy
ĠConvers ely
ĠAsh ish
Ġcapt ured
Ġterrit ory
author itarian
Ġincorpor ated
Ġcheck er
Ġlisten ers
== =
Ass yrian
Ass essing
Att ribution
Gro k
High ly
High way
RA G
Sol id
Sol omonoff
Synt ax
Tim eline
uy u
Ã¨ is
Ð¹ ÐłÑĥÑģ
ÑĮ ÑģÐºÑĭ
à· ĥ
à· Ħà¶
à· Ĵà¶
àº ¥àº
ãĤ ¿
aris ch
anchor Encode
Ġtheor ems
Ġsym posium
Ġsix ty
Ġcategor ization
Ġcategor izing
ĠAc oustic
ĠAc ademy
Ġbreak s
Ġbreak through
Ġbench marks
Ġwarn s
empor al
ĠRel ations
ĠRel atedly
ĠIra qi
Ġhold out
Ġhierarch y
ĠPap ers
ĠBl ue
ĠJul ius
Ġconvey ed
ĠEle anor
CITEREFT aylor
CITEREFZ hang
CITEREFZ haoLovreglio
Ġvulner able
Ġtra uma
ĠKl iger
ĠKl atzky
ĠKen ya
Ġpred efined
Ġactiv ated
173 15
very thing
Ġadap tive
Ġadap ted
Ġeng age
Ġeng agement
Ġplatform s
ĠProfession al
Ġsubfield s
Ġopportun ities
Ġemo tive
ĠAnn ual
Requ irements
Ġexpect ation
Ġschedul er
Ġschedul ed
Ġschedul ing
ĠPrac tition
Ġdiscover ed
Ġcolon ization
Ġdistingu ishing
Ġdistingu ishes
Ġmanif est
ĠAndre a
ĠAndre j
Auto GPT
Ġsurpass ed
ĠAdvan ced
conn ectionism
Ġmonit oring
ĠImage Net
Relationship s
Ġverb al
Ġarrang ement
aÃ± e
×Ļ× ©ç²µèªŀ
Ġbeliev ed
represent ing
Ø§ÙĦØ ¯Ø§Ø±Ø
324 24
AA AI
Bro oks
Emer ging
Emer gent
Gen res
Har ari
Har mon
IG M
Me aning
Mal agasy
Pre cursors
Pre processor
Post al
Res idual
So Cs
Soft max
UC CA
Ve o
Val entin
kh shik
la ab
wa hiliK
yb org
Ã¡ t
Ġz ip
Ġz ero
Ġtal es
Ġtal ks
Ġtim ely
het ti
het or
Ġpuzz les
Ġpenal ties
Ġcod ing
Ġcod ified
Ġcov ers
Ġclear ly
Ġmed ium
Ġmed ieval
Ġbure aus
Ġbran ches
Ġnoun s
asc ist
Ġ185 1
Ġ185 7
ĠSH RDL
ĠST AT
ĠShe ep
ĠSyn thetic
ĠMu igwith
ĠMer c
Ġremov ed
Ġremov ing
Ġhund red
ĠPerspec tive
ĠBar bara
Ġgor illa
Ġrational e
1099 4
ĠDel hi
aint ings
ĠHas tie
ĠHong lak
ĠGovern ance
ĠFurther more
Ġanti quity
Ġanti biotics
Ġexam ine
Ġexam ination
Ġexec ut
udd y
Ġtrend line
ĠUp per
ĠKri tikos
ĠKri zhev
Ġcompens ation
Ġcompens ate
Ġdisag ree
Ġdisag reement
Ġdiscipl ine
Ġjud gments
Ġsold iers
Ġoutper form
ĠReich ley
Ġemphas is
Ġemphas ized
Ġquot ations
384 82
Ġscruff y
ĠExpl ained
Ġphotograph s
Conc urrent
Conc urrency
Class ification
Class ifiers
Ġpartners hip
Ġfactor ization
Ġperceptr ons
ĠPlatform s
ĠTransl ate
ĠOrgan izations
ĠOrgan izational
Ġentertain ing
Ġextract ed
Evans Pritzel
Ġreflect s
ĠĠĠĠĠĠĠĠĠĠĠĠĠĠĠĠĠĠĠĠĠĠĠĠĠĠĠĠĠĠĠĠĠĠĠĠĠĠĠĠĠĠĠĠĠĠĠĠ ĠĠĠĠĠĠĠĠ
ĠĠĠĠĠĠĠĠĠĠĠĠĠĠĠĠĠĠĠĠĠĠĠĠĠĠĠĠĠĠĠĠĠĠĠĠĠĠĠĠĠĠĠĠĠĠĠĠ ĠĠĠĠĠĠĠĠĠĠĠĠĠĠĠ
Visual ization
Ġinitial ization
Ġschol ars
Ġschol arly
Ġdocument ed
Ġdocument ation
Ġdestro ying
Ġmerch ant
Ġweapon ized
Ġcoffee house
485 85
467 3
Ac cessibility
Ac tivation
Ag ents
Augment ed
Augment ation
CV PR
Cac he
Cac hed
Cell ular
Cyber war
GO s
Hy perparameter
Hy brid
Hor se
Oper ations
Oper ating
Psych ological
Sha fer
Sfn p
Tor ch
fb fb
iat ry
kol ie
math rm
oos efzadeh
tter lo
zd il
zd ok
}) }\
´Õ ĢÕ¡ÕµÕ¥ÖĢÕ¥Õ¶à¤¹
Ġer uption
Ġir rele
Ġep istemology
eron au
hev iks
Ġsus cepti
Ġsuperv ision
Ġsuperv isory
lection al
Ġpun ctuation
Ġcriter ion
Ġcriter ia
icard o
icard Pi
Ġdict um
Ġdraw s
Ġdraw back
Ġmist akes
Ġmoment ous
Ġwor ry
Ġnav ig
ĠSlov ic
ĠMod ule
ĠMich igan
ĠMathema tics
ĠMathema tical
ĠRed uction
ĠRem ake
ĠRem oving
ĠCons ider
ĠCran e
ĠCran field
ĠCITEREF Crevier
ĠCITEREF Buchanan
ĠIss ues
Ġrev ived
Ġrepe ated
Ġrepe atedly
riy Ã²l
1000 01
ĠDevelop ing
ĠDomin ate
ĠWin ston
ĠWin ograd
Ġconfl icting
Ġcomm and
Ġcommit ments
ĠHo boken
ĠHard t
ĠLamp e
ĠLamp inen
ĠArg ument
ĠFl axman
ĠFunction al
ĠEf ficiency
Ġaltern atives
Ġalloc ation
CITEREFEd wards
Ġiter ative
Ġiter atively
Ġresol ving
Ġclar ification
Ġdisplay ed
ĠVen ice
Ġjus tice
Ġadjust able
Ġdecre ases
908 97
Ġemp ires
Ġdiffer enti
Ġexpand ing
Ġ103 140
Ġcapac ity
Ġassign ing
Anim at
Anim ation
Ġdece ive
Constr uctive
Ġsuppl ies
CITEREFSch midhuber
Ġsurv ive
ĠAdap tation
CITEREFBro oks
Ġcoord ination
interest ing
ĠSimiÐłÑĥÑģ ÑģÐºÐ¸Ð¹
ĠSimiÐłÑĥÑģ Ð¸Ð½
Ġgrad uates
Predic ting
CITEREFGold berg
CITEREFGood fellowBengio
ĠImp act
à¬Ĩ OÊ»zbekcha
ungar ella
Interpre ter
Interpre tive
Ġelab orate
Ġelimin ated
CITEREFPooleMackworth Goebel
âµľ â´°âµ
Ġintract able
Ġsmart phones
Ġhousehold s
æĹ¥æľ¬èªŀ Norsk
Afrikaans Ø§ÙĦØ¹Ø±Ø¨ÙĬØ©
CatalÃł ÄĮeÅ¡tinaCymraegDansk
CatalÃł Ð§Ó
Galego íķľêµŃìĸ
gÃº ÐĳÐµÐ»Ð°ÑĢÑĥÑģÐºÐ°ÑıÐĳÐµÐ»Ð°ÑĢÑĥÑģÐºÐ°Ñı
gÃº ÐĳÐ°ÑĪ
ç²µèªŀ ä¸Ńæĸĩ
ĠViá»ĩt VÃ
Ġinterconnected ness
ĠIndonesia IsiZuluÃįslenskaItaliano×¢×ĳ×¨×Ļ×ª
à¹Ħà¸Ĺà¸¢ Ð¢
à¹Ħà¸Ĺà¸¢ TÃ¼rkÃ§eÐ£ÐºÑĢÐ°ÑĹÐ½ÑģÑĮÐºÐ°
íķľêµŃìĸ ´Haus
ĠÑģÑĢÐ¿ÑģÐºÐ¾ÑħÑĢÐ²Ð°ÑĤÑģÐºÐ¸ SuomiSvenskaTagalogà®¤à®®
550 4
Bo ost
Batch norm
Car bon
Cri ticism
Chem istry
Det ermin
Dem is
Face book
Framework s
Gold man
Ma ier
Moh amed
Prom pt
Rep resent
Rich ard
SV D
Sit uation
VA E
Vi T
Vil enchik
cu oglu
fel d
syn uclein
saur us
Ùħ ØµØ±
ĠÄĮ apek
erl ag
Ġaf ternoon
estim ated
isk an
Ġson ar
Ġster eot
atast rophe
Ġpe oples
Ġpers ist
Ġpix el
chat bot
Ġinf lectional
ĠAgr awal
ĠAleks ander
Ġdile mma
Ġmo tiv
ĠSach s
ĠSens ors
ĠSynt hesis
ĠShel ley
ĠSIG MOD
ĠMas ai
ĠMary land
ĠTu omas
ĠTian anmen
ĠTool kit
ĠReb ellion
ĠCop ilot
ĠCirc uits
ĠCorpor ation
Ġlat est
Ġlap se
Ġrevol utions
Ġhack er
ĠPort als
unt anathan
odec ki
owe is
owl s
ĠBac on
ĠBack doors
ĠBurk ov
Ġrais ing
ĠJo anna
ĠJer ome
ĠDist elrath
ĠDeb ater
ĠDiagnos tics
ĠInform atics
ĠIntr actability
ĠIntegr ation
ĠWid row
ĠHale em
ĠGO V
ĠGloss aries
ĠLiter ature
ĠFair ness
ĠFeder ation
ĠFeed forward
ĠEX TRA
Ġstrik e
Ġexha ustive
ĠOver fitting
ĠUl timate
ĠStar Craft
ĠKam akura
ĠKurd i
ĠChurch land
Ġimpre cise
Ġevol ved
Ġkilomet ers
Ġunc onscious
Ġclaus es
Architect ures
2391 9
ĠViet nam
ĠViol ence
afi Ã¡t
Ġreli ably
Ġconsol id
Ġinteract ing
Ġempir icism
Ġaccum ulated
Ġoverwhel mingly
ĠPres ident
ĠPrinci ples
Ġincrement ally
Ġdiscour aged
Ġexplo it
Ġcollab oration
CITEREFSim onite
CITEREFSun ZhaoLovreglio
Shqip Simple
phof en
ĠXia oh
Ġbuz z
Implement ationsAudio
CITEREFHar ari
Ġprofess or
ĠRegul atory
ĠRecommend ations
ĠImpro ve
ĠBegin nings
Ġinstantane ous
Andre j
Ġfacult y
Empir ical
Ġcrimin als
Ġchatter bots
Ġminor ity
ĠMoham med
Ġequival ent
Behavior ism
Ġhypothes es
CITEREFJordan Mitchell
Ġignor ance
Ġencod ing
Ġbelong s
Ø§Ø±Ø¯ÙĪ Ø¦Ûĩ
Ġinvestig ators
Ġfulf ill
Ġdestr uction
ĠLLaM A
Ġversati le
Ġconstitu ency
Ġtradition ally
Ġaccompl ish
Ġillustr ators
Ġpredomin ant
978026 2018258
Ġsubsidi aries
Ġlegi timate
Meteor ologist
Sloven Å¡Äįina
Ġsubstanti ally
Ù¾ÚļØªÙĪP atois
åĲ´è¯Ń ×Ļ×Ļ
Ġtrium virate
Ġsudden ly
Ġcandid ates
Ġconfigur ation
Ġvocab ulary
DeutschEestiÎķÎ»Î»Î·Î½Î¹ÎºÎ¬EspaÃ±olEsperanto EuskaraÙģØ§Ø±Ø³ÛĮFranÃ§ais
PolskiPortuguÃªsQaraqalpaqsha RomÃ¢nÄĥRuna
Ù¾ÙĨØ¬Ø§Ø¨ÛĮ Ù¾ÚļØªÙĪPatois
038 19
790 395
787 3
837 1605
Are as
Aur ora
Ast urian
BL OOM
Bl ack
Bern ard
Blog ger
Cor eference
Cast leber
Cry ptography
Ded uctive
Dom ain
Depend ability
Domin ance
Ech o
Far land
Fol k
Femin ist
Fidel ity
Gon zo
God father
Gran ite
Greg ory
Gael g
Giann ini
HW R
Hail uo
Ilo kano
Ill ustration
Imit ation
ICL R
ICE CS
Kism et
Lo eb
Lot fi
Lud wig
Marg aret
Middle ware
Normal ization
Naj afabadi
Nathan iel
OO T
Pa LM
Pan Gu
Pund it
PCF G
Ris ks
Rud olf
Rober t
Sun o
Side bar
Serv ice
Sto chastic
Sexual ity
Sigm oid
Tax is
Termin ology
Ud io
Wave Net
Writ ing
aÕ ĢÕ¡ÕµÕ¥ÖĢÕ¥Õ¶à¤¹
aen lein
aik untanathan
aure en
dif ficulti
data Wrapper
guid ed
gbag a
hol m
hap ing
jews ka
kop f
kenn iemi
kme kci
mu haideb
mak ers
nugg ets
oel kopf
part y
rz ywin
rze jewska
sur ka
sip ras
uAv aÃ±e
vern izzi
wass er
wyn ne
zap ouragh
§Lat ina
°Õ¡ÕµÕ¥ ÖĢÕ§Õ¶
²à´ ¯
²àº §Latina
³ble wski
¸à¦ ®
¿Õ¡Õ °Õ¡ÕµÕ¥ÖĢÕ§Õ¶
Ðļ ÑĭÑĢÐ³Ñĭ
ÑĪ Ð°Kis
Òļ Ð°Ð·
Ò¡Ð¾ ÑĢÑĤ
Ô±ÖĢÕ¥ ÖĤ
Õ´Õ ¿Õ¡Õ°Õ¡ÕµÕ¥ÖĢÕ§Õ¶
×ĵ ×Ļ×©ç²µèªŀ
ÚĮ ÙĬ
áº½ AzÉĻrbaycancaØªÛĨØ±Ú©Ø¬Ùĩà¦¬
Ġedic ts
Ġroman tic
Ġicon ic
ĳÐ²Ð°ÑĪ Ð»Ð°
inator ial
erre ira
erov itch
Ġtac tile
Ġaston ishing
Ġawar eness
orich anaz
arev ic
araj u
algorithm ic
Ġsid es
Ġspars ely
Ġspr inkler
Ġscript ed
Ġsoph isticated
atanio tis
2078 1999
Ġpamp h
Ġpand em
Ġpack ages
Ġpip elines
Ġpok er
Ġpne umonia
Ġpyram id
itual s
Ġcam eras
ĠAff airs
Ġdedic ated
Ġdail ies
Ġdram atically
Ġdiam ond
Ġdiag nose
Ġduk es
Ġmos ques
Ġmorp hemes
Ġmole c
Ġbord ers
Ġbene ficial
Ġbacter ia
Ġbatter y
Ġwik idata
Ġwarr ant
igue iredo
aschaf ilm
emont Ã¨is
Ġtoler ant
ĠSlo an
ĠSaud i
ĠSatell ite
amkis soon
ĠMot ti
ĠMate usz
ĠTra uma
ĠTrib une
ĠRug by
ĠRele ases
ĠRhiann on
ĠCost a
ĠCÃ© dric
ĠCorre ction
Ġload ed
Ġloos ely
Ġreac hed
Ġrepos itory
ullet in
Ġhub s
Ġhors es
Ġharv nb
ivaj i
ĠProm inent
ĠPant heon
ĠPall ade
ĠPric e
ĠPuzz le
ĠPitch Book
ĠPortug uese
ĠPasc al
ĠPiat etsky
ĠPaol o
uniy oshi
1908 30
avuk cuoglu
arnia k
ĠBia fra
ĠBatter ies
ĠBulg arian
Ġgramm ars
Ġgwiy annen
ĠJens en
ĠJaw bone
ĠDian a
ĠDatab ases
Ġnewsshe ets
ĠIntell isemantic
ĠWend ell
ĠWald emar
ĠWrÃ ³blewski
Ġconcent rated
Ġconclus ions
Ġconfr ont
ĠHels inki
ĠHypot hetical
ĠHipp ocratic
ĠHusse in
ĠGree k
ĠGross berg
ĠLeb anon
ĠLarg est
ĠLCC N
ĠFred kin
ĠFrequ ency
ĠEug ene
ĠEmer ging
Ġanym ore
Ġanxi ety
overt y
Ġwithdraw al
Ġ259 2000
understand able
qudai hi
ĠOft en
ĠOtt oman
ĠOkl ahoma
akkol a
clif fe
ugliel mo
ĠUtop ia
ĠUbit us
ĠUkra ine
ĠUygh urche
ĠUlyss es
ansboth am
ĠStart ing
ĠSturg is
ĠKeep er
ĠKai yuan
ĠKaspar ov
ĠChann el
ernock Ã½
Ġnego ti
Ġacknow ledged
Ġacycl ic
ucharm e
Ġaggress ively
Ġunpre cedented
Ġunsol ved
Ġunfam iliar
Archae ology
Investi gative
Infot ainment
ysÅĤ aw
Ġdisambig uate
2334 88
afou tis
Ġjurisdic tions
2407 3
2618524 3
Ġadjus ts
Ġadequ ate
Ġperman ent
ariampuz ha
asekh schaffe
Ġsubsequ ent
ĠReason ing
Ġrecurs ion
3044 448
Explain ability
Ġunderpinn ings
Ġindirect ly
Ġindistingu ishable
Ġhegem ony
Ġnotice able
Ġnouv elles
iegelh alter
Ġsimultane ously
Ð°ÒĽ ÑĪÐ°Kis
ĠZeal and
ĠZakar ia
etsanop oulos
ĠPrinc eton
ĠPrzem ysÅĤaw
6772 18
342658 44
shadte hrani
Ġmanuf act
Ġprecis ely
ĠExhib ition
Truec asing
Ġtopony ms
ĠSchÃ¼ tze
Conjug ate
Ġcorrel ate
Ġcoroll ary
Churnal ism
à¦ħà¦ ¸à¦®
DeepSee k
Lehn ert
chegian i
Ø±ÚĨ Ûķ
autoconfir med
ĠEnglishØ³ÙĨ ÚĮÙĬ
itzgib bon
ĠEdinburg h
ĠImieliÅĦ ski
Ġincorre ct
ĠHeidel berg
Ġsensitiv ity
Advoc acy
Ð¾Ò·Ð¸ ÐºÓ£
CITEREFWilliam s
Ġpractition er
Rectif ier
ĠColumb ia
ĠGravest eijn
Ġguidel ines
Physical ism
Photog rapher
ochizuk i
Multithread ing
à´®à´ ²à´¯
ĠBenedik t
Ġequipp ed
Gaeil ge
ĠCONTE NT
ĠHoloca ust
CITEREFJumper EvansPritzel
ĠNguy en
ElevenLab s
ÙĬØºÛĩ Ø±ÚĨÛķ
Peripher al
ĠZhouy uan
Ð¹ÐłÑĥÑģ ÑģÐºÐ¸Ð¹
ÑĮÑģÐºÑĭ Ð¹ÐłÑĥÑģÑģÐºÐ¸Ð¹
à·Ħà¶ ½Simple
à·Ĵà¶ Ĥ
àº¥àº ²àº§Latina
CITEREFZhaoLovreglio Nilsson
ĠPractition ers
Ø§ÙĦØ¯Ø§Ø±Ø ¬Ø©
ĠSHRDL U
ĠMuigwith ania
ĠKrizhev sky
Cyberwar fare
Ġirrele vant
icardPi emontÃ¨is
ĠSimiÐłÑĥÑģÐ¸Ð½ ÑĮÑģÐºÑĭÐ¹ÐłÑĥÑģÑģÐºÐ¸Ð¹
CITEREFGoodfellowBengio Courville
CatalÃłÐ§Ó ĳÐ²Ð°ÑĪÐ»Ð°
GalegoíķľêµŃìĸ ´ÕĢÕ¡ÕµÕ¥ÖĢÕ¥Õ¶à¤¹
gÃºÐĳÐ°ÑĪ Ò¡Ð¾ÑĢÑĤ
ĠViá»ĩtVÃ µro
à¹Ħà¸Ĺà¸¢Ð¢ Ð¾Ò·Ð¸ÐºÓ£
íķľêµŃìĸ´Haus aÕĢÕ¡ÕµÕ¥ÖĢÕ¥Õ¶à¤¹
ÙħØµØ± Ùī
CITEREFSunZhaoLovreglio Kuligowski
Ø§Ø±Ø¯ÙĪØ¦Ûĩ ÙĬØºÛĩØ±ÚĨÛķ
Asturian uAvaÃ±e
Castleber ry
Ilokano Bahasa
difficulti es
rzywin ski
zapouragh dam
ÐļÑĭÑĢÐ³Ñĭ Ð·ÑĩÐ°
ÒļÐ°Ð· Ð°ÒĽÑĪÐ°Kis
Ô±ÖĢÕ¥ÖĤ Õ´Õ¿Õ¡Õ°Õ¡ÕµÕ¥ÖĢÕ§Õ¶
×ĵ×Ļ×©ç²µèªŀ Zaz
gÃºÐĳÐ°ÑĪÒ¡Ð¾ÑĢÑĤ ÑģÐ°
ÒļÐ°Ð·Ð°ÒĽÑĪÐ°Kis wahiliK
! "
! .
! ':
" -
" );
" âĢĶ
% "
% ,
% .
% }}@
' "
' (
' ;
' ?
' m
' .&#
' ;&#
' âĢĶ
' ll
' ."&#
' ?"
( (
( \
) ?".
) ||
) _{
* ):
+ /
. {
/ ]
0 10
0 15
0 25
0 27
0 86
0 22
0 36
0 50
0 40
0 29
0 28
0 46
0 42
0 107
0 1991
0 198
0 142
0 137
0 269
0 279
0 270
0 379
0 4650
0 974
0 32118
1 202
2 201
2 2006
2 140
2 107
2 109
2 207
2 204
2 254
2 256
3 26
3 29
3 28
3 136
3 00000
3 101
3 254
4 93
4 91
4 19
4 10
4 11
4 12
4 18
4 25
4 80
4 22
4 30
4 36
4 38
4 29
4 59
4 45
4 46
4 165
4 356
4 304
4 230
4 299
5 20
5 91
5 16
5 10
5 18
5 88
5 86
5 33
5 40
5 60
5 28
5 82
5 75
5 42
5 000
5 255
5 159
5 134
5 234
5 209
5 867
5 399
5 876
6 00
6 97
6 15
6 17
6 25
6 36
6 67
6 49
6 32
6 0000
6 229
6 337
6 395
6 248
6 272
6 334
6 24273
6 90897
7 10
7 00
7 80
7 36
7 40
7 85
7 60
7 59
7 28
7 37
7 46
7 08
7 89
7 02
7 49
7 75
7 07
7 47
7 92
7 1950
7 112
7 294
7 668
7 910
7 656
8 160
8 13
8 25
8 978
8 27
8 33
8 22
8 45
8 34
8 46
8 35
8 48
8 153
8 362
8 465
8 101
8 138
8 24073
9 25
9 88
9 27
9 86
9 85
9 60
9 82
9 89
9 57
9 48
9 233
9 292
; "
; .
; ).
; ::
; ...
= -
= {
? ".&#
? '".
? '"
A D
A X
A le
A gr
A NN
A CM
A ero
A RT
A leer
A very
A yalon
A UC
A ustin
A LPAC
A gricultural
A FP
A eros
A lyea
A velar
A khshik
A eronau
B B
B F
B I
B Y
B n
B p
B u
B el
B et
B as
B ot
B ach
B ag
B all
B io
B ates
B ra
B ayes
B uck
B acter
B oyd
B ooks
B urg
B eta
B loomberg
B aker
B akker
B RAM
B ennett
B ishop
B uilding
B agging
B ailey
B anking
B imbo
B uiten
B ushwick
B oston
B ertini
B oyle
B ajpai
B urda
B ohrer
B ulletin
C H
C T
C U
C Y
C y
C ro
C am
C ul
C arn
C um
C ov
C are
C ong
C eb
C ons
C ann
C ha
C ase
C ond
C aus
C hip
C ran
C lear
C ols
C han
C ough
C irc
C row
C uck
C ES
C yberne
C CA
C uk
C alc
C rop
C RC
C orpus
C RA
C NA
C orre
C ova
C ouncil
C PUs
C redit
C ybers
C urric
C affe
C ountries
C iresan
C ybenko
C BO
C bign
C ruz
C abral
C logher
C reswell
C arrasco
C yborg
C atastrophe
C owls
C BRAM
D I
D R
D h
D r
D ro
D ev
D og
D ual
D ance
D eng
D ays
D omes
D BS
D artmouth
D ayan
D ensity
D ualism
D NA
D asgupta
D ohan
D ubious
D irectorate
D ockrill
D ialogue
D ickson
D avis
D erek
D nuggets
D ucharme
D Bp
E D
E L
E M
E N
E P
E T
E U
E st
E ric
E SN
E DA
E rich
E fn
E very
E ffective
E yes
E kins
E gypt
E ye
E cology
E arnings
E kmekci
F É
F an
F ur
F ir
F ord
F all
F ost
F ind
F eb
F AI
F irst
F ound
F ood
F als
F ry
F iction
F rey
F arm
F acing
F owler
F RAM
F eed
F AN
F rontier
F leer
F osu
F actor
F PR
F aith
F igure
F earn
F emale
F LAC
F NR
F enton
F odor
F erreira
F itzgibbon
G A
G B
G M
G Ä
G ar
G re
G le
G il
G ary
G ue
G oh
G erm
G ert
G overn
G yn
G BM
G ung
G uzz
G offrey
G eni
G eyer
G etting
G Ãł
G ott
G upta
G RA
G erbert
G oswami
G ibbs
G unes
G iraud
G laab
G Boost
G wynne
G uglielmo
H D
H as
H ex
H un
H ub
H and
H ug
H ans
H ere
H ill
H olog
H uss
H ern
H ome
H eb
H ugh
H yp
H ale
H ey
H achten
H ope
H enry
H oney
H alper
H ampton
H augeland
H ills
H ugging
H sun
H ilary
H osoda
H enderson
H oldsworth
H ierarchical
H aenlein
I A
I I
I RE
I gor
I DF
I sh
I PT
I CS
I ST
I Robot
I EA
I ON
I psos
I phofen
I EP
J R
J ac
J ess
J ay
J ud
J ak
J ug
J enn
J ML
J umper
J eopardy
J urafsky
J iang
J uerg
J asrotia
J ulius
J avaid
K I
K N
K X
K e
K or
K en
K im
K ay
K os
K ub
K all
K aw
K ey
K its
K ai
K ais
K atz
K ernel
K urzweil
K iller
K UK
K eet
K issinger
K eras
K uperman
K obielus
K oza
K hosla
K asperowicz
K essler
K iron
K enna
K uniyoshi
K avukcuoglu
K rzywinski
L U
L a
L om
L et
L ess
L av
L ang
L ep
L and
L ight
L ef
L oc
L ive
L ink
L ever
L az
L amb
L uger
L CS
L DA
L ohr
L AN
L etting
L iu
L arry
L HF
L OS
L angley
L inguistic
L ighthill
L ecture
L yakh
L enat
L isp
L askowski
L ipartito
L Ã«
L lemma
L entzos
L inear
L ardner
L ennox
L ungarella
M F
M R
M X
M o
M in
M el
M CI
M ak
M ark
M ann
M ee
M iti
M ax
M ating
M aking
M ining
M ah
M achines
M IT
M icro
M aster
M ater
M otion
M aker
M oring
M arian
M RAM
M aur
M echan
M AT
M IS
M Ã¼ller
M ultimodal
M oon
M iller
M iner
M idura
M ashaghi
M istral
M iddendorf
M Ã¶ller
M ahdawi
M orgenstern
M DP
M nih
M rs
M erkle
M oravec
M ilner
M antovani
M aley
M armouyet
M ozur
M aschafilm
N D
N g
N ing
N ec
N ow
N ik
N ear
N ord
N ative
N orm
N ond
N orth
N BC
N uclear
N AS
N RC
N RAM
N atal
N ils
N aq
N iu
N ano
N vidia
N eats
N arayanan
N LG
N aive
N azi
N aÃ¯ve
N icas
N irmal
N ivedha
N ambiar
N GOs
N LU
N MF
O P
O f
O t
O ur
O rom
O ran
O PT
O ES
O xford
O RT
O da
O STA
O mohundro
O sborne
O udeyer
O sta
O soba
O swald
O tterlo
O gbaga
P D
P H
P L
P p
P y
P et
P ach
P op
P ain
P ort
P ont
P ans
P ark
P ier
P ym
P ron
P aster
P ope
P oll
P erse
P RAM
P repr
P hilosophical
P AC
P rem
P edro
P oria
P inker
P hilosopher
P ennachin
P GD
P NG
P utnam
P entland
P agallo
P owell
P seud
P errin
P atterson
P feifer
P icardPiemontÃ¨is
P NAS
Q N
Q ual
Q Ä±
R N
R Y
R p
R v
R en
R an
R us
R ad
R ac
R ain
R ight
R ip
R oss
R elev
R acter
R estric
R CA
R ussian
R acist
R RAM
R US
R AN
R apid
R VM
R outledge
R oger
R ationalism
R GI
R oche
R ampton
R oberts
R amezanpour
R awlinson
R othman
R ostamizadeh
R FID
R inik
R atner
R etail
R obitzski
R oux
R ennie
R hetor
R icardo
R OOT
R ituals
R amkissoon
R OSTA
S C
S D
S E
S F
S J
S L
S en
S he
S an
S ing
S et
S il
S av
S pl
S und
S aw
S yn
S ym
S ample
S ah
S pecially
S outh
S ource
S ister
S pinn
S AM
S aul
S AS
S erge
S ett
S iri
S almon
S ingh
S erb
S utskever
S OM
S ON
S ainato
S DL
S moliar
S erenko
S rebro
S ulik
S abbagh
S antos
S proat
S aleh
S hane
S uffering
S porns
S ivaji
S ORT
S RN
T D
T F
T K
T R
T T
T e
T w
T ed
T an
T re
T out
T ab
T est
T ies
T ele
T ian
T ok
T erm
T hat
T yp
T err
T elegraph
T own
T eler
T alc
T ao
T urk
T PR
T utorial
T aiwan
T versky
T argeting
T orniai
T alwalkar
T ibshirani
T NR
T yler
T ulpan
T ASS
T emporal
T sipras
T SORT
U N
U til
U ltr
U GI
U AL
U DE
U ndetectable
U lla
U BY
U DI
V er
V or
V en
V ol
V ital
V ying
V Ms
V oice
V Ã¨
V anchor
V inge
V inyals
V ernor
V erma
V arma
V idya
V apnik
V irtually
V erlag
V aikuntanathan
W ol
W ell
W ang
W ant
W etw
W ong
W eng
W ason
W ade
W ise
W aling
W ashington
W eekly
W olf
W enzlhuemer
W itten
W irtz
W eyerer
W addell
W esley
W arnings
W allach
W iering
W eyrich
W SD
X u
X AI
X ML
X hos
X GBoost
Y u
Y ang
Y our
Y ask
Y oore
Y udkowsky
Y adav
Z h
Z om
Z han
Z hao
Z adeh
Z ierahn
Z amir
Z huang
] ,
] ".
^ {
a al
a ed
a es
a ig
a ine
a ay
a ip
a ught
a erial
a head
a ubhaar
a RAM
a que
a omi
a ats
a à°¤
a plan
a SuomiSvenskaTagalogà®¤à®®
a quin
a Cy
b b
b f
b v
b Ã
b el
b us
b il
b ul
b ell
b ow
b ay
b ach
b op
b age
b and
b ations
b ure
b able
b uch
b ient
b eb
b af
b ility
b low
b rev
b roadcast
b han
b ury
b au
b ett
b enef
b loc
b Ã¨
b reaking
b readth
b alan
b inatorial
c d
c v
c or
c ut
c at
c le
c us
c ers
c ine
c ow
c og
c os
c our
c end
c ard
c ks
c art
c ase
c ock
c ross
c ze
c orpor
c ybernetics
c bs
c risis
c onsciousness
c ornell
c fc
c urate
c opes
d h
d s
d u
d al
d an
d it
d ig
d em
d ow
d ated
d ip
d ele
d oc
d ys
d evelop
d ire
d ale
d itive
d ivid
d ley
d Ã¼
d evelopment
d esign
d rop
d ney
d iagnos
d omin
d otes
d sour
d umb
d entification
d well
d igit
d ensity
d orf
d igious
d ometry
d ubious
d Magyar
d atasets
d blp
d nuggets
e u
e an
e it
e as
e em
e us
e am
e ev
e ist
e tic
e ir
e ys
e ased
e yp
e ka
e hic
e aven
e asy
e tization
f g
f on
f re
f ers
f pl
f ast
f oc
f eat
f ire
f ee
f ied
f uture
f res
f acts
f ired
f emin
f aces
f aster
f ried
f uzzy
f ilm
f reely
f emale
f oot
f sens
f olding
f ascist
g a
g g
g u
g le
g ith
g ated
g ave
g ement
g aw
g ating
g oo
g als
g hen
g nos
g eration
g ger
g cr
g igan
h l
h o
h w
h ar
h al
h ing
h as
h ars
h ul
h ri
h ab
h um
h ak
h ind
h istory
h ension
h ou
h ury
h ner
h ash
h arth
h mann
h ierarch
h amm
h istorical
h Mag
h aron
h anna
h asi
h bv
i en
i ation
i ad
i av
i ate
i ations
i up
i ech
i ener
i oc
i be
i ability
i han
i books
i Ã¨
i FranÃ§ais
i Feliciantonio
i Goh
i Tian
j p
j am
j ad
j ot
j ay
j ia
j ud
j ak
j pr
j any
j oy
j unction
j air
j olf
j mp
j ban
j mc
j dan
j ean
k n
k w
k ar
k et
k ur
k ew
k ab
k ind
k ib
k Ã¼
k Å©
k dnuggets
l Å
l on
l le
l iv
l ate
l uc
l ich
l ong
l ss
l ib
l igh
l van
l anguages
l inguistics
l ps
l ater
l web
l iter
l ades
l umb
l aves
l icens
l ava
l ips
l atzky
l iche
l ga
m r
m t
m ut
m ation
m as
m il
m ine
m ay
m ir
m ci
m ont
m ary
m ag
m ated
m ens
m uch
m eth
m ethod
m ings
m ple
m ied
m ade
m akes
m icro
m illion
m athema
m agazine
m asters
m andy
m ouyet
m strong
m bÃ
n y
n or
n it
n ation
n om
n as
n ith
n ap
n um
n iz
n est
n ich
n ther
n ard
n oc
n ection
n ames
n ob
n gl
n ski
n arr
n lp
n eled
n ecess
n iews
n asa
n ectionism
n ervous
n aux
n meth
o i
o in
o er
o or
o av
o ir
o ans
o oft
o ax
o ody
o ols
o ices
o ise
o ints
o ins
o inc
o Tiáº¿ng
o ÄĮeÅ¡tinaCymraegDansk
o Cs
o plan
o arisch
p ed
p it
p et
p il
p ot
p ion
p and
p ect
p ack
p ress
p ati
p one
p any
p ower
p ublic
p ects
p olic
p tiv
p rev
p air
p erson
p ice
p ices
p hilosophy
p olicy
p ended
p aced
p ool
p elling
p ins
p henomen
p review
p hilosopher
p ectation
p Bank
p acific
p arities
p overty
p nas
q t
r ation
r us
r im
r ine
r ived
r form
r ack
r est
r ass
r ong
r ative
r ors
r uct
r esearch
r ically
r ather
r ving
r asing
r actions
r ench
r Ã©
r inted
r acing
r uit
r igation
r add
r imination
r anging
r Ä±
r aste
s i
s ed
s at
s om
s up
s se
s ure
s ag
s pe
s mar
s ystem
s enti
s ys
s ible
s ample
s ale
s ider
s pecial
s ements
s lower
s Information
s emantic
s mith
s cript
s ane
s burg
s cribers
s entence
s urance
s ustainable
s afe
s combe
s uitable
s embles
s onde
s uffering
s Eye
s La
t b
t d
t v
t in
t el
t ur
t ly
t og
t ay
t ure
t ech
t ele
t af
t ake
t ement
t ml
t elevision
t own
t uous
t urk
t iny
t gen
t aling
t remely
t abloid
t lers
t ailment
t wined
t oscience
t ailed
u w
u ent
u ge
u ci
u um
u ang
u ity
u tical
u ely
u ff
u ven
u ade
u han
u til
u ilt
u tives
u ards
u Pl
u EuskaraÙģØ§Ø±Ø³ÛĮ
u Zadeh
v s
v y
v age
v ide
v ak
v able
v ost
v ance
v ive
v ious
v ise
v enture
w ent
w ant
w ont
w ack
w est
w hen
w ater
w estern
w aves
w aq
w uma
w qt
x on
x ic
x iv
x ley
x ler
x icon
x jpr
y out
y ap
y um
y ang
y und
y ear
y pr
y les
y ology
y ware
y ford
y day
y lin
y thing
y Anal
y Å©
y isy
y Torch
y cle
y dh
y ghen
y lvan
z in
z ar
z he
z il
z ion
z ying
z hi
z oni
} ={
} ^{
¡ Ü
¡ â´°âµ
¡ ï¼
¢ å
¢ âµľ
£ âµ
£ ãĤ
¤ ľ
¤ ck
¤ ShqipSimple
¥ Ń
¥ á±Łá±
§ ï¼
¨ ãĥ
© ãĥĩ
© kÅ©
ª Ü
ª tement
« l
® æĹ¥æľ¬
¯ nski
° è¨
± á±
± uEuskaraÙģØ§Ø±Ø³ÛĮ
² Ø
² á±
³ n
³ ĩ
³ ãĤ¿
´ Ľ
´ CatalÃłÐ§ÓĳÐ²Ð°ÑĪÐ»Ð°
» ãĥ
¼ ģ
½ em
¿ ĳ
Ã Ĩ
Ã ªtement
Ã ±uEuskaraÙģØ§Ø±Ø³ÛĮ
Ã ³n
Ä ĵ
Ä Ĺ
Å ļ
Ì Ģ
Î ±
Ð ´CatalÃłÐ§ÓĳÐ²Ð°ÑĪÐ»Ð°
Ñ ı
Ù ı
Ù Ĳ
Ù ²Ø
Ü ªÜ
ã Ģ
ä ¼ģ
å İ
æ ¤ľ
æ ¥Ń
ç Ļ
è ´Ľ
Ġ ~
Ġ ur
Ġ \"
Ġ ub
Ġ 97
Ġ hem
Ġ 88
Ġ 86
Ġ \\
Ġ 87
Ġ ended
Ġ upload
Ġ 000
Ġ ||
Ġ âĢ¦
Ġ rich
Ġ umb
Ġ _{
Ġ Ú©
Ġ Ãł
Ġ ÑĤ
Ġ echo
Ġ à¤Ń
Ġ utter
Ġ igm
Ġ 972
Ġ 885
Ġ âµľâ´°âµ
Ġ Î±
Ħ µ
ħ Ð°
ĩ ºè
ī Ī
ī âµ
Į ãĥ
İ â´°âµ
ı â´°âµ
ı ãģ
Ĵ áĥĲáĥ
ĵ ãĥĩ
ĸ âµľ
ĺ ÙħØµØ±Ùī
ļ PicardPiemontÃ¨is
Ľ áĥĲáĥłáĥ
Ľ Ø§ÙĦØ¹Ø±Ø¨ÙĬØ©
Ľ áĪ
Ľ á±Łá±
Ŀ ÜĲ
Ł çĻ
ł áĪ
Ń gue
Ń áĬ
Ń æ¤ľ
in o
in or
in ar
in em
in us
in put
in st
in ews
in av
in ational
in to
in ding
in one
in ver
in ates
in ff
in cer
in stein
in ska
in come
in tegrated
in ograd
in oza
in ois
in aya
in buch
in may
in uum
er al
er it
er ly
er ate
er tions
er ics
er rit
er als
er land
er human
er Dynam
er ianism
er Perrin
er foot
Ġt i
Ġt it
Ġt un
Ġt ell
Ġt ight
Ġt ack
Ġt ip
Ġt ail
Ġt ier
Ġt een
Ġt we
Ġt ale
Ġt ah
Ġt iss
Ġt ears
Ġt ables
Ġt ape
Ġt ensor
Ġt ried
Ġt actic
Ġt agged
Ġt utorial
Ġt itle
Ġt atar
Ġt emporary
Ġt abloid
Ġt estim
Ġt eles
Ġt urns
Ġt emporal
Ġt aught
on n
on ews
on ations
on ant
on ard
on ology
on ym
on fl
on ions
on volution
on ishing
on fig
on Ã©s
on Bol
on Win
on oi
Ġa u
Ġa x
Ġa us
Ġa th
Ġa for
Ġa str
Ġa we
Ġa ward
Ġa aa
Ġa uf
Ġa wards
Ġa head
Ġa ins
Ġa ugment
Ġa gricultural
Ġa yisy
ti o
ti al
ti um
ti ms
ti res
ti sts
ti à¤®à¤°
ti jn
ti ques
ti dings
or u
or es
or is
or em
or ist
or ac
or ay
or ient
or io
or ax
or ating
or eland
or bs
or illas
or ously
or bit
or atories
or roni
en is
en tic
en ers
en ate
en ization
en ian
en ns
en ness
en sky
en berg
en vironment
en of
en eta
en ker
en tices
en Fleer
en bach
en fon
ar an
ar le
ar ation
ar em
ar ce
ar tic
ar ine
ar ay
ar ant
ar pe
ar end
ar io
ar ification
ar field
ar acter
ar Ã©
ar ette
ar ela
ar ify
ar Sha
he i
he id
he tic
he ast
he uristic
he eling
al m
al in
al en
al is
al im
al ia
al os
al able
al ks
al tim
al ok
al ib
al ck
al ysis
al ready
al ification
al ability
al izing
al bert
al ternative
al uate
al ilei
al bum
al iga
al har
ed e
ed on
ed ed
ed ol
ed enc
ed ance
ed back
ed ish
ed ience
ed ges
es a
es k
es ch
es per
es ha
es een
es tically
es ians
es ota
es ianism
an u
an es
an ot
an ab
an ion
an ations
an tern
an tit
an iel
an ction
an ced
an ley
an ath
an titative
an xon
an alysis
is ch
is ia
is se
is tive
is ive
is ie
is ph
is lation
is Ã©
is ky
is tically
is ades
is enst
is olated
is niews
Ġthe ft
Ġthe saur
Ġthe week
Ġthe oretic
ing ent
ing ly
ing zhe
ut ten
ut ty
ut onomous
ut tle
ut ta
ut uristic
ut she
ut inated
re ch
re put
re ce
re ew
re ated
re ast
re ts
re ets
re li
re aches
re volution
re land
re alism
re curs
re iman
re lla
re pair
re xler
Ġs am
Ġs il
Ġs ev
Ġs av
Ġs pl
Ġs qu
Ġs port
Ġs ight
Ġs ave
Ġs her
Ġs tim
Ġs ind
Ġs af
Ġs aw
Ġs urr
Ġs ale
Ġs its
Ġs au
Ġs outh
Ġs ued
Ġs ister
Ġs way
Ġs mo
Ġs ending
Ġs izes
Ġs ait
Ġs ilver
Ġs ells
Ġs izable
Ġs lav
Ġs iÃ¨
Ġs laves
Ġs incer
Ġs anction
Ġo ath
Ġo ught
Ġo mitted
Ġo verv
Ġo dometry
at ti
at ent
at om
at us
at ay
at ap
at os
at able
at ts
at ement
at ings
at ures
at rical
at ema
20 87
20 55
20 46
20 54
20 64
20 524
20 79
20 670
le b
le en
le tic
le ck
le ase
le eds
le ash
le au
le aning
le men
le wski
le ashed
le umer
Ġp et
Ġp ol
Ġp il
Ġp iv
Ġp ence
Ġp ure
Ġp erv
Ġp ark
Ġp ound
Ġp aus
Ġp oli
Ġp air
Ġp atch
Ġp orn
Ġp aid
Ġp ush
Ġp airs
Ġp estic
Ġp iles
Ġp mf
Ġp eace
Ġp ests
Ġp atches
Ġp leasure
Ġp seud
Ġp aintings
Ġp atent
it as
it ri
it ant
it ational
it ated
it ance
it ating
it ting
it ler
it ably
it tis
it Hub
it tgen
it enberg
ch ar
ch ors
ch arg
ch ives
ch let
ch urch
ch oice
ch icago
ch PolskiPortuguÃªsQaraqalpaqsha
ro e
ro tic
ro gr
ro botics
ro duction
ro bots
ro ph
ro ps
ro oted
ro gate
ro spect
ro bop
Ġc ig
Ġc ir
Ġc um
Ġc ure
Ġc ast
Ġc ave
Ġc ele
Ġc ogn
Ġc lock
Ġc ited
Ġc ash
Ġc urs
Ġc red
Ġc row
Ġc itation
Ġc ables
Ġc ooks
Ġc ites
Ġc odes
Ġc rop
Ġc overing
Ġc ampa
Ġc attle
Ġc redible
Ġc ats
Ġc ycl
Ġc lean
Ġc ardi
Ġc yborg
Ġc atastrophe
Ġc eased
Ġc alib
Ġc atap
Ġc leaning
Ġc rops
nd rom
Ġin tellig
Ġin side
Ġin com
Ġin ns
Ġin herit
Ġin sc
Ġin vention
Ġin exp
Ġin fe
Ġin tention
Ġin clus
Ġin hib
Ġin nov
Ġin timate
Ġin ception
Ġin eff
Ġin aug
Ġin access
Ġin verse
Ġin equ
Ġin ventions
Ġin ferred
Ġin flation
Ġin noc
Ġof fic
ic an
ic ing
ic ul
ic ist
ic ence
ic ial
ic ts
ic ari
ic ating
ic ists
ic ted
ic aps
ic Tversky
ic ycle
ic tims
el tic
el ve
el com
el ted
el Net
el ena
el Glaab
el Weyrich
el band
el mont
ĠA D
ĠA T
ĠA st
ĠA ud
ĠA ug
ĠA sk
ĠA mar
ĠA per
ĠA ld
ĠA ware
ĠA mit
ĠA tom
ĠA chiev
ĠA DA
ĠA tis
ĠA udio
ĠA ugment
ĠA very
ĠA GI
ĠA UC
ĠA ja
ĠA ubert
ĠA ims
ĠA gricultural
ĠA FP
ĠA RP
ĠA lyea
ĠA quin
ĠA velar
ĠA khshik
ĠA eronau
ĠA CT
ĠA MR
ĠA haron
ĠA jay
ĠA kib
ĠA ylin
Ġf ed
Ġf ig
Ġf et
Ġf ol
Ġf ell
Ġf ab
Ġf ate
Ġf ight
Ġf if
Ġf ost
Ġf oul
Ġf ire
Ġf ish
Ġf right
Ġf old
Ġf ier
Ġf ever
Ġf oss
Ġf ax
Ġf ood
Ġf ount
Ġf ade
Ġf its
Ġf akes
Ġf arm
Ġf aces
Ġf ires
Ġf ool
Ġf riend
Ġf ixed
Ġf ederated
Ġf riendly
Ġf elt
Ġf igure
Ġf reedom
Ġf emale
Ġf oot
Ġf ascist
Ġf ools
Ġf uturistic
Ġf reew
Ġd a
Ġd am
Ġd ow
Ġd ia
Ġd ate
Ġd iz
Ġd ub
Ġd ov
Ġd ans
Ġd ism
Ġd ign
Ġd ens
Ġd ele
Ġd ie
Ġd ating
Ġd ebr
Ġd ron
Ġd ix
Ġd imension
Ġd Ã©
Ġd eline
Ġd ull
Ġd aun
Ġd igit
Ġd raft
Ġd ubious
Ġd ialogue
Ġd blp
Ġd ictionaries
Ġm us
Ġm il
Ġm ot
Ġm and
Ġm yst
Ġm ult
Ġm eat
Ġm ines
Ġm old
Ġm align
Ġm ax
Ġm ood
Ġm ix
Ġm aster
Ġm other
Ġm odes
Ġm ultim
Ġm erge
Ġm ais
Ġm odal
Ġm usic
Ġm ultimedia
Ġm ixed
Ġm elt
Ġm anned
Ġm yth
Ġm ultiv
Ġm irror
Ġm asters
Ġm ashed
Ġm ultit
Ġm istrust
ent or
ent ur
ent ang
ent ment
ent ences
ent repr
ent ano
ent zer
ent erDynam
ent lemen
Ġb ur
Ġb ot
Ġb ub
Ġb our
Ġb und
Ġb lo
Ġb ag
Ġb ore
Ġb ust
Ġb io
Ġb right
Ġb ases
Ġb last
Ġb link
Ġb orn
Ġb ird
Ġb oring
Ġb ank
Ġb ags
Ġb arely
Ġb ureau
Ġb orrow
Ġb anner
Ġb aths
Ġb inding
Ġb reaches
Ġb leeds
Ġand stand
Ġand communications
ation ers
Ġw et
Ġw ars
Ġw arning
Ġw ast
Ġw int
Ġw ish
Ġw ake
Ġw ants
Ġw ishing
Ġw alk
Ġw eek
Ġw itness
Ġw indow
Ġw orship
Ġw aves
Ġw aged
Ġw ait
Ġw het
Ġw elcom
ig id
ig ram
ig rated
ig Galego
ig enous
ig opol
ig ration
om ar
om at
om ic
om ation
om ers
om acy
om orph
om pass
om orphic
om aze
om adic
om bay
Ġn am
Ġn ine
Ġn ap
Ġn ak
Ġn ight
Ġn ons
Ġn ative
Ġn gram
Ġn ob
Ġn lp
Ġn omin
Ġn arrative
Ġn aming
Ġn aive
Ġn erve
Ġn anot
Ġn utshe
Ġn omadic
et er
et al
et ter
et to
et her
et ings
et own
et ected
et ronic
et lin
et rieval
et ÄĮ
et rics
et rack
as is
as se
as tical
as ive
as uring
as ures
as ick
as han
as tian
as ured
as tically
as ibility
as mine
em ing
em bo
em ost
em erg
em phas
em ention
em bodied
em itting
Ġ1 16
Ġ1 19
Ġ1 14
Ġ1 88
Ġ1 33
Ġ1 22
Ġ1 30
Ġ1 36
Ġ1 21
Ġ1 59
Ġ1 45
Ġ1 67
Ġ1 39
Ġ1 37
Ġ1 0000
Ġ1 124
Ġ1 164
Ġ1 183
Ġ1 307
Ġ1 333
Ġ1 366
Ġ1 289
Ġ1 505
Ġto y
Ġto ys
Ġto ugh
Ġto urism
Ġto uted
Ġto taling
Ġto xic
ur i
ur t
ur ers
ur ated
ur ib
ur ne
ur ability
ur ner
ur row
ur ath
ur uk
ur bing
ur mount
ur onews
us es
us un
us ts
us als
ol u
ol ent
ol ul
ol ate
ol and
ol lo
ol ism
ol oc
ol ski
ol inguistics
ol ina
ol ley
ol utions
ol ton
ol ini
ol omonoff
ol oney
ol thouse
put ation
ĠS id
ĠS out
ĠS ell
ĠS ir
ĠS ap
ĠS ain
ĠS ext
ĠS tell
ĠS ug
ĠS uc
ĠS mar
ĠS end
ĠS ave
ĠS eth
ĠS ong
ĠS eb
ĠS ons
ĠS io
ĠS eat
ĠS ra
ĠS ound
ĠS orm
ĠS uperv
ĠS ier
ĠS low
ĠS oy
ĠS hed
ĠS ym
ĠS hip
ĠS ets
ĠS ven
ĠS ou
ĠS elect
ĠS ah
ĠS izing
ĠS che
ĠS everal
ĠS emin
ĠS ites
ĠS Ã©
ĠS ung
ĠS AM
ĠS aul
ĠS me
ĠS ensor
ĠS uv
ĠS eni
ĠS ara
ĠS emantics
ĠS PS
ĠS aur
ĠS AT
ĠS etting
ĠS ora
ĠS awa
ĠS AGE
ĠS entence
ĠS oph
ĠS ufficient
ĠS igal
ĠS anta
ĠS ustainable
ĠS eventeenth
ĠS enri
ĠS peed
ĠS cripts
ĠS moliar
ĠS UM
ĠS lav
ĠS rebro
ĠS ulik
ĠS lyusar
ĠS abbagh
ĠS antos
ĠS agar
ĠS proat
ĠS indhu
ĠS aleh
ĠS hane
ĠS porns
ĠS egev
ĠS ivaji
ĠS SRN
ĠS UGI
ĠS VMs
ĠS kew
ĠS lava
ĠS nap
ĠS tijn
ĠS enate
ĠS alim
ĠS edol
ĠS elena
ĠS entences
ce ived
ce iver
ew ed
ew is
ew ard
ew ater
93 0
93 1
93 4
93 5
93 8
93 15
93 90
93 46
93 35
93 69
93 364
93 3254
93 760
Ġ20 7
Ġ20 9
Ġ20 30
91 6
91 16
91 00
91 13
91 22
91 38
91 29
91 59
91 09
91 53
91 163
91 287
am in
am on
am ar
am us
am odel
am Bro
am ila
am ifications
am eric
ĠM M
ĠM T
ĠM W
ĠM en
ĠM ess
ĠM ell
ĠM os
ĠM ik
ĠM ans
ĠM ous
ĠM uss
ĠM ens
ĠM uch
ĠM ong
ĠM one
ĠM ann
ĠM edic
ĠM ob
ĠM ike
ĠM az
ĠM SN
ĠM orp
ĠM air
ĠM ey
ĠM inn
ĠM itz
ĠM urg
ĠM obile
ĠM AM
ĠM ull
ĠM achin
ĠM ainst
ĠM aker
ĠM illions
ĠM urd
ĠM iri
ĠM PS
ĠM umb
ĠM echan
ĠM usic
ĠM oder
ĠM oney
ĠM oment
ĠM iller
ĠM ON
ĠM ih
ĠM isinformation
ĠM ika
ĠM OA
ĠM ims
ĠM ahdawi
ĠM idjourney
ĠM orgenstern
ĠM DP
ĠM isra
ĠM iche
ĠM arshall
ĠM ultit
ĠM antovani
ĠM onde
ĠM ozur
ĠM ochizuki
ĠM inor
ĠM entzer
ĠM igration
ĠM urrow
ĠM oloney
ec id
ec hes
ec onom
ec ker
ec ca
ec dotes
\" ,\
\" \"]
id ar
id st
id op
id ance
id ari
id ging
id emi
id enced
id entification
id erman
id hl
id icul
Ġ. ..
out ing
ĠT ed
ĠT un
ĠT ot
ĠT ay
ĠT um
ĠT our
ĠT ik
ĠT ud
ĠT ary
ĠT ory
ĠT ata
ĠT all
ĠT able
ĠT ele
ĠT her
ĠT oc
ĠT ong
ĠT ree
ĠT erm
ĠT ale
ĠT err
ĠT ough
ĠT error
ĠT arch
ĠT alk
ĠT ony
ĠT ao
ĠT eg
ĠT omas
ĠT iny
ĠT iff
ĠT sch
ĠT oder
ĠT ermin
ĠT itan
ĠT aming
ĠT inker
ĠT ye
ĠT yr
ĠT asks
ĠT akash
ĠT revor
ĠT argeting
ĠT yler
ĠT ulpan
ĠT arnoff
ĠT illmann
ĠT ucker
ĠT ASS
ĠT eddy
ĠT sipras
ĠT ED
ĠT inone
ĠT orroni
ĠT alen
ĠT atti
ĠT urner
ĠT olul
ĠR K
ĠR T
ĠR am
ĠR ad
ĠR ex
ĠR ac
ĠR un
ĠR ow
ĠR ab
ĠR um
ĠR ate
ĠR ang
ĠR ort
ĠR up
ĠR ory
ĠR est
ĠR ational
ĠR af
ĠR ames
ĠR ah
ĠR oth
ĠR ise
ĠR akes
ĠR ox
ĠR Ã©
ĠR eli
ĠR AM
ĠR omal
ĠR acist
ĠR yle
ĠR adi
ĠR IS
ĠR apid
ĠR OC
ĠR eference
ĠR alf
ĠR agh
ĠR acial
ĠR ohan
ĠR utter
ĠR awlinson
ĠR azi
ĠR othman
ĠR FID
ĠR RG
ĠR inik
ĠR aton
ĠR atner
ĠR iga
ĠR udin
ĠR oux
ĠR ennie
ĠR opek
ĠR hetor
ĠR icardo
ĠR oweis
ĠR OOT
ĠR amkissoon
ĠR ansbotham
ĠR asekhschaffe
ĠR LHF
ĠR etrieval
ĠR oland
ĠR eward
ars e
ars hip
ars had
ars feld
ĠC S
ĠC ars
ĠC od
ĠC os
ĠC amp
ĠC ub
ĠC ag
ĠC ame
ĠC old
ĠC ob
ĠC ax
ĠC ode
ĠC orp
ĠC ertain
ĠC ris
ĠC reat
ĠC ross
ĠC yber
ĠC ables
ĠC ape
ĠC arly
ĠC orpus
ĠC overing
ĠC aug
ĠC ultures
ĠC ait
ĠC ova
ĠC annon
ĠC PUs
ĠC ultiv
ĠC lyn
ĠC PU
ĠC redit
ĠC atast
ĠC odec
ĠC iresan
ĠC runch
ĠC ybenko
ĠC FA
ĠC ruz
ĠC lean
ĠC abral
ĠC ortes
ĠC oyle
ĠC logher
ĠC reswell
ĠC arrasco
ĠC rawford
ĠC uddy
ĠC owls
ĠC surka
ĠC JR
ĠC NBC
ĠC aes
ĠC radd
ĠC ypr
ĠC zar
ĠC inem
ĠC eltic
ĠI D
ĠI P
ĠI l
ĠI ow
ĠI LP
ĠI ll
ĠI lan
ĠI stan
ĠI rf
ĠI oT
ĠI vanenko
ĠI psos
ĠI phofen
ĠI GM
ĠI dentification
ĠI rving
ĠI vak
ĠI reland
Ġ" ...
16 13
16 25
16 33
16 38
16 87
16 55
16 44
16 96
16 70
16 181
16 674
il o
il ly
il ism
il ian
il ience
il ipp
il mo
il kins
il va
il alta
il omar
Ġl es
Ġl iv
Ġl un
Ġl ived
Ġl if
Ġl angu
Ġl uc
Ġl ens
Ġl ose
Ġl ooks
Ġl ively
Ġl oyal
Ġl icens
Ġl oans
Ġl antern
Ġl icence
Ġl idar
ĠN J
ĠN P
ĠN i
ĠN ap
ĠN ate
ĠN ik
ĠN ak
ĠN ag
ĠN ich
ĠN gram
ĠN ages
ĠN ever
ĠN az
ĠN ets
ĠN air
ĠN atic
ĠN au
ĠN iger
ĠN aq
ĠN iu
ĠN ikol
ĠN ida
ĠN ips
ĠN IPS
ĠN VID
ĠN aive
ĠN azi
ĠN evertheless
ĠN iva
ĠN irmal
ĠN ivedha
ĠN ervous
ĠN ambiar
ĠN GOs
ĠN aureen
ĠN SF
ĠN TT
ĠN aomi
ĠN isky
ĠN ingzhe
st ay
st ory
st ag
st ance
st atistics
st inct
st ole
st oke
ev a
ev e
ev i
ev olution
ev iev
ev ille
ev aluating
ev aluated
ev enson
ev aluate
ev olent
Ġre th
Ġre ign
Ġre act
Ġre vel
Ġre wards
Ġre actions
Ġre move
Ġre peat
Ġre lying
Ġre load
Ġre peti
Ġre mark
Ġre jo
Ġre tires
Ġre putation
Ġre evaluate
im us
im ir
im ated
im Al
im ilar
im odal
im bing
im partiality
im avis
ul u
ul ly
ul th
ul ace
ul sh
ul ph
ul ator
ul ately
ist a
ist ing
ist ot
ist ence
ist ure
ist ributed
Ġh ac
Ġh ence
Ġh ab
Ġh ik
Ġh all
Ġh ous
Ġh ome
Ġh az
Ġh ues
Ġh its
Ġh ath
Ġh amb
Ġh ype
Ġh ero
Ġh ighest
Ġh urric
Ġh ouses
Ġh olding
Ġh iding
Ġh aste
Ġh oax
Ġh tml
Ġh uge
Ġh erit
Ġh olism
ad ow
ad ay
ad aw
ad ym
ad az
ad versarial
ad uate
ad sworth
ad Del
ad olu
Ġth ir
Ġth irst
Ġth read
Ġth erm
Ġth inks
Ġth umb
Ġth rives
Ġth rived
tic ed
tic ist
tic ap
tic ators
iv re
iv ain
iv able
ex plainable
ex ico
ex change
ex kÃ¼
ĠP ers
ĠP ir
ĠP age
ĠP ang
ĠP ear
ĠP ere
ĠP oss
ĠP ym
ĠP rev
ĠP hy
ĠP han
ĠP erg
ĠP orn
ĠP aster
ĠP AM
ĠP ope
ĠP CA
ĠP ict
ĠP ask
ĠP ool
ĠP AS
ĠP ei
ĠP urd
ĠP olyn
ĠP ersonal
ĠP olynomial
ĠP eace
ĠP oria
ĠP oly
ĠP inker
ĠP NG
ĠP avel
ĠP owers
ĠP AR
ĠP PM
ĠP iper
ĠP leasure
ĠP acific
ĠP owell
ĠP aley
ĠP errin
ĠP atterson
ĠP feifer
ĠP aintings
ĠP overty
ĠP LOS
ĠP eir
ĠP iech
ĠP oinc
ĠP yTorch
ĠP inaya
ĠP enns
ĠP lease
ĠP asick
ers mart
ers ibly
ers aks
ers feld
ers hner
ers pect
ac ity
ac les
ac ie
ac ements
ac tice
ac erb
ac lweb
ac enterDynam
ac ulately
ess is
ess ie
Ġon to
Ġon Machine
Ġon ions
Ġon Formal
ri el
ri ers
ri ence
ri age
ri ff
ri ann
ri ends
ri ella
ri ya
ri ots
ri tikos
ri Rostamizadeh
ri fied
un k
un ing
un et
un ter
un ci
un ov
un ks
un ice
un certain
un ging
un known
un annotated
un yun
un huang
un zhi
od o
od en
od ers
od ore
od ym
od ality
od how
). "&#
160 2
160 6
160 8
160 9
160 2024
ot r
ot ations
ot echn
ot ely
ot error
ot ypes
ot aped
ot argeting
19 28
19 02
19 49
19 47
19 03
19 43
19 48
19 84
19 52
19 64
19 61
19 212
19 218
ter ations
ter worth
ter Har
ter esa
ter eva
ine y
ine et
ly wood
ell i
ell o
ell an
ell aM
ell Simon
av an
av ans
av ies
av ors
av eled
av ored
av da
av ailability
ow s
ow en
ow ment
arn ard
âĢ İ
ith me
Ġor th
Ġor ally
th a
th qu
th ere
th ree
th ose
th ings
th inks
th yology
og h
og i
og end
Ġpro be
Ġpro ven
Ġpro ced
Ġpro jec
Ġpro ceed
Ġpro gressive
Ġpro pose
Ġpro prietary
Ġpro ponent
Ġpro tect
Ġpro ceeds
Ġpro bable
Ġpro long
Ġpro pelling
ab er
ab ic
ab us
ab ber
ab end
ab olic
ab normal
ab bing
ab uta
ab outs
ab imus
ab riella
ay ling
ay tronics
Ġ[ "
ach ers
ĠB S
ĠB ing
ĠB ad
ĠB ell
ĠB ach
ĠB ain
ĠB ang
ĠB our
ĠB ant
ĠB est
ĠB all
ĠB ard
ĠB eth
ĠB ates
ĠB arg
ĠB lock
ĠB ax
ĠB ody
ĠB ases
ĠB ols
ĠB ry
ĠB ey
ĠB reak
ĠB asing
ĠB NN
ĠB arrett
ĠB aid
ĠB Ã©
ĠB alk
ĠB eta
ĠB ird
ĠB uzz
ĠB logging
ĠB ennett
ĠB arry
ĠB readth
ĠB CE
ĠB owl
ĠB uchanan
ĠB oca
ĠB uiten
ĠB ushwick
ĠB oston
ĠB ajpai
ĠB uckley
ĠB urda
ĠB ohrer
ĠB zdok
ĠB ulletin
ĠB onn
ĠB altim
ĠB anu
ĠB reiman
ĠB leumer
ĠB elmont
ĠB ombay
ĠB etter
ĠB olthouse
ĠB ecker
ĠB iderman
ĠB oden
ĠB owen
ĠB arnard
Ġg ot
Ġg ir
Ġg ov
Ġg lob
Ġg ates
Ġg old
Ġg oss
Ġg az
Ġg ris
Ġg err
Ġg reed
Ġg ains
Ġg ao
Ġg iant
Ġg endering
Ġg edenc
Ġg entlemen
Ġg riots
Ġis n
Ġis olated
Ġr ain
Ġr um
Ġr ang
Ġr ub
Ġr ud
Ġr ural
Ġr ati
Ġr ages
Ġr ally
Ġr amb
Ġr idge
Ġr aces
Ġr ender
Ġr asa
Ġr acial
Ġr anging
Ġr Ã©s
Ġr ituals
Ġr Äĵ
Ġr atings
Ġr igid
Ġr amifications
Ġr idicul
Ġle t
Ġle ap
Ġle ct
Ġle ave
Ġle af
Ġle ader
Ġle aving
Ġle mm
Ġle aks
Ġle xicon
ĠJ r
ĠJ en
ĠJ ing
ĠJ ay
ĠJ ia
ĠJ os
ĠJ ud
ĠJ ust
ĠJ ian
ĠJ ake
ĠJ ose
ĠJ ie
ĠJ ale
ĠJ ix
ĠJ AM
ĠJ ero
ĠJ orge
ĠJ oshua
ĠJ ane
ĠJ ait
ĠJ erem
ĠJ umper
ĠJ iang
ĠJ arow
ĠJ asrotia
ĠJ avaid
ĠJ ozefowicz
ĠJ aiswal
ĠJ AX
ĠJ esper
ĠJ utta
ĠJ abber
10 93
10 13
10 85
10 29
10 21
10 45
10 82
10 35
10 110
10 49
10 65
10 83
10 42
10 0000
10 58
10 48
10 54
10 73
10 356
10 676
10 462
10 913
10 8742
10 761
Ġ= ||
": &#
Ġfor ces
Ġfor ward
Ġfor wards
Ġfor tun
Ġfor eseen
Ġfor emost
ion ate
ion ale
ir ti
ir an
ir ations
ir gin
ir ates
ir ited
ir ley
ir ky
ci er
ci ech
ci ated
ci ple
ci ally
ci ano
ci pice
Ġ[\" '
pl ing
pl ification
pl ugg
pl aces
pl icating
pl omat
ap i
ap ist
ap od
ap ore
ap ons
ap man
ap pai
ap riya
op s
op ing
op le
op eland
op timization
op oly
op ilot
op pil
ia Israel
ia utonomous
ĠD C
ĠD ell
ĠD og
ĠD os
ĠD ord
ĠD ubl
ĠD ance
ĠD af
ĠD ile
ĠD ob
ĠD ey
ĠD ina
ĠD ems
ĠD own
ĠD imension
ĠD omen
ĠD urk
ĠD arren
ĠD iri
ĠD ret
ĠD imensionality
ĠD RT
ĠD ependent
ĠD eut
ĠD atabase
ĠD work
ĠD ialog
ĠD ohan
ĠD ahl
ĠD ystop
ĠD ockrill
ĠD espite
ĠD ialogue
ĠD ickson
ĠD rives
ĠD ima
ĠD erek
ĠD okas
ĠD ovey
ĠD ictionaries
ĠD istrust
ĠD ucharme
ĠD QN
ĠD SL
ĠD hars
ĠD oris
ĠD enis
ĠD rexler
ĠD unhuang
ain ie
ain ability
ain telligent
ain athan
um n
um et
um ans
um ass
um ati
um pt
um ns
um atic
um bed
um scription
Ġnews group
Ġnews man
Ġnews wire
Ġnews room
Ġnews writers
ĠIn to
ĠIn clud
ĠIn iti
ĠIn str
ĠIn ns
ĠIn vesti
ĠIn stant
ĠIn fluence
ĠIn ui
ĠIn fel
ĠIn clusion
ĠIn fin
ĠIn creasing
ĠIn flation
ĠIn vernizzi
ĠIn sider
ĠIn stinct
os er
os ti
os es
os an
os iu
os kele
os pel
os oever
os emiotics
os kenniemi
ĠW A
ĠW u
ĠW an
ĠW ent
ĠW ars
ĠW arn
ĠW ave
ĠW ind
ĠW eng
ĠW hil
ĠW ason
ĠW ade
ĠW inn
ĠW aning
ĠW elling
ĠW ins
ĠW itness
ĠW aling
ĠW IP
ĠW EA
ĠW atchdog
ĠW irtz
ĠW addell
ĠW iert
ĠW oj
ĠW esley
ĠW iggers
ĠW urman
ĠW erner
ĠW iering
ĠW eyrich
ĠW odecki
ĠW IRE
ĠW iener
ĠW oody
ĠW rong
ĠW alck
ĠW isniews
ĠW ittgen
ĠW adsworth
CI BB
for t
for ts
for ty
for ces
age Ogbaga
Ġas ks
Ġas cribed
Ġas Solomonoff
Ġcon not
Ġcon com
Ġcon fusion
Ġcon greg
Ġcon cise
Ġcon ception
Ġcon volutional
Ġcon clude
Ġcon crete
Ġcon current
Ġcon jun
Ġcon ferred
Ġcon cluded
Ġcon fusions
Ġcon junction
Ġcom ing
Ġcom and
Ġcom pe
Ġcom mer
Ġcom mission
Ġcom prise
Ġcom merce
ve z
ve ys
ve au
ve ils
ĠH ence
ĠH our
ĠH ear
ĠH ous
ĠH ome
ĠH ind
ĠH ugh
ĠH ound
ĠH yp
ĠH az
ĠH aus
ĠH ou
ĠH aj
ĠH off
ĠH inn
ĠH ox
ĠH arm
ĠH arre
ĠH outh
ĠH amed
ĠH igher
ĠH udson
ĠH urd
ĠH PS
ĠH iles
ĠH acking
ĠH erbert
ĠH ailey
ĠH ungar
ĠH AL
ĠH utter
ĠH urric
ĠH eather
ĠH ugging
ĠH yun
ĠH ilary
ĠH odge
ĠH arnad
ĠH osoda
ĠH oldsworth
ĠH ierarchical
ĠH ammond
ĠH aenlein
ĠH aip
ĠH yund
ĠH albert
ĠH utten
ĠH itler
ĠH essie
ĠH unter
ĠH ello
ĠH ogend
ĠH umans
ĠThe ft
ĠThe len
ĠThe saurus
ĠThe fre
ĠThe orist
ĠThe atrical
ĠThe odore
ĠG il
ĠG od
ĠG ot
ĠG ap
ĠG bo
ĠG iz
ĠG RE
ĠG ort
ĠG ord
ĠG ill
ĠG ave
ĠG ong
ĠG ust
ĠG ian
ĠG AI
ĠG ok
ĠG oh
ĠG lan
ĠG raph
ĠG ris
ĠG han
ĠG rey
ĠG reat
ĠG arre
ĠG Ã¼
ĠG amb
ĠG rammar
ĠG lor
ĠG aul
ĠG reed
ĠG iri
ĠG PS
ĠG erb
ĠG yan
ĠG upta
ĠG arry
ĠG ius
ĠG erbert
ĠG OM
ĠG las
ĠG uns
ĠG oswami
ĠG ibbs
ĠG AO
ĠG alvan
ĠG omaa
ĠG unes
ĠG iraud
ĠG laab
ĠG hetti
ĠG wynne
ĠG erovitch
ĠG orichanaz
ĠG uglielmo
ĠG ioc
ĠG errit
ĠG orillas
ĠG alilei
ĠG itHub
ĠG etlin
ĠG riff
ĠG ogh
ĠG abriella
ĠG ospel
ĠAI L
ĠAI ME
ĠAI XI
ĠAI MA
ĠAI VC
ĠL I
ĠL P
ĠL ine
ĠL os
ĠL ate
ĠL ub
ĠL ik
ĠL ord
ĠL ef
ĠL ass
ĠL oc
ĠL ite
ĠL eth
ĠL imit
ĠL ive
ĠL ake
ĠL ink
ĠL ike
ĠL anguages
ĠL ix
ĠL of
ĠL amb
ĠL iver
ĠL ying
ĠL aud
ĠL uk
ĠL event
ĠL iving
ĠL ane
ĠL ohr
ĠL anno
ĠL uther
ĠL inguistic
ĠL arson
ĠL ouis
ĠL enat
ĠL emm
ĠL oper
ĠL imitations
ĠL lama
ĠL askowski
ĠL ipartito
ĠL isa
ĠL lemma
ĠL entzos
ĠL evy
ĠL inear
ĠL apa
ĠL erner
ĠL ardner
ĠL ennox
ĠL ippi
ĠL ungarella
ĠL td
ĠL yap
ĠL esk
ĠL anxon
ĠL asse
ĠL ewis
ĠL evi
ĠL exico
ĠAr m
ĠAr un
ĠAr ms
ĠAr ticle
ĠAr mon
ĠAr Xiv
ĠAr ash
ĠAr row
ĠAr vin
ĠAr chitect
ĠAr chive
ĠAr da
ĠAr wa
ĠAr bit
ĠAr ray
ĠAr jun
ĠAr ista
bo IlokanoBahasa
bo urne
ial ism
ĠF ar
ĠF an
ĠF ine
ĠF ate
ĠF ort
ĠF ill
ĠF oc
ĠF les
ĠF act
ĠF ra
ĠF ile
ĠF oss
ĠF low
ĠF ond
ĠF res
ĠF iction
ĠF ugg
ĠF inn
ĠF arr
ĠF ears
ĠF ix
ĠF aid
ĠF aces
ĠF ung
ĠF DA
ĠF ault
ĠF ires
ĠF uk
ĠF ocal
ĠF raw
ĠF Ã¼r
ĠF ei
ĠF eyer
ĠF ronti
ĠF Acc
ĠF TC
ĠF uzzy
ĠF CC
ĠF ourth
ĠF ederated
ĠF riendly
ĠF ifth
ĠF ederal
ĠF aith
ĠF ilm
ĠF ahd
ĠF reedom
ĠF earn
ĠF ij
ĠF ertil
ĠF LAC
ĠF enton
ĠF odor
ĠF ernandez
ĠF erreira
ĠF igueiredo
ĠF afoutis
ĠF itzgibbon
ĠF oer
ĠF atema
ĠF arshad
ĠF ilipp
ĠF riends
ĠF avors
Ġbe am
Ġbe ard
Ġbe aring
ĠE ars
ĠE sk
ĠE duc
ĠE vol
ĠE li
ĠE dition
ĠE arth
ĠE go
ĠE arl
ĠE ka
ĠE iri
ĠE rich
ĠE wan
ĠE CC
ĠE ager
ĠE wa
ĠE CML
ĠE ACL
ĠE thical
ĠE ducational
ĠE tymology
ĠE kins
ĠE ye
ĠE quity
ĠE FE
ĠE quality
ĠE verything
ĠE kmekci
ĠE ND
ĠE cos
ĠE hab
ĠE ibe
ĠE yghen
ĠE inar
ĠE isenst
ĠE rotic
ate urs
ate au
iz on
iz io
Ġal ike
Ġal pha
Ġal bum
Ġal tog
Ġal terations
TE RT
Ġlearning and
Ġlearning Cybernetics
ct rine
CITEREF The
CITEREF Qu
CITEREF van
CITEREF Ad
CITEREF Alex
CITEREF Az
CITEREF El
CITEREF Frank
CITEREF Evans
CITEREF Stanford
CITEREF European
CITEREF UNESCO
CITEREF Arntz
CITEREF Clark
CITEREF Neumann
CITEREF Asada
CITEREF Toews
CITEREF Franzen
CITEREF AAAI
CITEREF IGM
CITEREF Agr
CITEREF Xu
ang Clogher
ang kab
Ġan arch
Ġan chor
Ġan notated
Ġan ger
Ġan chorman
Ġan notation
Ġan nals
Ġan aphora
Ġan chors
Ġan ecdotes
Ġan ticap
Ġv ag
Ġv ulture
Ġv ital
Ġv aries
Ġv oice
Ġv oters
Ġv owed
Ġv irtually
Ġv Ãªtement
Ġv orac
Ġv eneta
Ġv itri
Ġv icari
Ġv ivre
ort ed
ort ly
ort ality
Ġst d
Ġst em
Ġst ars
Ġst able
Ġst ati
Ġst one
Ġst ages
Ġst atis
Ġst ym
Ġst ating
Ġst ood
Ġst ays
Ġst arv
Ġst alk
Ġst ances
Ġst oring
Ġst ret
Ġst aun
Ġst ead
Ġst ole
Ġst emming
Ġst upid
Ġst eam
Ġst yles
Ġst reets
amp olski
ext ualism
ep pe
ub u
ub and
ub led
ub ators
ub rick
our able
our ish
our ished
our naux
Ġwh osoever
tell ing
ik h
ik le
ik St
ik ah
ik awa
ik uyu
and on
and ar
and pr
and ari
and ards
and inav
and usun
ide os
ide ep
ide gger
ov o
ov ation
ov oice
ov asc
ov ici
list s
Ġ2 20
Ġ2 91
Ġ2 16
Ġ2 12
Ġ2 14
Ġ2 23
Ġ2 80
Ġ2 90
Ġ2 40
Ġ2 60
Ġ2 32
Ġ2 96
Ġ2 81
Ġ2 92
ĠĠĠĠĠĠĠĠ ĠĠĠĠĠĠĠĠĠĠĠĠĠ
ĠĠĠĠĠĠĠĠ ĠĠĠĠĠĠĠĠĠĠĠĠĠĠĠ
und ing
und ers
und ance
Ġby lines
Ġex ord
Ġex ag
Ġex ert
Ġex hil
Ġex cite
Ġex ception
Ġex ceptions
Ġex Plan
Ġex cell
Ġex ceeds
Ġex oplan
Ġex orbit
Ġex acerb
Ġex oskele
ect rum
Ġus her
Ġus ages
Ġus eless
tific are
up hor
up date
qu ely
qu ari
qu isition
qu alification
qu eville
form a
form ant
form erly
ĠO gin
ĠO ption
ĠO vers
ĠO sh
ĠO ath
ĠO thers
ĠO LS
ĠO NE
ĠO da
ĠO udeyer
ĠO verv
ĠO sta
ĠO soba
ĠO swald
ĠO kolie
ĠO tterlo
ĠO gbaga
ĠO dys
ĠO lga
ĠO sonde
se a
se atic
se eming
Ġar row
Ġar chive
Ġar chae
Ġar ticulated
Ġar mag
Ġar xiv
Ġar tists
Ġar chives
Ġar ithme
Ġorigin ate
bar dMagyar
bar rass
lo st
lo op
lo ok
lo cher
lo jban
ud y
ud es
ant on
ant ling
ak off
ak iÅ
ak irti
Ġtr uc
Ġtr ite
Ġtr act
Ġtr ading
Ġtr aj
Ġtr ader
Ġtr aced
Ġtr ump
Ġtr ails
Ġtr aged
Ġtr ending
Ġtr Ã¨
Ġtr affic
ight man
ord Col
ord inate
ont o
cl ip
cl ick
cl uster
cl osed
cl usters
cl esi
cl osing
cl arification
cl oser
ack age
ack dow
ug es
ug esh
ug andpr
200 50
200 000
200 00000
est ed
est us
est Re
est ock
est nik
if old
if ier
if iability
if tly
ĠU C
ĠU N
ĠU t
ĠU ll
ĠU ltr
ĠU biquitous
ĠU ndetectable
ĠU mple
ĠU exkÃ¼
ĠU riel
ress or
ress ive
ag ine
ag ues
ag raph
ag ued
ag ma
ag hetti
ag rform
ag onÃ©s
uc er
uc ong
uc tiv
uc ai
uc tively
ical s
00 9
00 11
00 17
00 26
00 90
00 30
00 40
00 85
00 28
00 02
00 07
00 69
00 92
00 43
00 48
00 94
00 31
00 146
00 362
00 465
00 177
00 674
00 224
00 392
00 541
00 935
00 1655
ech ova
ational ly
ĠNews om
ĠNews Human
ĠNews letters
ĠNews week
ans onBol
Ġ19 00
Ġ19 23
Ġ19 27
Ġ19 22
Ġ19 29
Ġ19 21
Ġ19 67
Ġ19 55
Ġ19 82
Ġ19 09
Ġ19 02
Ġ19 83
Ġ19 42
Ġ19 57
Ġ19 43
Ġ19 54
Ġ19 84
Ġ19 52
Ġ19 61
nav i
col n
col o
col ate
col our
col Ã²
col lection
ĠSt op
ĠSt amp
ĠSt ork
ĠSt ress
ĠSt af
ĠSt ood
ĠSt ampa
ĠSt Ã¶
ĠSt emming
ĠSt ewart
ĠSt upid
ĠSt aats
ĠSt alin
ĠSt anley
ĠSt ationers
ĠSt andards
ĠSt anton
ies à¤¨
ef low
ef ficient
sk e
sk Galego
cess ful
yst aff
Ġdo ch
Ġdo ubl
Ġdo oms
Ġdo omed
ill ips
pe g
pe ople
ms p
olog ists
olog ically
ich ie
ich ley
all aM
ft s
mar ine
mar ized
mar king
ĠK I
ĠK ate
ĠK ant
ĠK ave
ĠK ok
ĠK oul
ĠK ee
ĠK ings
ĠK ah
ĠK ook
ĠK ey
ĠK ather
ĠK night
ĠK ash
ĠK Ã¼
ĠK Ã©
ĠK uan
ĠK yle
ĠK DD
ĠK ernel
ĠK hud
ĠK inc
ĠK uo
ĠK uperman
ĠK obielus
ĠK asperowicz
ĠK inated
ĠK ateman
ĠK essler
ĠK irk
ĠK iron
ĠK opel
ĠK ishorjit
ĠK uniyoshi
ĠK avukcuoglu
ĠK ariampuzha
ĠK rzywinski
ĠK Dnuggets
ĠK GB
ĠK aig
ĠK hasi
ĠK erfoot
ĠK oray
ĠK urt
ĠK ulsh
ĠK ershner
ĠK ubrick
ĠK ikuyu
end ment
end ish
end ix
end ees
end rus
erv ing
erv ations
erv ille
erv oir
11 11
11 125
11 57
11 47
11 76
11 31
11 107
11 229
11 930
so cher
so ubai
so unding
Ġ3 91
Ġ3 19
Ġ3 11
Ġ3 97
Ġ3 23
Ġ3 27
Ġ3 80
Ġ3 90
Ġ3 30
Ġ3 36
Ġ3 60
Ġ3 87
Ġ3 65
Ġ3 77
Ġ3 66
Ġ3 81
Ġ3 56
Ġ3 57
Ġ3 69
Ġ3 95
Ġ3 70
Ġ3 78
Ġ3 101
Ġ3 179
Ġpr one
Ġpr ice
Ġpr inter
Ġpr inc
Ġpr Ã©s
Ġpr onoun
Ġpr ison
Ġpr icing
Ġpr uning
Ġpr agma
ast s
ast onishing
ĠCh ar
ĠCh it
ĠCh ia
ĠCh ang
ĠCh pt
ĠCh ild
ĠCh ould
ĠCh ase
ĠCh ible
ĠCh eng
ĠCh air
ĠCh au
ĠCh ronic
ĠCh uk
ĠCh iu
ĠCh ief
ĠCh oe
ĠCh oud
ĠCh andola
ĠCh alla
ĠCh arniak
ĠCh inmay
ĠCh unyun
ĠCh apman
ĠCh ucai
per y
per ty
per ature
per link
per ception
per fect
Ġim mun
Ġim min
Ġim aging
Ġim itated
Ġim agine
Ġim perfect
gor illa
gor illas
ref er
pro duction
pro of
pro duced
pro pag
pro gramming
pro blem
pro tection
pro duct
tern atively
Ġch ain
Ġch ild
Ġch ron
Ġch ronic
Ġch urch
Ġch ief
ass en
ass igned
ass elGlaab
Ġev il
Ġev ade
Ġev asion
Ġev idential
Ġev idenced
gr y
gr images
gr inus
gr abbing
ip in
ip henomen
ip ulates
ip ede
ip uri
ip pery
ern ers
ern ess
ern ment
Ġdata JapanCzech
Ġintelligence AI
Ġintelligence Computational
Ġintelligence Concepts
12 15
12 14
12 33
12 36
12 50
12 28
12 99
12 46
12 82
12 89
12 76
12 272
12 596
to ons
ign ation
Ġne uter
pr it
pr edic
pr ising
pr ediction
pr onoun
pr entices
pr actice
ens es
ens ical
ens ual
ens ified
ens urate
Ġres urg
Ġres ident
Ġres emble
Ġres istant
Ġres istance
Ġres embles
Ġres haping
Ġres entment
Ġres ervations
Ġres ignation
tit or
tit led
ĠCom te
ĠCom par
ĠCom modity
ĠCom merce
ĠCom positional
ĠCom paring
ĠCom bining
enc oders
ele lss
ts on
ts chPolskiPortuguÃªsQaraqalpaqsha
ue IsiZuluÃįslenskaItaliano×¢×ĳ×¨×Ļ×ª
Ġnetwork ed
Ġnetwork ing
Ġnetwork See
ost ers
ost atic
ost atistics
ost writers
ost asis
Ġac ed
Ġac ute
Ġac knowledge
fer ed
tr on
tr am
tr and
tr usive
tr aveled
ard en
ard it
ard less
ld on
97 7
97 085
97 559
97 993
97 505
97 9159
hem eral
Ġsystem atically
ual itative
her ent
her st
her entism
15 00
15 15
15 88
15 36
15 50
15 40
15 38
15 60
15 87
15 55
15 32
15 96
15 92
15 48
15 84
15 51
15 63
15 61
15 136
15 402
15 71
15 208
Ġ0 1
Ġ0 3
Ġ0 4
Ġ0 5
Ġ0 32118
oc ide
oc ybernetics
ite i
Ġag o
Ġag gl
Ġag gressive
Ġag entic
Ġag itating
Ġap pre
Ġap par
Ġap ps
Ġap parent
Ġap pearance
Ġap point
Ġap ocalypse
Ġcomput es
The sis
The saurus
The orem
Ġk ings
Ġk een
Ġk new
Ġk iller
Ġk ingd
Ġk eyp
enti ful
enti ties
Ġun e
Ġun ity
Ġun eth
Ġun ited
Ġun ification
Ġun learning
Ġun reg
Ġun att
Ġun con
Ġun ified
Ġun ambig
Ġun fold
Ġun author
Ġun pay
Ġun ify
Ġun observ
Ġun real
Ġun informed
Ġun iform
Ġun lik
Ġun rec
Ġun ifying
Ġun expected
Ġun manned
Ġun balan
Ġun folding
Ġun licens
Ġun necess
Ġun safe
Ġun reli
Ġun leash
Ġun icycle
Ġun imodal
Ġun explainable
Ġun availability
Ġun plugg
Ġun problem
Ġcl ause
Ġcl ergy
Ġcl ump
Ġcl inical
Ġcl erics
Ġcont act
Ġcont rib
Ġcont ribution
Ġcont ests
Ġcont emporary
Ġcont ention
Ġcont ributes
Ġcont ingent
Ar da
Ar ticulated
Ar mstrong
Ar istot
Ar abic
Ar agonÃ©s
In it
In fer
In ference
In tro
In troduction
In tention
In variant
In ters
In quiry
In creasing
In spect
In vernizzi
In surance
In forma
Ġ5 00
Ġ5 18
Ġ5 86
Ġ5 21
Ġ5 99
Ġ5 46
Ġ5 06
Ġ5 57
Ġ5 53
Ġ5 310
ance Bn
ult ed
ult at
ult uous
ult ura
2021 702
18 93
18 00
18 90
18 22
18 87
18 28
18 67
18 39
18 65
18 07
18 66
18 03
18 76
18 73
18 78
18 163
18 304
18 305
ĠY S
ĠY i
ĠY s
ĠY es
ĠY ear
ĠY ue
ĠY ong
ĠY ield
ĠY itz
ĠY ung
ĠY ura
ĠY oon
ĠY ablo
ĠY uns
ĠY adav
ĠY oung
ĠY uyu
ĠY oosefzadeh
ĠY oav
ĠY asmine
ĠY adaw
ĠY ampolski
ĠY ugesh
ĠY ucong
ĠY arden
Ġat omic
ĠNor mandy
ong ressional
ati m
ati al
ati an
ati se
ati lity
ĠAl am
ĠAl ter
ĠAl ong
ĠAl ha
ĠAl ert
ĠAl the
ĠAl vey
ĠAl ternative
ĠAl ignment
ĠAl gen
ĠAl sha
ĠAl fred
ĠAl gh
ĠAl lyn
ĠAl hur
ĠAl sen
ĠAl sun
ĠAl ameh
ĠAl phabet
ĠAl muhaideb
ĠAl qudaihi
ĠAl cine
ĠAl harth
ĠAl tay
ĠAl alhar
Ġnot ation
Ġnot with
Ġnot hing
art ed
art heid
tim ation
tim acy
tim ately
ys en
ys Rev
ĠTh i
ĠTh ro
ĠTh ors
ĠTh ames
ĠTh ai
ĠTh Ã©
ĠTh rash
ĠTh orpe
ĠTh omason
ĠTh orax
ĠTh amar
ĠTh oppil
13 91
13 00
13 17
13 25
13 27
13 60
13 67
13 34
13 44
13 75
13 140
13 71
13 360
13 9390
14 14
14 60
14 39
14 05
14 89
14 96
14 04
14 57
14 76
14 54
14 64
14 98
14 124
14 229
14 236
14 3390
14 008
ind er
ind uced
ind say
ĠUn c
ĠUn it
ĠUn ite
ĠUn lock
ĠUn ification
ĠUn its
ĠUn ified
ĠUn known
ĠUn sourced
ĠUn canny
ĠUn informed
ĠUn leashed
ĠUn veils
one ous
Ġcomp ound
Ġcomp ile
Ġcomp elled
Ġcomp osed
Ġcomp atible
Ġdis ob
Ġdis ple
Ġdis cs
Ġdis pass
Ġdis rup
Ġdis proportion
Ġdis ordered
Ġdis parities
Ġdis reput
Ġdis entang
Ġdis embodied
Ġdis ciple
eb ank
eb ago
eb uerg
ust ing
Ġsp ent
Ġsp am
Ġsp ot
Ġsp ree
Ġsp aced
Ġsp urred
Ġsp illed
Ġsp ending
Ġsp oradic
Ġsp ectator
Ġsp yware
Ġsp irited
Ġsp atial
23 10
23 26
23 59
23 45
23 67
23 05
23 96
23 81
23 69
23 03
23 72
23 78
23 124
23 318
23 217
23 1785
23 1633
ĠV C
ĠV u
ĠV iew
ĠV ert
ĠV ery
ĠV ick
ĠV ict
ĠV ectors
ĠV OA
ĠV ij
ĠV erma
ĠV icki
ĠV arma
ĠV ester
ĠV idya
ĠV apnik
ĠV erlag
ĠV aikuntanathan
ĠV II
ĠV ehic
ĠV oices
ĠV arela
ĠV ictims
ĠV ilalta
ĠV adym
ĠV ineet
ĠV irgin
ĠV ideos
ĠV estnik
ĠV endrus
ĠV ipin
ĠLe i
ĠLe an
ĠLe ad
ĠLe arn
ĠLe ith
ĠLe af
ĠLe ib
ĠLe ike
ĠLe eds
ĠLe ila
ĠLe ague
ĠLe tiz
ĠLe gg
ĠLe uven
ĠLe onard
17 25
17 33
17 36
17 50
17 21
17 28
17 05
17 06
17 04
17 52
17 234
17 908
17 877
17 442
17 14229
ons ible
ons orship
pt ing
Ġab sol
Ġab use
Ġab brev
Ġab reast
Ġab undance
25 14
25 85
25 45
25 08
25 44
25 96
25 84
25 73
25 668
ace utical
Ġlanguage user
Ġgener is
Ġgener ic
Ġgener ations
Ġgener ators
io tic
io ff
io inen
oun ces
oun cements
Ġj arr
Ġj ock
Ġj etz
Ġj urnal
Ġj umped
Ġj mc
Ġj ulius
Ġj oins
Ġj ournaux
", &#
ction al
ver ed
24 10
24 24
24 90
24 87
24 02
24 94
any i
26 20
26 24
26 36
26 28
26 67
26 39
26 37
26 34
26 54
26 73
26 79
26 394
AI L
AI STAT
Ġad s
Ġad ding
Ġad ult
Ġad min
Ġad jec
Ġad ded
Ġad here
Ġad versary
Ġad jective
Ġad missions
Ġad ulth
eep ing
ok o
ok ultura
ild onics
gram mar
gram matical
te aching
Ġe ighth
Ġe yes
Ġe uronews
Ġe uphor
ree ing
ates P
ates Lee
ower Pym
Ġ4 13
Ġ4 17
Ġ4 86
Ġ4 33
Ġ4 36
Ġ4 59
Ġ4 34
Ġ4 09
Ġ4 49
Ġ4 77
Ġ4 84
Ġen vel
Ġen han
Ġen vir
Ġen joy
Ġen vy
Ġen forces
Ġen titled
Ġrel ational
Ġrel ating
Ġrel iev
Ġrel atable
eat ing
Com par
Com mission
Com peti
Com pared
Com paring
Com mentary
Com mens
com ers
com par
com mercial
com mission
com binatorial
ark off
ogn ized
ors ed
978 100
978 05
978 140
978 364
978 933254
978 1555
978 1489
be e
be el
be íķľêµŃìĸ´HausaÕĢÕ¡ÕµÕ¥ÖĢÕ¥Õ¶à¤¹
act ory
act ually
dis cr
dis proportion
Ġper miss
Ġper fect
Ġper pet
Ġper tur
Ġper colate
ive Clone
Ġcons ent
Ġcons uls
Ġcons pir
Ġcons pic
Ġcons onant
Ġdes criptive
Ġdes irable
Ġdes cend
Ġdes hal
read able
88 2
88 3
88 90
88 890
88 491
ff y
ff man
Ġsol ar
Ġsol len
Ġsol vable
Ġpl ain
Ġpl ays
Ġpl anned
Ġpl ague
Ġpl acement
Ġpl acements
Ġpl unging
Ġpl ateau
Ġpl ugandpr
Ġpl agued
Ġpl entiful
Ġdec line
Ġdec rees
Ġdec omputing
Ġdec ided
Ġdec iding
Ġdec onfl
Ġdec isive
Ġdec imated
ra qi
ĠNew ton
ĠNew found
." ]
ib bean
ib alizing
ib ilism
ann i
ann ouncements
ish ment
play er
Ġro oted
Ġro yal
Ġro botic
Ġro gue
27 80
27 40
27 29
27 45
27 56
27 54
27 62
27 41
27 190830
Ġsh aking
Ġsh ock
Ġsh iny
Ġsh ades
Ġsh aped
Ġsh ogun
Ġsh rank
Ġsh ipping
Ġsh uff
Ġsh ogi
Ġinter ference
Ġinter acts
Ġinter active
Ġinter mediate
Ġinter oper
Ġinter ventions
Ġinter faces
Ġinter twined
Ġli e
Ġli able
ĠPro ving
ĠPro of
ĠPro gress
ĠPro xim
ĠPro pon
ĠPro blems
ĠPro positional
ĠPro grams
ĠPro test
ĠPro posal
ĠPro gnos
ĠPro vost
ck ers
ck Ritter
ten ham
ha il
80 3
80 12
80 60
80 21
80 58
80 53
80 254
80 485
80 693
80 23124
oh s
oh riRostamizadeh
edic ting
edic tionary
Ġout line
Ġout right
Ġout li
Ġout growth
Ġout post
Ġout lines
Ġout paced
Ġout smar
.. .,
.. ...
Ġtrans port
Ġtrans fer
Ġtrans ition
Ġtrans actions
Ġtrans parent
Ġtrans humanism
Ġtrans ports
Ġtrans cribe
Ġtrans national
Ġtrans atlantic
Ġtrans ported
Ġtrans missions
Ġtrans fers
Ġtrans pacific
mer wah
Ġtechn ical
Ġtechn ically
atis m
atis ation
2004 8
duc es
duc tive
erm ine
erm ined
erm ination
ector ies
90 1
90 17
90 39
90 37
90 57
90 1000
ile o
Ġund erse
Ġund etect
Ġund etectable
Ġund etected
Ġund ecid
Ġund ermined
Ġclass y
Ġclass ifications
Ġaut our
Ġaut onom
Ġaut opilot
hes on
hes ize
Ġsub word
Ġsub go
Ġsub tle
Ġsub space
Ġsub gen
Ġsub discipl
Ġsub dom
Ġsub sequently
Ġsub tasks
Ġsub problems
Ġsub divid
Ġsub ordinate
ĠRe in
ĠRe al
ĠRe form
ĠRe ally
ĠRe ader
ĠRe actions
ĠRe place
ĠRe aders
ĠRe isner
ĠRe eves
ĠRe plika
ĠRe zapouraghdam
ĠRe ceiver
86 9
86 33
86 01
86 57
86 79
86 107
86 488
86 341
86 17877
Ġop tion
Ġop aque
33 0
33 16
33 86
33 07
33 04
33 84
33 228
33 913
Ġ6 3
Ġ6 4
Ġ6 5
Ġ6 93
Ġ6 85
Ġ6 29
Ġ6 37
Ġ6 55
Ġ6 34
Ġ6 46
Ġ6 02
Ġ6 75
Ġ6 77
Ġ6 83
Ġ6 47
Ġ6 52
Ġ6 64
Ġ6 78
Ġ6 24273
Ġ6 90897
Ġmethod ological
Ġrec ency
Ġrec overy
Ġrec ursive
Ġrec ruit
Ġrec onfig
Ġsome how
Ġnew es
Ġnew est
Ġnew comers
Ġhuman oid
Ġhuman izing
Ġhuman like
22 91
22 160
22 11
22 17
22 27
22 85
22 89
22 114
22 154
22 936
22 968
Ġem br
Ġem iss
Ġem erge
Ġem ulating
Ġem ails
Ġem ulates
Ġem bell
Ġem barrass
onom ical
onom ists
30 10
30 100
30 37
30 34
30 247
30 2391
30 97559
aw iK
oft en
iti f
iti us
iti ous
iti ze
iti Rip
Ġdif fus
aph ore
aph rase
aph ysics
aph rasing
ĠGo of
Ex act
Ex ample
Ex pos
Ex amples
Ex ecutive
ink o
ĠDec ide
ĠDec onvolution
Ġunder play
Ġunder go
Ġunder pinned
Ġunder lies
Ġunder estimate
Ġunder estimated
Ġunder pins
Ġunder went
ier en
ier Schmidhuber
uct ing
ever ything
ivers ary
36 9
36 85
36 46
36 49
36 42
36 76
36 524
36 211
36 997
36 9977
36 943
36 0018
36 0022
36 2410
50 1
50 3
50 17
50 87
50 67
50 65
50 79
50 417
ĠMar ti
ĠMar ion
ĠMar gar
ĠMar cia
ĠMar quez
ĠMar chegiani
ĠMar mouyet
ĠMar riage
ĠMay ara
ĠMay nard
40 3
40 5
40 18
40 23
40 39
40 96
40 53
40 78
40 442
40 8601
cont rovers
ua Interling
Ġtext Pages
Al ter
Al lan
Al ignment
Al igned
Al va
Al ameh
Al phabet
Al muhaideb
Al amBro
Al ternatively
yn ced
yn jolf
yn esianism
Ġind icated
Ġind igenous
En tom
En erg
En sembles
Ġqu o
Ġqu iz
Ġqu est
Ġqu ery
Ġqu ote
Ġqu its
Ġqu iet
Ġqu arter
Ġqu otes
Ġqu irky
Ġpar le
Ġpar ent
Ġpar ticle
Ġpar ale
Ġpar och
Ġpar tis
Ġpar ameter
Ġpar allel
Ġpar liament
Ġpar agraph
Ġpar aphrase
100 1
100 4
100 16
100 19
100 37
100 92
fore ign
Wik inews
arg ument
ob ject
ob jectivity
ob iles
ob inson
oy uan
rit te
ric o
ric ation
ric ulum
Ġol igopol
ces co
yp toc
ĠAn y
ĠAn ti
ĠAn te
ĠAn ne
ĠAn ton
ĠAn sw
ĠAn omal
ĠAn omaly
ĠAn ticip
ĠAn kit
ĠAn cient
ĠAn krah
ĠAn nals
ĠAn aphora
ĠAn scombe
ĠAn adolu
Ġbut ton
str act
str uation
str uctured
ne ural
ne And
ne jmp
ne eded
ne unet
Ġhe ars
Ġhe ard
Ġhe art
Ġhe aring
Ġhe ats
Ġhe lps
Ġhe yday
Ġob ser
Ġob liv
Ġob trusive
Ġbi omed
Ġbi omedical
Ġbi oterror
Ġbi ologically
Ġacc used
Ġprocessing Computational
Ġprocessing General
ond a
ond s
ond sworth
Ġno ble
Ġno tify
Ġno tices
Ġno isy
Ġno tificare
ular ies
ĠComput e
Ġjournal s
Ġset tlers
ĠSoci us
85 8
85 25
85 45
85 32
85 84
85 70
85 386
85 278
85 943
85 352
85 10016
Re o
Re ification
Re isner
Re eves
Re plika
Re ceived
Re illy
Re evaluating
Re ichley
Ġ7 2
Ġ7 4
Ġ7 9
Ġ7 20
Ġ7 93
Ġ7 13
Ġ7 01
Ġ7 34
Ġ7 77
Ġcent roid
Ġcent roids
Ġcent rally
Ġmedia List
âĢĶ "
âĢĶ \
ĠWorld s
Ed s
Ed elson
Ed mund
ie u
ie ux
Ġsim ulations
2019 04
2019 668
St ation
St age
St ong
St ability
St arr
St ubblefield
St even
St atement
St arship
St eve
St udy
ym ander
Ġul timate
Ġul timately
eng McC
eng Yu
eng appai
rev iews
rev ersibly
ĠEn ough
ĠEn ables
ĠEn tered
ĠEn gle
ĠEn sure
ĠEn tailment
ĠEn rico
38 2
38 15
38 92
38 130
38 128
38 2381
38 3316
38 362410
Ð° Ð´CatalÃłÐ§ÓĳÐ²Ð°ÑĪÐ»Ð°
Ġsoci ology
Ġsoci ological
Ġsoci ologist
Ġsoci etal
ason Shapiro
urr y
urr ing
29 27
29 57
29 68
29 602
ax Th
iqu e
ns on
Ġworld s
az ione
az iK
ĠZ ah
ĠZ han
ĠZ hu
ĠZ Ã¼r
ĠZ hi
ĠZ ulus
ĠZ eil
ĠZ bign
ĠZ amir
ĠZ aki
ĠZ imek
ĠZ ucker
ĠZ eit
ĠZ arem
ĠZ alok
ĠZ ulu
Ġpublic us
Ġpublic ized
oli ans
oli tica
Ġreg ularity
Ġreg ulating
Ġreg ards
Ġreg ional
Ġreg ressor
hy un
ĠMc Gaughey
ĠMc Donald
ĠMc Bride
ĠMc Kernan
ĠMc Morrow
ĠMc Queen
ĠMc Farland
ĠMc Aleer
Ġform ulation
Ġpredic ate
Ġpredic table
iversity Data
60 9
60 66
60 198
60 276
60 3010
Pro gram
Pro log
Pro duction
Pro action
Pro of
Pro fession
Pro blems
Pro duce
Pro tect
Pro posal
Pro digious
Pro pBank
Pro toscience
Pro perty
Ġexper tise
Ġalgorithm ically
à¤ ¶
à¤ ·
à¤ ķ
Ġserv ers
rol ogy
Ġstr ing
Ġstr ings
Ġstr ugg
Ġstr angers
Ġstr addle
ĠĠĠĠĠĠĠĠĠĠĠĠĠĠĠĠ ĠĠĠĠĠĠĠĠĠĠĠĠĠĠĠĠĠĠĠĠĠ
Ġpower house
Ġ17 3
Ġ17 6
Ġ17 8
Ġ17 90
Ġ17 98
Ġlearn ers
21 1000
21 93364
87 5
87 33
87 73
87 70
87 139
87 381
87 2734
87 338
87 656
SN E
SN LP
Ġef fort
ĠCon fer
ĠCon fusions
ĠCon nection
Ġspec ulated
Ġspec ulating
Ġspec ify
Ġspec ulative
Ġ10 6
Ġ10 20
Ġ10 26
Ġ10 2327
Ġ10 8742
Ġcomputer ized
Ġcomputer isation
gl ing
Ġy es
Ġy outh
Ġy ester
Ġy oung
Ġover t
Ġover ly
Ġover lap
Ġover load
Ġover laps
Ġover come
Ġover work
Ġover estimate
Ġover estimated
Ġover blow
Ġover look
ĠFor ce
ĠFor ex
ĠFor um
ĠFor res
ĠFor rest
ĠYork ers
crib ing
Ġknowledge Television
59 9
59 94
59 62
59 867
59 541
59 29850
59 87139
ml ess
ml oss
ml ns
ml pack
oo OÊ»zbekcha
Ġsc ary
Ġsc heme
Ġsc anning
Ġsc rap
Ġsc orn
Ġsc aling
Ġsc anned
Ġsc ares
Ġsc hemes
Ġsc rut
Ġsc ores
Ġsc alability
Ġsc outing
Ġsc ritte
Ġcall s
ĠAs ada
ĠAs lam
ĠAs pects
ĠAs ilomar
Ġlog ically
Ġlog istic
ĠPr ay
ĠPr ates
ĠPr esent
ĠPr akash
ĠPr abh
ĠPr agm
ĠPr avda
ĠPr edicting
Ġris en
ĠGlobal izing
ll abus
lan Gaeilge
min ing
min ute
min ster
Ġ8 3
Ġ8 35
Ġ8 96
Ġ8 465
Ġ9 4
Ġ9 6
Ġ9 82
Ġ9 81
Ġ9 84
Ġ9 000
Ġ9 977
Ġreal istic
Ġreal istically
ification ism
air ed
air es
the y
the on
the ory
the oretic
org etown
Ġdet ail
Ġdet ailed
Ġdet rim
ĠWik tionary
ĠWik iquote
ĠWik ibooks
ĠWik iversityData
28 17
28 161
28 50417
28 408601
45 4
45 91
45 21
45 1986
45 903
45 2957
ran o
ran co
sub stan
sub sequently
sub sid
Ġup take
Ġam isse
Ġam idst
Ġam plification
Ġam ateurs
rough out
Ġdef ect
Ġdef eating
Ġme ant
Ġme gaw
Ġme etings
Ġprov ed
Ġprov ision
Ġprov ince
Ġvari ation
Ġvari eties
Ġdisc redit
Ġdisc rimination
Ġdisc ernment
Ġproblem atic
67 8
67 9
67 00
67 23
67 17
67 45
67 05
67 07
67 011
67 409
67 60276
sp am
sp ell
sp ost
sp ection
sp elled
sp oradic
sp aCy
sp aghetti
vers ation
ick ed
ick Take
ential ism
fl on
fl ung
fl ourished
ale arning
Ġall er
01 93
39 59
39 284
39 2546
last ing
mon Saw
man uel
man Fl
orth ography
Ġ14 2
Ġ14 3
Ġ14 6
Ġ14 7
Ġ14 90
Ġ14 92
Ġ14 413
Ġ15 1
Ġ15 4
Ġ15 8
Ġ15 00
Ġ15 13
Ġ15 30
Ġ15 36
Ġ15 40
Ġ15 87
Ġ15 82
Ġ15 56
Ġ15 63
Ġ16 8
Ġ16 20
Ġ16 24
Ġ16 50
Ġ16 95
Ġ16 68
Ġgro oming
br ity
br uck
ry cks
Ġ18 2
Ġ18 3
Ġ18 4
Ġ18 26
Ġ18 22
Ġ18 30
Ġ18 38
Ġ18 32
Ġ18 48
Ġgo ing
ument alism
Ġ26 5
Ġ26 8
Ġgeneral ity
Ġgeneral ized
Ġgeneral istic
Ġgeneral izable
Sand ini
Sand holm
aj p
ĠAg ainst
ĠAg greg
ĠAg enz
ĠAg usts
ĠAg reeing
Ġwork ings
Ġwork load
37 0
37 2
37 3
37 5
37 8
37 33
37 42
37 84
37 72
37 51
37 485
37 016
37 2729
55 7
55 97
55 86
55 38
55 46
55 116
55 53
55 64
55 393
55 860
55 3037
Cont emporary
Cont inuum
Cont extualism
off s
off ense
par es
with in
Ġso le
Ġso il
Ġso umet
Ġcre ations
Ġcre ative
Ġcre atures
Ġcol or
Ġcol lap
Ġcol laps
Ġcol umns
Ġnatural ism
Ġreason able
Ġorgan ic
Ġorgan ism
Ġcommun ally
worth y
Ġfound ational
ĠTr ain
ĠTr ue
ĠTr ained
ĠTr uth
ĠTr ivial
ĠTr avel
34 2
34 6
34 7
34 8
34 49
34 43
34 79
34 786
34 910
raph ic
Ġext ent
Ġext end
Ġext rap
Ġext ends
Ġscience Formal
Ġscience Concepts
Ġscience Precursors
Ġwe ave
Ġwe igh
Ġwe aker
CITEREFM ichael
CITEREFM IT
CITEREFM aker
CITEREFM oring
CITEREFM arti
CITEREFM ashaghi
CITEREFM ania
CITEREFM ims
CITEREFM ikolov
CITEREFM ahdawi
CITEREFM orgenstern
CITEREFM nih
CITEREFM erkle
CITEREFM oravec
CITEREFM arc
CITEREFM isra
CITEREFM arshall
CITEREFM ilner
CITEREFM armouyet
CITEREFM aschafilm
CITEREFM ochizuki
CITEREFM ilmo
CITEREFM ichie
CITEREFM arkoff
CITEREFM ohriRostamizadeh
Ġwho ever
over ed
Ġperform s
05 1
05 25
05 66
05 674
05 353
99 2
99 82
99 44
99 608
99 957
sh aring
sh aped
Ġcap ita
Ġmark etization
oth ing
Ġass ignment
46 9
46 14
46 42
46 178
46 890
46 1099
li as
main ly
pen ing
res en
res ource
res ervoir
Ġdist ance
Ġdist inctive
Ġdist ractions
Ġdist urbing
Ġdist orted
Ġman age
Ġman ual
Ġman ually
Ġman aged
Ġman ager
Ġman eu
Ġman kind
ĠInd ividual
Ġwhen ever
82 24
82 26
82 27
82 86
An l
An t
An ti
An chorman
An krah
An atom
hen z
mit ting
wn Sandholm
Ġtyp ed
Ġpre ced
Ġpre trained
Ġpre cision
Ġpre paring
Ġpre cursors
Ġpre cluded
Ġpre jud
Ġpre liter
Ġpre assigned
ĠTechn ol
ĠTechn ical
stand ard
ĠEx act
ĠEx ample
ĠEx plain
ĠEx clusion
ĠEx change
ĠEx ecutive
ĠEx pectation
ĠEx tremely
ĠEx istence
Ġimp ose
Ġimp lying
Ġimp ersonal
Ġimp osing
Ġimp aired
weight s
35 1
35 4
35 8
35 15
35 13
35 30
35 36
35 48
35 140
35 457
35 4073
35 5065
35 603010
fd b
Ġtw in
Ġtw ice
Ġtw elve
ital ist
ĠRev olutions
ĠNe ue
ĠNe uman
ĠNe ha
ĠNe eds
ĠNe ither
ĠNe had
ĠNe urath
06 13
06 24
06 44
06 57
06 92
06 974
06 557
Tr ust
Tr acks
Tr igram
iss a
ĠAp ps
ĠAp ply
ĠAp oor
ĠAp ollo
ĠAp artheid
ĠAnd rzejewska
ĠAnd rÃ©
ĠAnd resen
ider ed
Ġred esign
Ġred dit
Ġred istributed
08 193
08 239
08 979159
09 5
09 6
09 21
09 66
09 54
Qu San
Qu antit
Qu otations
ey ing
ey Singh
vel le
Ġthem e
Ġoper ated
Ġoper ieren
2016 469
Ġph arm
Ġph otos
Ġph otojournalism
Ġph oned
ĠHow e
Ġwhere from
Ġrecognition Hidden
44 1
44 3
44 7
44 99
44 280
44 6066
89 5
Ap ply
Ap prentices
Th ro
Th us
Th ough
Th ird
Th ought
Th inking
Th rash
Th roughout
han ie
pos ed
Ġse ated
Ġse ized
Ġse eds
Ġse gments
Ġde eds
Ġde alt
Ġde growth
Ġdeep s
Ġdeep en
Ġdeep fake
Ġ13 00
Ġ13 80
Ġ13 22
Ġtop ological
ĠSch ank
ĠSch ubert
ĠSch ramm
ĠSch oelkopf
Ġlab oratories
197 9315
Ġcontrol s
Ġcontrol ling
Ġcontrol lers
pecial ization
Natural ism
ced review
sc he
sc ene
sc ruff
sc opy
sc offs
rey Ã²l
rey Osborne
ĠSh ared
ĠSh ih
ĠSh aron
ĠSh afi
ĠSh arma
ĠSh mil
ĠSh arpe
ĠSh uttle
ĠSh adow
ĠSh unzhi
ĠSh ows
ĠSh irley
ĠSh ortly
ĠSh ikah
ĠSh oko
Ġstatistical ly
Ð°Ñ ħÐ°
Ġscreen ing
") .&#
Con sequ
Con fusion
Con nect
Con fir
Con nectionism
Con versation
Ġear thqu
Ġsup plement
Ġsup ersmart
lect ed
lect ance
Ġcor ner
Ġcor onations
Ġdom ination
Ġdom estically
ilar ity
Ġloc ated
Ġloc ates
Ġloc ally
Ġloc omotion
Ġret ained
Ġret urns
Ġret reated
Ġret rospect
Ġthere after
Ġthere abouts
ĠDan ish
ĠDan ie
ĠDan ilo
ateg ies
CITEREFS cientific
CITEREFS mith
CITEREFS ilver
CITEREFS ainato
CITEREFS rivastava
CITEREFS moliar
CITEREFS erenko
CITEREFS lyusar
CITEREFS agar
CITEREFS tra
CITEREFS indhu
CITEREFS egev
CITEREFS arle
CITEREFS olomonoff
CITEREFS ilva
CITEREFS ynced
uction al
Ġidentif iers
Ġidentif iable
110 1
110 3
110 5
110 8
110 19
110 62
110 414
Cl ibrary
Cl inical
Cl arify
Cl imbing
Cl aytronics
áĥ ĽáĥĲáĥłáĥ
Ġes che
Ġes pion
ina Lentzos
inn a
inn ovation
Ġav ec
ays ia
ĠEurope ans
Ġ30 3
Ġlogic ian
Aut or
Aut onomous
Ch i
Ch ris
Ch ina
Ch apter
Ch iu
Ch ipl
Ch icago
Ch ildren
Ch akravartty
Ch almers
Ch alla
Ch ristian
Ch arniak
Ch aracter
Ch unks
reg ression
reg ulation
reg ardless
ĠMe ad
ĠMe gan
ĠMe ets
ĠMe era
ĠMe eting
ĠMe asures
ĠMe ikle
ĠMe itei
ĠRep rinted
Ġglobal ly
Ġglobal ization
Ġglobal ised
Ġbeh aves
ĠStates Fr
ĠStates Czech
ĠMcC all
ĠMcC auley
ĠMcC usker
02 10
02 90
02 208
49 6
49 55393
65 1
65 2
65 3
65 20
65 70
65 267
65 831
65 707
75 1
75 2
75 40
75 87
75 39
75 908
vis ory
vir tuous
Ġpubl ish
ĠJohn ston
ford ed
Sh un
Sh ould
Sh oemaker
Sh annon
Sh ogun
Sh iGoh
dition ally
ene ity
ene urs
enn ial
att dÃ¼
Ġhand s
Ġhand ful
Ġhand book
Ġhand ling
Ġhand outs
Ġhand icaps
Ġstudy ing
07 4
07 00
07 12
07 187
07 501
07 051
32 2367
77 38
77 67
83 55116
Us Ã³n
bab ies
hu it
hu ysen
ph s
ph ants
ph onology
Ġpart y
ock i
Ġdesign er
Ġdesign ing
Ġdesign ation
Ġdesign ated
Ġmathema ticians
96 9
96 21
96 94
96 135
96 650
96 882
Text ual
Text books
cern ed
ĠX s
ĠX uan
ĠX iant
ĠX iup
ĠX enof
Ġec lips
Ġec clesi
Ġsec ular
Ġsec ures
Ġsec ession
Ġsec rets
Ġsuc ceed
its elf
Ġnon elites
Ġnon commit
Ġnon bure
Ġ23 23
... ."
Ġtechnology Pages
Ġmarket place
Ġmarket places
Deep learning
Deep Dream
Deep Speed
Le o
Le one
Le Net
Le Cun
Le Manning
serv ation
serv ices
Ġeth icists
Ġsur face
Ġsur rogate
Ġsur prising
Ġpolitical ly
ĠAd i
ĠAd versarial
ĠAd dress
ĠAd vent
ĠAd dison
ĠAd Sense
ĠAd elzadeh
ĠAd cock
ĠAd ditive
ĠAd venture
ĠAd riann
ĠAd visory
ĠAd ditionally
Ġfunction ality
Ġmem ories
Ġmem rist
Ġ12 97085
ĠDeep Dream
ĠDeep fake
ĠDeep fakes
ĠDeep Face
Ġclassif ies
.). _
Gener ate
Id entity
Id ea
Is olation
arm akirti
Ġperson ally
Ġperson ality
Ġperson hood
Ġcirc a
Ġcirc le
Ġcirc ulate
Ġcirc ulates
Ġcirc uits
els at
els mann
Ġlimit ing
Ġlaw yers
Ġlaw yer
ĠPet e
ĠPet ru
ĠPet rogr
Ġiss ued
CITEREFB ates
CITEREFB engio
CITEREFB urg
CITEREFB urk
CITEREFB ishop
CITEREFB eal
CITEREFB uiten
CITEREFB ushwick
CITEREFB ertini
CITEREFB uckley
CITEREFB zdok
CITEREFB yford
CITEREFB arfield
CITEREFB uruk
CITEREFB abuta
CITEREFB asselGlaab
CITEREFB axTh
CITEREFB ranco
Ġconsider ations
Ġautom ate
Ġautom ating
Ġautom atise
Ġautom obiles
Ġoptim ism
Ġoptim ize
Ġoptim istic
Ġoptim ise
Ġoptim izes
04 12
04 50
04 67
04 391
04 716
04 357
66 6
66 10
66 43
66 64
66 16181
81 20048
of fered
Ġest ate
Ġest eem
Ġelect ronics
Ġelect roc
Ġelect rically
Ġco al
Ġco ining
Ġco artic
Ġco arse
Ġco herent
Ġinvol vement
Ġfin s
Ġfin al
Ġfin ancing
Ġfin anced
Ġmulti platform
Ġmulti layer
Ġmulti plication
Ġmulti player
Ġtools et
ĠRo ose
ĠRo botic
ĠIs n
ĠIs lam
Ġlinks CS
Ġconcern ing
Ġstruct ural
Ne iger
Ne utral
ai i
che z
che lle
à¥ ī
Ġsit uated
ĠCl ay
ĠCl uster
ĠCl aud
ĠCl osed
ĠCl osing
ĠCl iffs
ĠCl arend
ĠEm re
ĠEm ma
ĠEm otion
ĠEm bedding
ĠEm bodied
ĠEm nlp
ĠEm irates
Ġview er
Ġview point
Ġ24 3
Ġ24 7
Ġ24 10
Ġ24 79
Ġ25 2
Ġ25 4
ĠStud io
ĠStud ied
ĠChris tia
125 3
Ġappl ies
Ext ending
Wiki Wiki
vention ally
Ġamong st
Ro le
Ro ivain
au ÐľÐ¾Ð½Ð³Ð¾Ð»áĢĻ
til us
Ġpot ent
Ġpot atoes
ĠAut o
ĠAut ocracy
ĠAut umn
Ġbr and
Ġbr ings
Ġbr ute
Ġbr idge
Ġbr anded
Ġbr idging
uster Sha
ĠCent ering
ĠCent red
Ġhigh ways
ĠGe o
ĠGe ist
ĠGe off
ĠGe ograph
ĠGe olitica
ĠGe orgetown
uck e
uck stein
ĠStep hanie
Ġconsum e
Ġconsum mated
Ġsocial ist
Ġsocial ization
ĠAssoci ata
56 2
56 9
56 88
Barrett Kaw
Im re
Im ages
Im plicit
Im partiality
Im ieliÅĦ
Im merwah
Im manuel
ze zin
Ã¼ tschPolskiPortuguÃªsQaraqalpaqsha
Ø± ÙĪ
Ø± ÒļÐ°Ð·Ð°ÒĽÑĪÐ°KiswahiliK
Ġ{ {
orn ikSt
Ġsign s
Ġsign ed
Ġsign ature
Ġsign atories
Ġown er
Ġfoc ussed
Ġmind Philosophers
Ġbl end
Ġbl ame
Ġbl urring
Ġback ward
Ġback wards
Ġback fired
Ġback propag
Ġwrit er
Ġwrit ings
ĠPar mar
ĠPar ties
ĠPar fit
ĠPar oma
ĠPar adox
ĠPar vez
ograph ics
ĠBer dahl
ĠBer ryhill
ĠGu o
ĠGu ys
ĠGu illa
ĠGu ida
Ġimpro vement
Ġimpro vements
Ġresp ond
Ġperce ives
Ġperce ptiv
Ġjournalism News
ĠSocial ist
57 3
57 83
57 2487
69 84
As lam
As imov
ES P
Un ity
Un like
Un published
Un iform
Un manned
aut hors
aut omation
iet ta
arch s
Ġcertain ly
Ġcertain ty
Ġbusiness men
ĠMark us
ĠMark off
Ġread iness
ĠPl ug
ĠPl att
ĠPl umb
ĠPl ataniotis
ĠPl urib
ĠPl essis
Ġgr ass
Ġgr ants
Ġgr anted
ĠWay ne
ĠWay mo
vey ors
CITEREFH ern
CITEREFH inton
CITEREFH iller
CITEREFH augeland
CITEREFH empel
CITEREFH owe
CITEREFH utchins
CITEREFH odge
CITEREFH arnad
CITEREFH enderson
CITEREFH ernandez
CITEREFH ammond
CITEREFH eaven
CITEREFH olley
CITEREFH ansonBol
CITEREFH ornikSt
CITEREFR ay
CITEREFR ose
CITEREFR esearch
CITEREFR yan
CITEREFR amezanpour
CITEREFR awlinson
CITEREFR othman
CITEREFR udin
CITEREFR obitzski
CITEREFR opek
CITEREFR eddy
CITEREFR oweis
CITEREFR ansbotham
CITEREFR asekhschaffe
CITEREFR ainie
CITEREFR obinson
CITEREFR aziK
class es
class ical
class ifies
uger Stubblefield
0000 6
0000 575
Ġopen ly
Ġopen ings
Ġopen ai
ĠComputer Weekly
ĠTrans formation
ĠTrans lation
ĠTrans human
ĠTrans national
ĠTrans mitting
ĠEnglish Ú©ÙĪØ±Ø¯ÛĮÐ¡ÑĢÐ¿ÑģÐºÐ¸
ĠEnglish SlovenÅ¡Äįina
58 19
58 37
58 146
58 113
58 147
58 488
Go ertzel
Pr ivate
Pr akash
Pr agm
Pr atesP
aid i
cer ous
cer ality
con y
con ll
con ceptual
con ceptions
con clusion
con formant
con ventionally
Ġspe aker
Ġspe eches
ĠAm i
ĠAm ir
ĠAm os
ĠAm ster
ĠAm jad
ĠAm endment
ĠAm herst
Ġfair est
Ġlinguistics Speech
ister ed
Ġhum ming
Ġhum orously
Ġprof ile
Ġprof iles
Ġprof itably
ĠBy ron
ĠBy ford
ĠWe ak
ĠWe jdan
ĠWe instein
ĠWe apons
CITEREFG offrey
CITEREFG iri
CITEREFG ray
CITEREFG uid
CITEREFG oswami
CITEREFG ibbs
CITEREFG AO
CITEREFG alvan
CITEREFG omaa
CITEREFG erovitch
CITEREFG orichanaz
CITEREFG eist
Ġevent ual
Ġprovid ers
Ġlocal ization
ĠDaniel le
47 1
47 2
47 4
47 8
47 80
47 21
47 87
View ed
gress or
Ġpo inted
Ġpost s
Ġpost age
Ġpost ings
Ġpost processing
Ġpost masters
itz erland
Ġcri tiques
Ġms u
ĠMor al
ĠMor se
ĠMor eland
Ġrele vance
ĠGener ates
ĠGener ally
ĠEd o
ĠEd elson
ĠEd itor
ĠEd mund
ĠEd ionwe
ĠEd zion
Ġexist ed
Ġ197 4
Ġ197 6
collap sible
Ġcontin ues
Ġcontin ually
Ġcontin uously
Ġatt ain
Ġatt ack
Ġatt ribution
Ġatt acking
Ġatt ributes
Ġatt endees
Ġadv ised
Ġadv ices
Ġplay ers
Ġshort ages
ĠReg ulating
ĠReg ional
ĠComputational ism
43 22
On ly
ĠQu ine
ĠQu oc
ĠQu illian
ĠQu antitative
ĠQu ickTake
Ġaud it
Ġaud its
isc ate
isc hes
isc Ø§ÙĦØ¹Ø±Ø¨ÙĬØ©
eless ly
Ġfeat uring
Ġfeat ured
Ġmon ism
Ġmon ks
Ġmon otonic
Ġmon opol
Ġmon opoly
Ġmon archs
Ġwid est
ĠRec ently
ĠRec onstr
ĠRec idiv
ĠRec ognizing
ĠCre ating
ĠCre ativity
ĠIm ages
ĠIm plications
ĠIm plement
ĠIm plicit
ĠIm aging
Ġless on
Ġless ening
Ġ27 1
Ġ27 3
Ġ27 4
Ġ27 190830
2005 002
ĠComp are
ĠComp anies
Ġcontext s
Ġcontext ualism
48 4
48 99
48 0085
iod icals
ken stein
ÑĢ Ñı
Ġent ail
Ġent ering
Ġent ry
Ġent wined
Ġent rench
report ed
Ġprom ised
Ġprom otion
Ġprom ulg
Ġprom oting
Ġprom pting
Ġinc hes
Ġinc ubators
Ġinv entor
ĠAf sane
Ġdev out
Ġdev iant
Ġdepend able
Ġdepend encies
Ġmis used
Ġmis placed
Ġmis lik
Ġmis spelled
Ġmis classifies
Ġmis conceptions
ilit erate
Ġrefer encing
ĠBe er
ĠBe al
ĠBe am
ĠBe bo
ĠBe kh
ĠBe ij
ĠBe hnke
ĠBe hind
ĠBr ay
ĠBr uce
ĠBr ains
ĠBr no
ĠBr entano
ĠBr andon
ĠBr uges
ĠBr ynjolf
ĠBr uckstein
ĠBr zezin
ĠWh ose
Ġconstr ain
Ġconstr uctive
Ġconstr uctively
ĠHe ang
ĠHe uristic
ĠHe aven
ĠHe uristics
ĠHe idegger
CITEREFL aw
CITEREFL ohr
CITEREFL ighthill
CITEREFL arson
CITEREFL ouis
CITEREFL ungar
CITEREFL yakh
CITEREFL enat
CITEREFL askowski
CITEREFL ipartito
CITEREFL evy
CITEREFL ippi
CITEREFL uPl
CITEREFL akoff
CITEREFL ightman
CITEREFL indsay
CITEREFL ugerStubblefield
ounter ed
Ġobserv ing
Ġobserv ers
Ġobserv able
Ġcenter ed
Trans fer
Trans cript
Trans late
ĠChristian o
76 16
76 15
76 28
76 109
95 45
95 39
95 82
95 284
95 343
95 44280
CM A
How e
Soci ocybernetics
go ogle
ling ly
ling ford
ling ridge
ling Ball
ling huysen
rist on
vte Natural
vte John
vte Evolutionary
vte Existential
vte Journalism
vte Robotics
vte Glossaries
vte Subfields
vte Emerging
Ġsens ory
Ġsens ationalism
Ġsignal ed
Ġsignal ing
ater al
2010 55
Ġinst inct
Ġfe es
Ġfe els
Ġfe asible
Ġfe asibility
Ġfollow ers
exp Ã©
ĠDavid son
ĠWar ming
ĠWar field
ĠWill ie
ĠWill amowski
ĠArab sat
ĠArab idop
CITEREFC arter
CITEREFC atal
CITEREFC ornell
CITEREFC iaramella
CITEREFC NA
CITEREFC ambria
CITEREFC iresan
CITEREFC ybenko
CITEREFC ortes
CITEREFC rawford
CITEREFC uddy
CITEREFC surka
CITEREFC olton
CITEREFC ellan
CITEREFC opeland
CITEREFC ongressional
CITEREFK atz
CITEREFK lein
CITEREFK urzweil
CITEREFK issinger
CITEREFK uperman
CITEREFK endall
CITEREFK ohavi
CITEREFK obielus
CITEREFK oza
CITEREFK asperowicz
CITEREFK ateman
CITEREFK irk
CITEREFK opel
CITEREFK ishorjit
CITEREFK ariampuzha
CITEREFK aplan
CITEREFK amila
CITEREFK oskenniemi
Ġvol unt
Ġvol atility
114 12
Ġtransform ing
Ġtransform ational
Ġtransform ative
Ġauto encoders
Ġhealth ier
"],[" (
"],[" \
"],[" ?","
54 362
54 1317
84 14
84 86
84 184
;âĢĵ &#
Ad dress
Ad Sense
Ad elzadeh
CL T
It aly
Mc Nair
Mc Donald
Mc Bride
Mc Garry
Mc Kernan
Net flix
hens ive
ĠQ ing
ĠQ wen
ĠQ ueen
ĠQ uality
ĠQ UAL
ĠQ ualitative
era is
till ations
rel ative
rel atively
rel igious
ĠAnal og
ĠAnal ysts
Ġmen struation
Ġbo is
Ġbo ys
Ġbo ught
Ġbo asts
urg er
Ġrece ivers
ĠPh uc
ĠPh ara
ĠPh oto
ĠPh rase
ĠPh otojournalism
ĠPh illips
other mal
other apist
Ġassoci ate
ĠFin al
ĠFin ding
ĠFin ite
ĠFin io
ĠEconom ically
Ġalong side
CITEREFD uan
CITEREFD yson
CITEREFD ennett
CITEREFD asgupta
CITEREFD ockrill
CITEREFD ickson
CITEREFD okas
CITEREFD ovey
CITEREFD iFeliciantonio
CITEREFD aniel
CITEREFD avies
CITEREFD engYu
CITEREFD eySingh
CITEREFW arren
CITEREFW riter
CITEREFW anta
CITEREFW irtz
CITEREFW addell
CITEREFW iggers
CITEREFW urman
CITEREFW allach
CITEREFW odecki
CITEREFW inograd
CITEREFW ilkins
CITEREFW engMcC
CITEREFW asonShapiro
ĠOn ce
ĠOn cology
ĠOn omaze
ĠStr ong
ĠStr Ã¶
ĠStr inghini
127 8
Ġcommunication Sociology
Ġphys icist
Autom atically
Autom aton
Ġquestion ed
Ġquestion ing
53 1029
94 2584
Formal izing
He uristics
He angClogher
Human ity
Human oid
No am
New ell
New quist
Par enti
Par ticle
Par adigm
Par oma
Par adox
Par aphrasing
Se zgin
To climit
cap e
ded uctive
med al
Ġtype Hidden
Ġpos itions
Ġint ents
Ġint uition
Ġint uitive
Ġint ensified
Ġdr ive
Ġdr astically
Ġdirect s
Ġdirect ing
ĠSpr ing
ĠCont emporary
ĠCont ras
Ġlink ing
Ġlink Pages
ung Green
ung hyun
ĠWood row
Ġcomb at
Ġcomb inatorial
ĠEl if
ĠEl ite
ĠEl sts
ĠEl iezer
ĠEl aine
ĠEl sag
Ġvalue Articles
Ġ29 44
ĠOpen CV
Ġprac tically
Ġdeterm ining
Ġdeterm ined
Ġdeterm ination
Ġcolle agues
52 12
52 18
52 128
64 298
CS CW
Fran z
Fran cisco
LS P
Rec ommend
Rec ognizing
lor idi
mend ations
world s
Ġsmall est
Ġocc urs
Ġcar ry
Ġcar ved
Ġcar avans
Ġcar toons
Ġcar elessly
Ġche aper
Ġcop ying
Ġcurrent ly
Ġdem ographic
Ġbig ger
Ġnow iny
Ġnow ydh
Ġnow odhow
ĠCol ton
ĠCol ony
ĠCol laborative
Ġhistor ic
Ġhistor ian
Ġhistor ians
Ġproper ly
1016 8773
ĠGr ace
ĠGr adient
ĠGr igor
ĠGr aduate
ĠGr acie
ĠGr aber
ĠGr ayling
ĠEv aluated
Ġann ually
ordan cer
ĠKnowledge ST
Ġeval uating
Ġeval uates
trans istor
Ġcomputation Main
Inter est
Inter mediate
Inter theoretic
Ġassum ing
Ġcorre lation
Ġcorre ctions
ĠReport ers
Ġbrain s
And y
And roid
Col end
Col loc
Col lingridge
Def initions
For estRe
Other Historical
Open NN
Word Net
Word sEye
block quote
gener al
gener ation
gener ative
gener als
Å¡ ka
Ġi Ph
Ġel se
Ġel imination
Ġel usive
Ġide ally
Ġide ological
Ġend ings
Ġend orsed
Ġsuggest ing
Ġpop ulace
Ġins ist
Ġins ect
Ġins ert
Ġins ists
Ġins ulated
Ġins iders
Ġins ertion
Ġins urmount
eler ating
ĠAb it
ĠAb id
ĠAb ility
ĠAb bas
ĠAb elson
ĠAb ingd
ĠAb beel
Ġlarg ely
Ġhap tic
ĠBro ok
ĠBro thers
ĠBro dsky
ĠBro tzakis
ĠBro dley
ĠBusiness es
ĠBusiness people
Ġgu y
Ġgu ilt
Ġgu ided
Ġgu arant
Ġgu idance
ĠHuman oid
ĠFound ed
Ġstart up
Ġstart lingly
sequ ence
Ġtrav aux
Ġaction able
Ġclos er
Ġclos ure
Ġclos est
Ġclos ings
Ġdiss ent
Ġdiss imilar
All enna
Ġgrow s
Ġcapital ist
Ġcapital ism
Ġcapital ize
Ġcapital izing
Ġcapital izes
Ġinvest or
Ġinvest ors
Ġinvest ments
Ġcharacter ises
73 867
98 12
98 17
Bi osemiotics
CA A
CA L
CA N
CA O
DA G
DA RP
Ph Rv
Ph ysRev
aud ot
fe ited
fe edback
human ised
me asured
ta ire
Ġachiev es
Ġtheoretical ly
Ġsynt actic
Ġsynt hesize
Ġpage ant
Ġintegr ates
Ġintegr ating
Ġfac ility
Ġfac ets
Ġfac ilities
Ġfund ed
Ġbas ket
Ġnov us
Ġnov ost
Ġnov ini
Ġnov iny
Ġnov Ã½
Ġnov iney
Ġnov osti
Ġlist ing
ĠNo tices
ĠNo Ã«
ĠNo tiz
ĠNo ticed
ull ah
term ism
Ġgreat est
ĠInter est
ĠInter act
ĠInter disciplinary
Ġcommercial izing
ĠHu xley
ĠHav en
Ġver acity
Ġadverti sements
Ġplace hold
Ġauthor itative
Ġemerg es
Ġemerg ent
Ġemerg ency
Ġformal ized
Ġspecial ly
Ġspecial ize
Ġspecial ty
Ġdiscuss ing
Ð°ÑĢ ÑĩÐ°
Ġrequire ment
Ġrequire ments
Ġmaint aining
Ġmaint ains
CO MPAS
Em bodied
Ev aluation
Evolution ism
John ston
Mind s
Or der
Or nith
Pars ons
Sch arre
Sch ank
Sch ubert
Sch midt
Sch ulz
Sch oelkopf
Sch usterSha
Sim onite
Sim ultane
Sim ulator
Sim ilarity
mod o
mod alities
sol ve
sol ver
Ðĳ Ñĥ
esign ated
Ġsum mer
Ġsum mary
Ġpass es
Ġpass im
Ġpass ages
Ġpass Ã©
Ġpass engers
Ġcr imes
Ġcr ackdow
Ġcr yptoc
Ġintro ducing
Ġintro duces
ict ory
ĠAcc ident
ĠAcc urate
ĠAcc uracy
Ġfr actions
Ġmass es
Ġmass ively
Ġwro ught
ĠSur veillance
ĠSur vive
ĠSur veys
ĠCan adian
Ġlow ers
Ġref ines
Ġref ining
Ġref lection
ĠPower ing
Ġpropos es
Ġpropos itional
ĠBut ton
ĠBut tazzo
ĠDo omed
ĠDo ctrine
ĠDo ubled
ĠWork s
Ġasp ect
Ġasp irations
CITEREFV inge
CITEREFV inod
CITEREFV inyals
CITEREFV OA
CITEREFV aish
CITEREFV erma
Ġpres ences
Ġpres aging
Ġpres criptive
Ġpres cribed
Ġpres umpt
Ġpres erving
Comp ression
Comp atible
Comp anion
Ġemploy ee
Reg ulate
Reg ulating
ĠĠĠĠĠĠĠĠĠĠĠĠĠĠĠĠĠĠĠĠĠĠĠĠĠĠĠĠĠĠĠĠ ĠĠĠ
ĠĠĠĠĠĠĠĠĠĠĠĠĠĠĠĠĠĠĠĠĠĠĠĠĠĠĠĠĠĠĠĠ ĠĠĠĠĠĠĠĠĠĠĠĠĠĠĠĠĠĠĠĠĠĠĠ
Ġgroup ed
Ġgroup ing
ĠAutom atic
Ġdissemin ation
415 89
524 00
70 80
78 28
78 356
79 93
Cent ering
Fl uid
Fl orez
ML As
dec ade
mann isch
xim ate
Ã¢ ÐľÐ°ÐºÐµÐ´Ð¾Ð½ÑģÐºÐ¸
èªŀ GÄ
Ġtech policy
Ġsci entist
Ġsenti ments
Ġcost ly
Ġfail s
Ġfail ure
Ġfail ures
Ġfurther ing
Ġbroadcast s
ush ima
Ġlife time
ĠWall ace
Ġcond uit
Ġcond enses
ĠHar ri
ĠHar old
ĠHar ry
ĠHar cour
ĠFace Net
Ġstory telling
115 85
ĠChat bots
ĠChat ela
Ġchat rooms
145 86
145 39
145 2734
Ġspread ers
itiz ing
Ġindepend ently
Ġhelp ing
ĠWikidata Wikipedia
ĠWikidata Use
Ġeffect ors
Ġsuper human
Ġsuper dumb
Ġsuper charg
Learning Definition
Transform ers
Ġannoun ce
Ġannoun cers
Ab elson
Ab stract
Dis ability
Dis rup
Dif ferent
Ge ist
Ge ology
Ge orge
Ge ometry
Mathema tica
Sp in
Sp ell
Sp ark
Sp oken
Sp iking
Sp encer
Sp iegelhalter
bl ind
journal s
men tions
men Ã§eÐ£ÐºÑĢÐ°ÑĹÐ½ÑģÑĮÐºÐ°
uan oÄĮeÅ¡tinaCymraegDansk
|| .
Ã§ aà°¤
ÛĮ Bahasa
erge tics
Ġtele communication
hel en
ank Abelson
Ġpur veyors
Ġpri ze
Ġcalc ulate
Ġinstit ution
Ġinstit utional
Ġfun neled
Ġfun erals
Ġfile Special
Ġmin ors
Ġmin isters
Ġmin istry
Ġbet ray
omin ators
ĠSil ent
ĠSil va
ĠSil berstein
ĠMat uran
ĠMat heson
ĠMoh d
ĠMoh amed
ĠMoh sen
ĠNational United
ĠBen ioff
107 1
107 67011
ĠLaw s
CITEREFP oria
CITEREFP inker
CITEREFP ennachin
CITEREFP avel
CITEREFP iper
CITEREFP lumb
CITEREFP ittis
CITEREFP owerPym
see king
ĠStra us
ĠStra uss
117 1550
Ġimplement ing
Ġevery thing
Ġevery where
Ġaccess ible
ĠAlpha Zero
ĠAlpha Star
ĠAlpha Tensor
ĠAlpha Proof
ĠAlpha Geometry
ĠThere fore
Ġequ ation
Ġequ ally
Ġequ ality
Ġtechnologies Field
Ġquick ened
Ġaccount able
Ġaccount ability
Ġaccount ants
Step hens
Ġsupport s
Ġsupport ed
Ġnumer ators
Ġargument e
Ġsecond ary
Ġmembers hip
Ġpersonal ized
Ã¼r dig
Ġrespons ive
McC auley
McC usker
Ġcorrect ing
Ġrecommend er
500 87
68 13
68 33
?" ).
?" ),
?" ".
Be al
Be es
Be am
Be ginning
Be hnke
Elect rical
Elect roc
Nor bert
Publ ications
RC H
Rev iew
Rev eal
Random ForestRe
We ak
We ka
aM aur
aM idura
aM urphy
ao Tan
aÃ įslenskaItaliano×¢×ĳ×¨×Ļ×ª
aÃ «l
aim ag
eg uards
lab eling
nov el
pat ent
pat cog
small er
writ ing
Ġu plo
Ġte ach
Ġte eth
arian ces
Ġsymb iotic
Ġsepar ation
Ġcour iers
Ġiniti ated
Ġiniti ative
Ġfar ming
Ġfit test
Ġder ive
Ġder ives
Ġbro thers
Ġband i
Ġband o
Ġbroad er
Ġbroad est
Ġtool kit
ĠSc ene
ĠSc assellati
ĠSc alable
ĠSc ully
ĠSc oping
ĠSc andinav
ĠSp ain
ĠSp ender
ĠSp encer
ĠSp ectator
ĠSp iegelhalter
ĠSp inoza
ĠSp ectrum
ĠSp onsorship
ĠMac Bride
ĠMac Gre
ĠMac Kay
ĠMac quari
ĠMethod ological
ĠTelevision s
ĠTelegraph isches
ĠRis ing
Ġlik ewise
Ġlack ed
Ġlack ing
Ġlack eys
Ġproduc er
Ġproduc tive
Ġproduc tivity
ĠBas que
Ġgraph s
ĠDesign s
ĠDesign er
ĠDesign ing
ĠWhat Is
Ġcontr ary
ĠHistor ical
ĠHistor ians
ĠHistor ien
books Wikinews
ĠFran k
ĠFran cis
ĠFran cesco
ĠFran kenstein
CITEREFF ox
CITEREFF ung
CITEREFF leer
CITEREFF earn
CITEREFF riedman
CITEREFF igueiredo
CITEREFF afoutis
CITEREFF ordCol
CITEREFF reyOsborne
CITEREFF riston
CITEREFF loridi
Ġarchitect ures
ĠUs ed
ĠUs es
ĠUs ually
peti tio
ĠCha ucer
ĠChristop h
Ġcho oses
ĠCommons Meta
ĠCommons WikiversityWikidata
ĠCommons Quotations
146 367
146 1670
Ġrecord ings
Ġcentral ity
Ġcentral ize
CITEREFMc Kinsey
CITEREFMc Gaughey
CITEREFMc Quillan
CITEREFMc Garry
CITEREFMc Morrow
CITEREFMc Farland
Ġspeed y
Ġspeed ing
Ġprior itize
214 37
214 7668
Dist ant
Dist elrath
Ind ia
Ind ustrial
Ind uctionism
Log istic
SA C
SA NLP
Sup erhuman
Vari able
Will amowski
fr id
fr ac
my er
new ly
Ġess ence
Ġess entially
Ġtreat ment
Ġaid s
tif ied
tif iers
eni u
ret ail
Ġpages Articles
Ġpages Use
Ġpages Permanent
Ġcross ed
Ġcross over
Ġflow s
Ġwire less
Ġtook e
ĠSe ason
ĠSe zgin
ĠSe unghyun
ĠSol ve
ĠSol ving
ĠSol orio
ĠSouth erners
ĠMan ia
ĠMan off
ĠMan oj
ĠMan jot
ĠMan ipulates
ĠMet ta
ĠMet eor
ĠMet rics
ĠMet abolic
ĠMet alearning
ĠTo ews
ĠTo ys
ĠTer rified
ĠCO LI
ĠCO IN
Ġlast ed
ster Shannon
even ing
Ġrepl anning
Ġrepl acing
Ġrepl icate
Ġremain ing
Ġremain der
ĠPer ception
ĠPer ceptions
ĠPer ihan
ĠPer ennial
ĠPer iodicals
ĠPat ent
ĠPat ricia
ĠPost age
ĠPost human
Ġgood will
ĠJordan ians
105 18163
105 38128
fici encies
ĠDisc over
ĠWat anab
ĠHol t
ĠHol st
ĠHol ley
ĠHol lywood
ĠHall ucination
ĠHall ucinations
ĠLi u
CITEREFJ ones
CITEREFJ eff
CITEREFJ arow
CITEREFJ ozefowicz
CITEREFJ aiswal
Ġvis itors
Ġvis cerality
ĠOb ject
ĠOb solete
ĠOb vious
ĠOp inion
ĠOp inions
ĠOut side
ĠOut standing
ĠOut lier
ĠOut comes
ĠKar afiÃ¡t
ĠKar olina
Ġkind er
linear ity
yson Narayanan
Ġadop t
Ġadop ting
Ġemotion ally
Expl ained
Expl icit
Expl oratory
Ġaccording ly
Ġexpress ly
Ġexpress ament
Ġassist ant
ĠExper tise
Ġreduc es
Ġseem ingly
ĠXin an
Ġsurvey ed
Ġreaders hip
ĠGeneral ization
ĠGeneral izations
Ġmonth ly
Ġmonth lies
Ġhappen ings
Ġtravel ing
ĠBasic Books
120 5
120 6
120 7
193 0
193 2
193 9
193 22968
216 9
216 1592
219 2
219 8584
211 3
211 8
211 201055
318 5
318 96135
585 42
August e
Chat bots
Pl ay
Pl ato
Pl anting
Pl attdÃ¼
Red uctionism
Sub ject
Sub stance
Sub marine
Str ong
Str inghini
Str aubhaar
Str ategies
dd ff
dd ddff
des cription
hold ers
kern el
lov ing
ng bÃ¨
ners hip
spec ies
Ġenc ompass
Ġenc ountered
Ġsw eat
Ġsw itch
Ġsw iftly
Ġsw eeping
Ġpolic e
Ġpolic eman
Ġpsych ological
Ġpsych ologist
Ġpsych olinguistics
Ġpsych otherapist
Ġpaper clip
Ġcare ers
Ġcitiz enry
Ġintr icate
Ġintr usive
Ġfil m
Ġfil es
Ġfour th
Ġfiction al
Ġdeb t
Ġdeb ugging
Ġdeb acles
Ġdiagnos es
Ġdiagnos tic
Ġmov es
Ġmov ing
Ġmillion aires
Ġmaxim izing
Ġbad ly
Ġnormal ize
Ġtoken ization
ĠSup er
ĠSup rem
ĠSup reme
ĠSha h
ĠSha una
ĠSha ikh
ĠMil ad
ĠTim mer
167 99
Ġhard er
Ġhard ly
Ġharm ed
rich mond
Ġrandom ly
109 888
109 458
ĠWol fg
ĠWol leb
ĠWith in
Ġconcept ual
ĠHarv a
ĠGold stein
ĠGold wasser
ĠGold smith
ĠForm ative
Ġexact ed
Ġexclus ively
que hanna
ĠOf com
Ġneuro bi
Ġneuro sci
ĠAll ure
ĠAll ied
ĠThink ers
135 80
143 2087
143 1236
143 452957
ĠVol odym
ĠVol taire
Ġconsist ent
Ġplant ed
Ġplant ing
ĠGood man
Read y
Ġregul ators
Ġregul arities
Ġregard less
Ġexperi encing
shop ping
ĠRevolution ary
ĠRevolution ized
ĠRevolution aries
Ġdeploy ing
ĠRepublic Spain
ĠRepresent ational
ĠClass ic
ĠClass ical
ĠClass ics
ĠClass ifiers
ĠClass ifier
Ġphysical ism
Ġcorpora Types
Ġbasis i
Ġutil ized
AN GE
AN ET
But ler
But tazzo
But terworth
Cun Bengio
Ele utherAI
Ele phants
Function alism
GP GPU
GP LAN
IS PM
IS PL
Ob servation
Sci Am
Sci entism
tz mann
tz ebuerg
wan i
wan athan
Ġ\ }}
Ġ\ }\
Ġge oloc
Ġge otargeting
Ġge othermal
Ġele mentary
Ġerr oneous
Ġaver ages
edd on
edd ine
Ġsmar tish
207 1725
Ġcybernetics Subfields
Ġcivil ized
Ġcivil isÃ©
Ġinvesti gative
Ġoffer ings
ĠAss ault
ĠAss istant
ĠAss essing
Ġfl ight
Ġfl ags
Ġfl agged
Ġfl awed
Ġfl uent
Ġfl avored
Ġfl ourish
Ġfl urry
Ġfalse hood
Ġmet al
Ġmet ric
Ġmet rics
Ġmet amodel
Ġmid st
Ġmid west
Ġ180 1
ĠSar le
ĠSar ah
ĠSan chez
ĠSci entists
amm adi
ament als
ĠMulti Media
ĠMulti layer
ĠMulti pur
ĠTom ography
ĠTom linson
ĠTom mi
ĠTom mas
ĠRay mond
ĠRay theon
ĠRich ards
ĠRich mond
ĠRoman ov
ĠCri ers
ĠNic o
ĠNic as
ĠNic ole
ĠNic colÃ²
sts Pope
imin ative
add ress
ĠPal isades
ĠPart ner
ĠPart nership
190 42
ĠBig gest
Ġgovern or
Ġgovern ing
ĠJack y
ĠJack ie
106 14
108 36943
Ġfore ground
open ing
ĠDi Feliciantonio
ĠDi plomat
ĠWeb site
ĠWrit ings
Ġconvers e
Ġconvers ationally
Ġconsequ ently
Ġcompeti tions
ĠLL C
ĠLL M
CITEREFAl tman
CITEREFAl lyn
CITEREFAl qudaihi
CITEREFAl terHar
Ġexhib ition
Ġexhib its
Ġtruth ful
ĠKing ma
ĠKenn a
113 883
118 2538
Ġchun ks
Ġchun king
129 67
129 4721
Ġaccept ing
Ġaccept able
153 2754
Ġappear ing
185 32
132 18
136 43
144 23
ĠVal le
ĠVal ance
ĠVal insky
Ġconstit uted
Ġconstit utional
Ġinternal ly
Ġoppos ite
Ġembedding s
Ġunderstand able
Enter ing
ĠZhang ir
Ġexplan ations
Control led
Ġprem ium
Ġbuilt in
ĠCentral ized
[...]
